#version: 0.2 - Trained by `huggingface/tokenizers`
l a
s s
c la
cla ss
= "
class _
< /
=" "
d i
di v
" >
class_ 1
r e
div >
</ div>
< div
l i
re f
h ref
p a
< a
</ a
</a >
class_ 2
pa n
s pan
t a
i d
li >
l e
o n
t i
d a
</ li>
da ta
data -
class_ 3
span >
/ >
r i
</ span>
t y
< li
class_ 4
t e
< span
r c
s c
class_ 5
class_ 6
sc ri
p t
a l
m e
scri pt
id _
< i
class_ 7
s rc
class_ 8
t h
class_ 9
class_1 0
e t
class_1 1
o p
class_1 2
< li>
class_1 3
p >
t le
ti tle
s ty
sty le
m g
ti on
6 ">
9 ">
<i mg
4 ">
u l
0 ">
5 ">
8 ">
3 ">
1 ">
7 ">
2 ">
class_1 4
< h
p e
al t
</ h
d e
script >
" />
< s
t r
ty pe
class_1 5
r g
ta rg
targ et
pa th
re l
class_1 6
c on
i g
</ p>
a -
0 "
a ri
n k
ari a-
n t
class_1 7
u e
u t
class_1 8
</ s
n a
h e
ul >
2 "
4 "
5 "
g >
op tion
1 "
class_1 9
3 "
con te
6 "
8 "
conte nt
</ script>
7 "
w id
wid th
< p
9 "
h t
r o
</ ul>
class_2 0
e l
n o
s e
class_2 1
n g
class_2 4
ig ht
me ta
he ight
< meta
b o
<li nk
u re
class_2 3
te m
e r
class_2 2
id_ 1
la b
lab el
l l
i tem
< script
t on
b ut
but ton
na me
v al
val ue
path >
</ path>
< path
f o
3 >
ro le
< ul
< span>
x t
ti c
r tic
rtic le
te xt
f i
r op
< p>
p rop
class_2 5
c t
o u
i n
d >
fi ll
2 >
option >
text /
</ i
c tion
s et
ure >
n s
</h 3>
h id
</i >
de n
hid den
</ option>
v g>
aria- label
</s vg>
m l
v g
class_2 6
<s vg
m a
< option
u se
class_2 7
f ig
me di
e ction
medi a
ta b
rc e
ou rce
<s ource
class_2 8
</h 2>
tr ue
src set
v a
true "
id_ 2
s i
< b
bo x
i ct
aria- hidden
e a
a va
j ava
java script
javascript ">
class_3 0
de r
te r
text/ javascript">
v i
e w
tr on
item prop
vi ew
t d>
no script>
<h 3
class_2 9
de x
in dex
view box
x ml
o l
li nk
c k
tab index
si z
siz e
class_3 2
class_3 3
ti me
tron g>
r />
< div>
rticle >
fo r
o k
class_3 1
</a rticle>
op e
class_3 4
xml ns
size s
<b r/>
<h 2
ict ure>
class_3 5
x link
<a rticle
g e
c li
p ut
id_ 3
n put
<i nput
o a
s tr
ok e
str oke
button >
a p
</ td>
class_3 6
</ button>
4 >
< button
i ma
style >
0 "/>
ima ge
</ p
prop er
proper ty
la ng
for m
ea der
c h
cli ck
ection >
< script>
fig ure>
class_3 7
image /
use >
</s ection>
</ use>
< use
on click
xlink :
xlink: href
<s ection
a s
n u
na v
o w
class_3 9
id_ 4
class_3 8
di ng
< ul>
s he
o r
l oa
n er
she et
style sheet
</ figure>
me nu
title >
- sc
</h 4>
class_4 0
< fig
ope ner
no opener
</p icture>
</ noscript>
< t
i con
</s trong>
p re
ng content
l >
</ style>
n e
class_4 1
tr a
<t d
ngcontent -sc
< noscript>
stroke -
tr >
e m
c e
id_ 5
m bo
class_4 2
r a
y mbo
c a
loa ding
<fig ure
</ g>
class_4 3
class_4 5
<h 3>
ll ow
ap p
class_5 0
fo llow
c i
eader >
class_4 7
no follow
u le
class_4 4
c ss
class_4 6
text/ css
class_5 1
class_4 8
p x
href lang
<s trong>
ter na
al terna
alterna te
- r
<h 2>
-r ule
button ">
class_4 9
class_5 2
id_ 6
class_6 2
class_5 6
tra ns
menu item
< g
<h 4
class_3 9">
f al
< d
</ d
class_5 3
fo o
foo ter
label >
em >
fal se
</h eader>
false "
class_5 7
time >
class_3 6">
class_5 5
d y
class_6 9
s t
fill -rule
class_6 4
b le
class_6 3
id_ 7
</ time>
class_5 4
5 >
1 >
class_2 6">
class_4 1">
- p
icon "
bo dy
class_6 5
text/css "/>
alternate "/>
hidden "
o f
class_5 8
de f
m i
trans form
e b
class_3 8">
sc ope
stylesheet "
da te
noopener "
c ol
m p
</ label>
class_5 9
class_6 7
< time
</ title>
e x
w eb
class_2 9">
class_5 7">
i mg
class_3 3">
li ne
<p icture>
class_4 9">
class_5 8">
class_4 2">
item type
class_6 6
item scope
class_8 1">
class_4 5">
class_7 7">
class_6 3">
1 0
pre se
re ct
class_7 9">
class_4 6">
class_8 3">
c o
p la
</ tr>
a ble
< style
class_5 6">
web p
image/ webp
class_6 2">
date time
ea d>
class_6 1
class_4 3">
class_3 5">
image/webp "/>
class_9 0
t ml
c ap
class_6 5">
class_2 4">
class_6 8">
n ta
class_4 8">
class_7 6
class_6 0
class_7 2
class_7 3
class_7 1
3 2
< td>
class_3 0">
de d
class_6 6">
class_5 0">
class_7 0
ex pan
et ch
class_10 7
expan ded
< label
class_8 8">
class_6 8
ref etch
class_4 4">
id_ 8
class_6 4">
class_8 0
class_6 9">
class_7 1">
< title>
class_6 0">
nav >
class_7 8
class_7 5
</ b
ci rc
aria- expanded
circ le
ol y
class_8 ">
refetch "/>
class_8 7
class_8 4
class_8 2">
class_8 9">
on t
stylesheet "/>
class_5 4">
class_6 1">
px "
class_7 3">
class_5 9">
b y
class_11 3
class_2 8">
class_10 6">
class_8 9
class_9 9
class_5 2">
class_7 9
class_6 7">
class_7 4">
class_11 0">
class_3 7">
class_9 7
class_4 0">
ict ure
class_7 5">
re r
class_9 0">
d by
n c
class_8 0">
nta tion
class_7 0">
le -
no ref
class_9 1
class_9 6">
class_11 1">
er rer
prese ntation
class_9 9">
class_7 2">
class_11 4
noref errer
<p icture
class_10 1
class_7 7
class_12 ">
c u
class_9 8">
f ont
class_9 7">
class_8 1
class_2 2">
class_8 7">
class_5 5">
class_9 4">
stroke- width
class_7 6">
class_2 3">
</ nav>
class_9 2">
y nc
class_10 0
as ync
class_5 1">
class_9 5">
class_7 8">
class_2 5">
class_11 2
class_10 2
class_9 8
class_8 6">
class_9 3">
class_9 1">
id e
class_10 0">
class_7 4
menuitem ">
q u
ymbo l
class_8 "
class_8 5">
ymbo l>
</s ymbol>
<s ymbol
class_9 3
class_3 4">
class_9 5
class_13 ">
class_8 4">
class_8 8
class_5 3">
v er
body >
d ns
dns -p
class_4 7">
class_2 7">
class_9 2
class_9 4
<h eader
dns-p refetch"/>
s able
class_8 2
class_11 3">
ou ch
u b
class_2 0">
class_10 3
class_10 3">
class_8 6
</h 1>
class_10 1">
class_3 7"
class_9 6
</b >
< style>
class_10 5">
class_2 1">
ca tion
class_8 5
class_10 8">
class_10 2">
< nav
class_8 3
class_3 1">
col or
id_ 9
class_10 5
nofollow "
class_10 7">
li cation
app lication
</h 5>
class_11 5">
class_11 8
application /
u p
class_1 8">
class_10 4
t ouch
class_1 9">
touch -
class_6 1"
app le-
apple- touch-
class_11 2">
t op
class_1 4">
class_13 5
class_9 ">
class_13 9
xmlns :
class_12 9
rel oa
reloa d
class_10 9
p reload
class_11 9
class_12 5
class_12 0">
class_11 0
a ction
le dby
f ra
ng -
class_6 ">
0 0"/>
aria-label ledby
class_16 "
class_11 5
ri g
class_11 1
class_10 ">
g on
oly gon
</ em>
class_11 4">
class_11 7">
class_13 0
class_11 ">
class_10 9">
class_10 4">
class_13 6
mi t
fra me
class_12 4
class_4 ">
class_12 4">
class_10 6
class_10 8
class_11 6">
class_11 8">
class_4 3"
class_12 1
class_12 7
noreferrer "
class_1 6">
class_11 7
< tr>
class_13 3
class_11 9">
class_13 4
li g
n on
class_12 8
footer >
class_12 6">
class_14 2">
fo cu
class_12 0
c ro
class_13 2">
lig n
class_1 7">
class_12 9">
class_11 6
class_3 2">
class_2 5"
class_12 8">
class_13 3">
class_13 1
class_13 8
class_1 5">
<h 4>
class_13 2
class_5 ">
class_3 2"
e nt
a r
class_12 3
<b >
o rig
class_5 3"
class_4 4"
s ub
class_12 3">
orig in
class_13 "
form >
xmlns: xlink
class_14 1">
qu i
class_12 5">
class_6 3"
class_13 1">
class_13 4">
m al
stroke- line
id_1 0
class_14 0
p o
</ form>
class_4 1"
class_12 2">
class_12 6
cro ss
cross origin
class_14 3">
class_19 "
class_12 2
class_13 7
< form
class_12 1">
s >
</d d>
class_14 1
class_14 4
class_12 7">
image/ j
class_6 5"
class_13 5">
class_15 1
class_14 0">
class_7 ">
class_13 0">
o d
h ol
class_3 ">
1 2
class_13 9">
hol der
pla ce
class_13 6">
s ide
place holder
class_14 5
p -
class_12 "
class_13 8">
class_5 1"
h o
class_14 6
g "/>
class_15 0
class_2 8"
class_4 2"
class_14 2
class_3 6"
class_4 0"
class_14 7
ro r
er ror
</ footer>
class_5 0"
focu sable
class_14 7">
s h
class_14 8
nt s
class_4 9"
class_14 9
class_7 4"
on error
t >
ne ct
class_3 0"
con nect
class_13 7">
class_14 "
class_3 5"
class_3 4"
class_7 5"
class_14 3
class_6 6"
class_3 8"
class_16 0
id_1 1
class_4 8"
class_14 5">
2 4"
n i
class_14 6">
nofollow ">
class_14 4">
co mp
pre connect
j s
class_2 6"
of f
tab le
cap tion
class_18 "
class_11 "
bo r
class_15 5
class_15 "
def er
presentation ">
preconnect "/>
ra di
class_5 5"
tml >
bor der
class_4 7"
x -
class_6 2"
class_16 1
class_3 3"
class_5 8"
g a
class_15 3
class_15 4
class_2 0"
1 5
class_14 8">
class_5 2"
image/j pe
sub mit
class_15 2">
l o
class_9 "
class_4 5"
class_5 4"
image/jpe g"/>
class_6 9"
ch ar
class_2 3"
char set
class_15 3">
class_2 7"
class_16 5
class_5 6"
class_3 9"
class_4 6"
class_15 7
ma r
class_8 7"
c y
class_7 2"
class_16 6
a lign
tr ol
mal l>
ht t
preload "/>
class_16 4
class_6 8"
class_5 9"
class_2 9"
class_5 7"
class_15 0">
h as
<h 1
class_7 1"
class_17 "
c x
pa ci
op up
class_15 8
def s>
class_15 4">
class_7 8"
6 >
img "
< option>
class_2 4"
apple-touch- icon"
p opup
class_15 2
con trol
class_16 2
class_15 9
class_3 1"
class_9 1"
rect >
</ rect>
< rect
< footer
has popup
id_1 2
class_7 0"
aria- haspopup
class_8 8"
class_15 6
ma in
class_7 6"
class_16 9
class_9 6"
class_15 6">
class_16 3
<i >
class_8 9"
class_16 7
</h tml>
type of
class_15 9">
me th
</ body>
class_7 3"
meth od
class_6 4"
class_14 9">
control s
</h ead>
class_16 2">
class_2 1"
class_15 1">
c he
class_8 2"
class_16 3">
class_10 7"
class_16 0">
class_6 7"
< em>
class_8 6"
menuitem "
class_16 4">
class_8 0"
class_2 ">
class_10 "
<d d>
class_7 9"
qui v
class_9 5"
e quiv
po i
class_15 5">
aria- controls
class_1 "
p- equiv
htt p-equiv
js on
si on
class_16 1">
poi nts
class_10 0"
circle >
< circle
</ circle>
mar k
class_17 1
che ck
class_8 5"
class_17 0
class_2 2"
class_9 0"
class_6 0"
e le
class_16 8
class_17 3
class_15 7">
<h ead>
class_10 1"
class_17 6
f e
<h 5
p ng
id_1 3
class_8 1"
image/ png
image/png "/>
class_18 4
class_19 0
class_9 7"
ver sion
2 0
class_9 3"
n ter
class_9 4"
- a
class_15 8">
1 8
icon "/>
button "
class_7 7"
tron g
class_10 8"
bo ok
class_18 6
class_18 8
class_8 3"
class_10 4"
class_16 6">
class_10 2"
10 0
a tion
1 6
class_8 4"
u r
book mark
class_9 8"
a ut
class_17 2
<s trong
class_9 9"
class_12 2"
caption >
class_11 2"
class_18 3
class_18 7">
1 7
<h tml
class_17 0">
ce nter
class_16 5">
class_17 4">
class_19 2
class_11 8"
class_17 8
class_10 5"
class_17 5
class_19 1
class_17 4
class_9 2"
1 4
class_18 9
class_16 8">
text/css ">
off set
class_17 7
<h eader>
id_1 4
class_17 9
class_10 3"
class_17 2">
class_19 5
class_17 7">
json ">
cli p
px "/>
100 %
</h 6>
class_18 2
class_12 8"
class_18 5
m ou
class_24 1
stroke-line cap
mou se
aut o
<p olygon
</p olygon
</polygon >
class_21 5
class_19 3
class_11 1"
s -
rc h
1 6"
class_18 1
class_16 7">
op -
class_6 "
class_23 7
class_11 9"
st op-
class_21 2
class_18 7
class_5 "
class_17 1">
class_11 7"
class_21 0
a rch
class_7 "
top >
class_11 3"
<s top
</s top>
class_17 3">
class_13 0"
< g>
class_21 6
class_17 9">
< figure>
radi ent
on mouse
class_4 "
o ut
4 "/>
class_10 6"
class_12 5"
class_18 0
class_19 0">
class_18 5">
5 "/>
class_10 9"
class_17 8">
class_16 9">
class_19 1">
class_13 7"
class_18 6">
class_17 5">
te g
m o
v e
or t
class_24 0
class_11 5"
class_12 3"
<h 5>
class_12 4"
class_17 6">
2 "/>
ro u
paci ty
o pacity
class_20 4
class_11 4"
class_12 7"
class_18 1">
check box
class_12 6"
class_18 9">
non e
class_11 0"
class_11 6"
class_19 5">
class_12 9"
comp le
class_18 0">
class_18 4">
class_19 8
class_13 6"
tra ck
class_19 4
class_19 7
se arch
class_14 1"
id_1 5
side >
class_19 6
class_19 9
class_21 4">
class_23 8">
class_20 9">
class_24 3
a c
1 3
te >
</s mall>
class_14 3"
class_19 4">
class_2 "
a n
frame >
class_19 6">
<i frame
class_14 0"
</i frame>
class_20 8
class_20 3
class_24 5
32 px"
class_22 4
</d t>
class_24 2
sh ort
class_20 1
class_20 7
class_24 6">
c al
class_19 2">
alternate "
none ">
class_18 2">
d +
class_21 1
class_14 6"
la y
class_1 ">
class_13 4"
- id
class_20 0
class_19 7">
class_24 2">
font >
class_12 0"
class_13 8"
</a side>
class_18 3">
class_24 1">
class_21 1">
xml "/>
text "/>
id_1 6
32 px"/>
class_15 6"
class_13 1"
class_13 9"
class_20 6
class_20 5
class_13 2"
j o
<h 1>
class_12 1"
class_23 4
class_20 2
class_13 5"
class_24 4">
8 "/>
table >
jo in
<h r/>
class_23 0
ele ct
</ font>
ig ation
s k
class_22 3
class_20 8">
or y
2 0"
class_21 8">
class_21 3
class_23 9
class_15 4"
class_24 3">
stroke-line join
class_19 9">
class_21 9">
class_24 0">
i cal
stop- color
non ical
ca nonical
class_23 8
el l
< tr
< body
class_14 7"
c ell
nav igation
class_15 7"
class_19 3">
id_1 0">
class_14 2"
<a side
class_3 "
class_15 8"
class_22 5">
class_14 5"
class_18 8">
canonical "/>
< em
< font
0 0"
1 "/>
class_19 8">
class_22 0
ca teg
</ fig
</fig caption>
class_23 6
categ ory
class_22 3">
class_15 3"
class_15 2"
class_23 9">
class_21 9
class_22 0">
v -
te d
class_23 2
th >
comple te
</ table>
class_20 5">
class_15 1"
class_25 2
1 9
l d+
ld+ json">
img ">
auto complete
application/ ld+json">
text "
class_14 9"
class_20 9
class_22 6">
</ defs>
class_23 1
class_21 7
class_22 7
n d
class_21 7">
clip -rule
class_22 6
id_ 2">
class_16 5"
loa d
id_ 4">
class_13 3"
class_21 4
class_22 7">
ngcontent-sc 5
</d l>
class_23 4">
class_14 4"
class_22 2
id_ 1">
class_15 0"
id_ 3">
id_ 6">
class_21 3">
class_22 5
+ xml"/>
submit ">
<h 6
class_23 3
ngcontent-sc 7
class_22 1
class_20 2">
id_ 5">
tem pla
class_23 5">
navigation ">
class_20 0">
class_20 6">
class_23 1">
< defs>
<h r
presentation "
ta g
class_20 1">
t o
c ut
2 5
id_1 7
ma sk
class_23 6">
class_23 5
< table
id_ 8">
short cut
class_22 9
class_14 8"
submit "
b e
id_ 7">
3 00"/>
y -
class_21 8
u th
class_22 8
menu -
id_ 9">
se le
n ea
id_1 1">
class_24 4"
rg radient
nea rgradient
class_23 7">
mp -
class_24 6
ht ml
uth or
class_25 4">
class_21 6">
id_ 4"
class_16 2"
class_24 7">
2 4
class_16 1"
class_24 5">
de sc
class_20 3">
class_25 3
class_15 9"
class_23 0">
class_18 2"
id_1 3">
ho e
hoe ni
id_1 4">
class_24 7
menu ">
re d
id_1 2">
class_20 7">
class_16 3"
class_16 0"
class_20 4">
class_24 9">
di sable
8 0"/>
class_21 2">
id_ 3"
d ow
id_ 5"
class_15 5"
<s vg>
id_ 2"
s pa
la z
de scri
xml :
<d t>
class_21 5">
a uthor
v el
id_1 5">
preload "
v ide
id_1 8
vide o
bookmark ">
id_1 7">
3 6
class_25 0
id_1 6">
x 2
le vel
c ou
spa ce
sele c
class_22 8">
lay out
x 1
id_ 1"
class_17 2"
class_22 9">
class_22 2">
re a
y 2
class_21 0">
1 5"
y 1
class_16 6"
id_1 9">
application/ r
e y
checkbox "
class_25 1">
he a
ol >
id_1 8">
selec ted
</ th>
class_16 4"
o g
id_ 6"
class_23 2">
di r
1 2"
id_ 7"
id_2 0">
li st
< body>
class_26 0
main >
line >
class_16 7"
- link
class_18 9"
u p>
<s mall>
g g
d ra
d d
class_23 3">
class_16 9"
class_25 5">
- b
r x
icon -
lo ck
class_17 0"
hoeni x-
r t
re qui
class_25 0">
6 0
s ti
id_ 9"
2 2
class_25 3">
id_1 9
dow n
class_22 1">
class_25 1
id_2 1">
k ey
class_24 8
o ver
templa te
id_2 3">
requi red
li mit
class_22 1"
ter limit
mi terlimit
stroke- miterlimit
class_25 6">
i f
class_24 8">
center >
id_ 8"
class_17 4"
true ">
4 0"
id_2 5">
fi el
class_22 4">
li sti
fiel d
- con
id_2 2">
class_17 5"
listi tem
class_24 9
5 0"
id_1 0"
radi o
class_24 4
id_2 4">
g rou
class_18 3"
8 0"
class_25 7
gg able
dra ggable
v ent
class_17 3"
ur l
class_17 1"
bookmark "
font /
class_18 1"
class_16 8"
a t
3 2"
id_2 7">
listitem ">
ni fe
ma nife
manife st
class_17 7"
id_2 9">
e vent
class_18 0"
class_18 5"
id_2 0
<a rticle>
s paci
id_2 6">
class_18 8"
s ta
ngcontent-sc 4
class_21 3"
disable d
class_24 2"
<d d
class_21 0"
a rticle
1 8"
class_25 4
co ding
de coding
w off
</ main>
class_18 7"
tag ">
6 "/>
< no
class_25 9
va lign
class_26 2
bo ut
font/ woff
a ck
id_1 1"
< th
ho st
f t
id_2 8">
class_28 4"
xml: space
le ft
class_23 2"
comp o
e a-
application/r ss
</ ol>
application/rss +xml"/>
al og
px ">
class_25 6
id_1 3"
a bout
class_25 5
pan el
ng host
class_17 6"
se d
s pe
class_19 3"
class_18 4"
class_28 0
id_1 2"
class_22 2"
id_3 0">
a ge
r y
ac ce
1 0"
ngcontent-sc 6
class_26 3
id_3 1">
class_26 8
class_27 5
class_25 8
id_1 4"
class_17 8"
col span
spaci ng
t ri
id_3 2">
pre compo
icon- precompo
icon-precompo sed
apple-touch- icon-precomposed
i l
cou nt
class_26 4
mp- img
ngcontent-sc 0
class_24 1"
ele me
class_26 6
2 0"/>
l ow
class_25 9">
class_27 7
class_25 7">
id_1 5"
class_27 4
ma x
class_26 5
class_19 5"
m -
3 "/>
nghost -sc
class_25 8">
e d
qu o
3 0
100% ">
ct -
class_26 1
class_27 6
id_3 3">
p se
class_27 3
class_22 6"
class_25 2">
le ng
mp html
desc >
leng th
class_27 0
1 4"
class_20 2"
class_19 4"
class_30 4
< title
class_19 8"
class_22 3"
class_19 0"
elect >
< label>
class_30 2
class_20 4"
<d l
class_27 8
class_27 2
2 9
class_19 6"
class_20 5"
class_28 1
b r
</s elect>
id_1 6"
32 0"/>
id_3 4">
class_26 9
class_19 7"
-a mphtml
-amphtml -
3 0"
<fig caption
class_19 1"
class_19 2"
1 3"
ti ve
class_36 4
class_33 1
<s elect
class_21 2"
< main
class_17 9"
lock quo
class_26 7
d ding
<no script
class_27 1">
max length
id_3 5">
class_20 8"
field set
v f
id_3 6">
pa dding
cell spacing
radio "
class_26 4">
u age
class_26 0">
class_28 2
10 0"
fi l
class_22 5"
class_23 9"
vf -con
lang uage
100% "
f a
class_27 1
fil ter
onmouse down
class_32 8
mal l
font/woff 2"/>
on load
cell padding
id_2 2
re ss
class_26 3">
tab panel
class_24 3"
18 0"
class_26 2">
ti o
id_1 7"
class_27 9
class_20 3"
id_3 7">
prese r
class_18 6"
aria- selected
class_26 9">
spe c
id_3 8">
class_20 0"
class_26 1">
laz y
class_26 8">
2 8
class_19 9"
v ea
t s
class_30 5">
tra tio
class_20 6"
preser vea
spec tratio
preservea spectratio
class_36 5">
id_3 9">
aria- descri
ro up
class_25 1"
<fig caption>
aria-descri be
6 0"
el li
- opacity
aria-describe dby
u ni
onmouse over
re e
article ">
class_27 2">
id_2 3
4 0"/>
class_22 8"
lo t
al low
<h 6>
di alog
class_22 4"
class_28 5
class_24 5"
g roup
tab ">
ter n
5 0"/>
class_21 4"
id_1 8"
1 1"
re s
< ol
checkbox "/>
class_29 3
class_20 7"
dd ress
id_4 0">
< fe
</ fe
la te
class_26 5">
ng- ref
ng-ref le
class_24 0"
class_23 3"
id_1 9"
apple-touch-icon-precomposed "
i s
class_28 8
class_26 7">
class_29 1
class_26 6">
<s mall
id_2 4
7 5"
id_2 0"
class_27 6">
class_20 9"
<a >
trans late
class_29 2
fill -opacity
ga label
ga action
ga category
id_4 1">
class_21 1"
a pe
id_4 2">
g radient
id_4 3">
image/ x-
class_20 1"
id_2 3"
</ li
7 "/>
image/x- icon"/>
class_28 4
neargradient >
</li neargradient>
<li neargradient
id_2 1
sh ow
m od
class_30 3
class_27 0">
1 em
id_2 5
id_2 2"
class_28 9
id_4 4">
class_27 4">
</ t
class_28 3
center "
tabpanel ">
class_23 8"
class_23 1"
class_28 1">
uni ts
id_2 1"
class_33 6">
ack grou
application/ json">
6 0"/>
class_28 2">
</s up>
class_29 5
- c
mod ule
class_27 8">
<li ne
s lot
ga value
ng- if
</ line>
id_2 6
id_4 5">
<b r
class_23 7"
<d l>
class_21 7"
class_27 9">
track -
ackgrou nd
<s ection>
class_28 3">
class_28 7
class_21 5"
class_29 0
u m
b l
s p
class_30 6
id_4 8">
or d
b br
class_30 0
id_4 6">
2 3
in er
p ro
class_27 5">
15 0"
class_28 7">
id_4 7">
class_29 8
class_22 0"
class_21 8"
class_23 0"
class_39 2
10 0"/>
</ desc>
ta iner
id_4 9">
aria- level
< footer>
class_24 8"
class_27 7">
m _
class_29 7
class_27 3">
class_29 4
id_2 7
rou ter
id_5 0">
ngcontent-sc 17
ng-refle ct-
author ">
4 8"
template ">
ho me
class_29 3">
class_21 9"
fieldset >
font -
d o
class_28 9">
class_29 6
class_28 6
ngcontent-sc 2
class_29 9
focu s
class_30 9
id_5 4">
co de
e ma
class_28 5">
_ c
author "
lockquo te>
se r
id_5 2">
1 6">
class_28 6">
bl ur
2 7
pa ge
ema il
class_22 9"
g a-
id_5 3">
class_39 4
id_5 1">
frame border
class_33 0">
ma nu
id_2 5"
class_33 0
center ">
manu al
_c m_
manual _cm_
20 0"
hea ding
id_2 8"
id_2 4"
class_28 0">
id_2 9"
15 0"/>
class_30 5
ci te>
class_32 9
class_32 7
p refetch"/>
left "
<p hoenix-
</p hoenix-
class_21 6"
class_24 7"
class_25 5"
b j
class_33 2
class_31 1
search ">
event -
i on
id_2 8
va li
class_30 7
class_23 4"
<d t
class_23 6"
id_2 6"
- ca
n ima
pe r
class_29 2">
</ center>
class_29 0">
manifest "/>
ma tri
id_3 2"
class_29 4">
id_3 3"
nav -
hidden "/>
ver s
class_30 1
9 9
class_24 6"
id_5 5">
an ner
2 5"
id_5 6">
id_5 8">
id_2 7"
eleme nts
class_25 4"
matri x
class_32 5
id_2 9
hea der
< center>
s- count
vers ation
fa ce
o bj
class_31 0
s li
id_5 7">
vf-con versation
tern al
vf-conversation s-count
me nt
100% "/>
class_28 8">
na ble
ex ternal
id_5 9">
- content
class_29 1">
apple-touch- icon"/>
p tion
class_33 4
class_30 1">
class_33 9">
- image
pt -
class_30 3"
pla y
class_35 6
elli pse
l -
image/j p
id_3 1"
class_33 7
search "
class_35 8
ddress >
class_30 4">
16 "/>
descri ption
2 4">
class_35 0
id_6 0">
b g
sh ape
id_6 1">
u >
class_32 0
class_30 7">
2 00"/>
re g
class_28 4">
menu- item
ul t
class_36 2
n -
conte n
class_36 0
s "
class_30 3">
class_30 8
id_3 0"
3 00"
class_33 3
2 6
class_33 9
9 "/>
l y
id_3 4"
class_26 1"
laz y-
d -
class_35 1
non ce
class_31 2
e nable
class_32 4
class_33 5
<p oly
id_3 0
</p oly
<poly line
</poly line>
class_25 0"
class_23 5"
main ">
b anner
reg ion
class_31 4
-b ackground
class_32 3
< ea-
</ ea-
id_6 3">
stop- opacity
id_6 4">
id_6 6">
class_34 2
class_34 9
<s up>
id_6 2">
acce ss
bg color
class_30 6">
class_31 3
class_26 5"
class_25 7"
ul l
class_22 7"
class_25 8"
class_34 4
ngcontent-sc7 6
3 3
id_3 5"
class_30 2">
l w
class_39 3">
b ar
class_29 9">
sc ree
id_6 5">
class_27 0"
class_29 8">
check ed
ng- class
w lw
wlw manifest
1 0"/>
g t
class_25 2"
class_31 5
enable -background
- type
on focus
cli ent
class_32 9">
class_26 2"
ac tive
heading ">
class_25 3"
class_31 1">
r ap
value s
siz er
< f
</ f
no re
se ction
class_26 9"
1em "
class_32 2
class_31 4">
<a mp-img
</a mp-img
</amp-img >
link -
class_34 1
id_3 7"
sli de
class_31 2">
class_34 6
class_32 8">
group ">
2 2"
-amphtml- sizer
class_32 1
id_6 7">
4 00"/>
class_29 5">
</t body>
2 8"
be d
list ">
f ull
class_25 9"
class_24 9"
class_32 6">
n mo
cu r
scree n
ti n
class_26 0"
5 00"/>
class_32 7">
class_30 9">
3 7
sta rt
id_3 6"
full screen
class_27 7"
class_34 3
class_33 8">
class_34 0
id_6 8">
class_26 3"
class_29 7">
class_34 7
banner ">
class_31 0">
ur l>
class_31 6
b in
id_4 2"
id_3 9"
ti g
- item
class_31 8
gradient units
j tig
<h tml>
presentation "/>
access key
jtig nore
% ">
ngcontent-sc 8
60 px"
jtignore url>
class_29 6">
id_6 9">
ri ty
class_33 6
class_33 2">
p h
dialog "
class_34 5
id_4 0"
mo de
class_35 5
noopener ">
-p o
id_7 0">
class_33 7">
color matrix
id_7 1">
acce pt-
accept- charset
class_35 7
application/ json
60 px">
class_32 3">
12 0"/>
id_7 2">
class_33 8
id_7 4">
option "
o re
class_25 6"
</b lockquote>
rig ht
class_36 1">
class_36 5
0 .
i x
re nt
p s
li ve
class_30 8">
id_7 3">
i tion
</ fieldset>
id_4 4"
trans ition
ng- show
em bed
class_37 3
class_32 4">
id_4 1"
class_36 3
te st
id_3 8"
class_35 4
class_33 5">
u n
class_31 6">
id_4 3"
w rap
onmouse out
class_32 0">
1 15"
link "
ph x-
di t
grou p>
p ref
class_32 1">
track -id
phx- track-id
class_33 3"
aria- live
3 5
b i
in teg
class_36 3">
<t body>
id_7 5">
ro w
class_35 2
/ /
- loa
class_35 9
pref ix
integ rity
i -amphtml-
class_36 6
7 0"
link "/>
short link"/>
hid e
3 8
class_45 3
router link
video >
class_30 2"
< desc
e z
g -
on ent
d u
p p-
ser ver
image/jp g"/>
po s
8 00"/>
allow fullscreen
id_7 6">
9 0"
in line
comp onent
i-amphtml- layout
_ _
+ o
embed "/>
+o embed"/>
class_30 0">
class_31 5">
bin d
1 .
t -
class_39 5"
15 4"/>
b u
conten tin
contentin fo
-loa der
class_32 2"
2 0">
32 "/>
id_4 5"
class_37 2
class_31 7
class_37 4
col la
id_4 6"
client -
res ult
contentinfo ">
< th>
20 px"
class_26 6"
class_32 6
class_34 0">
0 px"
ord s
me nta
email "/>
class_36 1
class_37 6
menu "
id_8 0">
class_33 1">
id_7 7">
rea d
clip path
region ">
< video
manual_cm_ sp
menta ry
class_28 0"
id_7 8">
i ng
class_31 3">
v- if
class_36 9
search "/>
nd .
< time>
v nd.
</a ddress>
sc ore
<a rea
eleme nt
comple mentary
co ords
class_31 0"
< nav>
text/ html
id_4 7"
templa te>
image/ vnd.
ngcontent-sc4 7
on :
class_26 7"
id_7 9">
id_8 1">
r -
</ video>
elements -loader
n ew
text/ template">
</ cite>
class_37 5
id_8 2">
class_27 9"
class_32 2">
al -
24 px"
ngcontent-sc 9
m u
clip path>
4 8"/>
class_30 8"
ngcontent-sc5 1
re pe
repe at
e ct
class_28 2"
class_34 8
class_34 4">
id_4 9"
class_26 8"
36 0"/>
le ge
class_33 2"
</ clippath>
class_29 7"
class_31 9
class_36 7">
pre ss
ga- event-
class_31 8">
4 8
1 7"
colla pse
class_37 9">
n d>
c or
noreferrer ">
class_27 4"
cur rent
-a c
routerlink active
class_35 3
< clippath
g o
class_37 1
class_28 5"
id_8 3">
id_5 1"
on blur
id_5 0"
class_33 3">
class_32 6"
class_38 6
id_3 4
class_26 4"
id_3 3
6 00"/>
id_8 4">
class_36 8
id_9 8">
bbr >
class_29 5"
v- on:
id_8 9">
mask >
0 0
</ mask>
< mask
class_33 4">
class_35 9">
id_9 0">
id_8 5">
l z
class_29 4"
te x
ca n
re p
conte xt
class_27 5"
ta rea
id_3 5
tex tarea
id_4 8"
class_32 5">
</ template>
class_36 7
class_28 7"
class_42 6
test -id
di s
</a bbr>
class_32 3"
6 40"/>
sc ro
ng- transition
: //
r d
ng- click
text >
id_3 7
ti le
te -
o rg
class_38 0
class_37 8
id_8 6">
id_8 7">
id_3 6
29 0"/>
class_28 8"
htt ps
3 9
3 4
class_30 4"
id_5 3"
class_37 9
lazy load
<a bbr
s u
id_8 8">
> </a>
class_34 2">
b -
class_31 9">
mask -
class_37 7
https ://
id_9 1">
36 0"
6 4"
class_29 1"
to ol
class_38 1
class_32 9"
c -
o pt
ap i
id_5 8"
class_27 2"
class_37 5">
id_5 2"
do cu
dialog ">
id_5 7"
b ack
class_29 2"
class_27 1"
class_35 8">
id_5 5"
xml: lang
class_37 6">
ho t
class_28 1"
class_31 9"
mask- icon"/>
le r
/ "/>
obj ect
. org
class_38 8
li d
id_5 9"
class_35 3">
tri bu
ngcontent-sc 3
id_9 2">
14 7"
. w
mo bi
2 4"/>
dis play
class_38 4
on key
tainer -id
class_27 8"
tribu te
5 7
id_9 3">
nima te
ment ">
can va
hot rep
y g-
< template
mo da
15 "/>
4 00"
class_31 7">
text/ x-
class_40 4
api .w
.org /"/>
api.w .org/"/>
left ">
https:// api.w.org/"/>
mu ted
id_9 5">
u s
at tribute
fi le
a le
class_30 6"
id_5 4"
class name
scro l
</ u>
video /
lo op
class_37 0
id_5 6"
id_9 4">
5 0
id_6 5"
16 9"
2 6"
aria- current
class_36 0">
25 0"
ub >
id_9 6">
ss i
id_9 7">
3 5"
- sub
_ src
3 6"
i s-
k b
li ng
class_39 0
ez a
i t
class_40 3
class_35 7"
y- menu-item
12 5"
id_9 9">
id_3 1
. 4"
class_30 7"
class_34 1">
vf-con tainer-id
scrol ling
< vf-conversations-count
</ vf-conversations-count
co m
cou n
</vf-conversations-count >
class_36 4">
4 0
d ur
aria- role
list box
class_35 5">
ngcontent-sc 1
docu ment">
<a nimate
al y
attribute name
12 0"
w ord
class_28 3"
option ">
repeat count
j j
aria- disabled
yg- server
class_34 9">
12 00"/>
class_27 6"
of t
pa ss
si tion
cli p-
ngcontent -c
an -
3 3"
s oft
4 9
3 2">
< ellipse
</ ellipse
class_39 9
pro du
</ellipse >
clip- path
class_37 8">
id_6 0"
text/html ">
4 6
ngcontent-sc6 1
po li
4 50"
class_34 6">
id_10 0">
class_40 0
2 7"
id_6 1"
mi cro
class_34 7">
18 "/>
s el
class_38 2">
ngcontent-sc 20
header s
24 0"/>
class_35 0">
id_3 8
class_34 3">
class_38 3
class_36 2">
font- size
p si
id_6 2"
m s
class_36 8">
class_45 6"
s o
pass word
th is
id_10 2">
ngcontent-sc5 6
1 9"
</ in
class_27 3"
data type
class_38 5
on context
micro soft
oncontext menu
12 "/>
microsoft .
image/vnd. microsoft.
class_37 2">
id_10 1">
image/vnd.microsoft. icon"/>
p ub
rou sel
class_31 3"
lege nd>
class_40 5
pro file
class_39 7
<i ns
</span> <span
</a nima
-link >
</in s>
class_29 0"
id_6 3"
c width
class_33 5"
14 0"/>
</anima te>
ri mar
id_3 2
id_10 3">
U R
class_38 1">
id_6 4"
u ssi
no module
class_35 4">
id_3 9
ga ussi
an blur
gaussi anblur
tab "
class_30 0"
class_36 6">
-p icture>
- w
4 7
< desc>
class_33 6"
aly tic
ter -
class_34 5">
class_37 1">
class_38 2
coun tr
i -
te "
loa k
c loak
id_7 0"
id_10 4">
< button>
t ure
d+ xml"/>
class_38 5">
-content -sc
yg-server -content-sc
s d+xml"/>
application/r sd+xml"/>
3 0"/>
class_38 0">
E dit
I "
UR I"
Edit URI"
on ly
class_33 4"
rg e
right "
class_35 1">
id_6 6"
class_29 9"
id_10 5">
di >
id_10 7">
</ text>
tab -
class_35 7">
<b lockquo
18 0"/>
<blockquo te
id_6 9"
id_10 6">
class_38 7
tool ti
8 5"
< ol>
a d
nu m
class_38 3">
page "
id_6 7"
home "
d p
op lay
application/ wlwmanifest
wlwmanifest "
application/wlwmanifest +xml"/>
class_29 6"
item id
r s-
class_35 6">
4 5
class_32 5"
aut oplay
< u>
class_33 1"
class_39 8
elli psi
da tion
class_39 5
mobi le-
tab list">
ngcontent-sc 12
class_38 0"
id_10 8">
d le
class_32 8"
id_10 9">
gt m-
class_35 2">
id_6 8"
id_7 1"
1 4">
1em ">
3 50"/>
link ">
class_28 6"
class_34 8">
<i -amphtml-sizer
</i -amphtml-sizer
class_30 1"
class_31 8"
class_42 4
lo ca
radio "/>
</i-amphtml-sizer >
t or
class_38 4">
id_4 0
id_11 0">
ve d
<li> <a
s inline
</s ub>
ma ge
application/ javascript">
level -
7 0"/>
class_39 3
poli te"
-a t
k -
bind :
9 0"/>
< cite>
class_37 3">
class_37 7">
class_38 9
pla in
a dd
class_30 9"
class_31 2"
cor di
6 6
pa t
20 3"
class_37 9"
% "
-at tr
i nk
4 4
text/ plain
class_39 1
-a rticle
2 1"
c r
class_37 0">
< text
- src
o m-
class_30 5"
class_40 1
e lid
manual_cm_ re
id_7 4"
</f jtignoreurl>
5 6
id_11 1">
vali date
<f jtignoreurl>
cordi on
no de
ea d
class_40 2
n ce
class_29 3"
id_7 5"
id_11 3">
ngcontent-sc4 9
class_36 9">
id_8 0"
v- bind:
ng e
class_28 9"
add this
g j
gj alog
a se
video/ mp
re mo
class_31 1"
id_7 2"
id_11 4">
play sinline
text -
id_11 2">
<fe colormatrix
</fe colormatrix
</fecolormatrix >
me rge
obj id
< fieldset
id_7 3"
code >
email "
i ve
t ree
or -
addthis :
6 5
no validate
text/plain ">
2 3"
mi c
1 0">
class_40 9
s vg
<a ddress
external ">
-po s
7 4
id_7 8"
b lock
d rop
id_7 7"
class_41 9
class_31 5"
class_37 7"
class_43 3
12 80"/>
class_47 6
25 0"/>
class_43 8
id_7 6"
moda l
aria-role description
arch ive
application/json "/>
8 0
ol ved
class_35 1"
cu st
6 20"/>
no wrap
archive s"
res olved
un resolved
filter >
< fieldset>
aria- required
class_41 7
id_11 7">
class_39 1">
</ filter>
ch a
class_40 8
< filter
16 0"/>
id_11 5">
4 5"
class_34 0"
id_11 6">
3 4"
class_41 8
ma p
6 5"
class_31 7"
id_12 1">
- to
w e
me nts
article "
pat tern
id_7 9"
ale rt
s id
on submit
th e
pa ra
class_39 6
ont ouch
0. 75"
toolti p
- in
id_12 0">
ontouch start
7 5"/>
br >
tree item
ma rg
id_11 8">
video/mp 4"/>
marg in
va r
su per
apple-touch-icon-precomposed "/>
application/json +oembed"/>
<a pp-
</a pp-
v-on: click
class_42 1
class_37 4">
class_40 7
id_8 2"
-con tainer
remo te
on e
class_43 0
36 "/>
module ">
object >
id_12 4">
Ã 
text/ xml
js -
class_38 7">
12 4"
read cr
readcr um
7 6
class_36 5"
hoeni x
ca rousel
_ title
at remote
-w he
countr y
text/xml +oembed"/>
</li> <li><a
class_42 2
id_12 2">
complementary "
class_33 0"
id_8 1"
id_11 9">
17 4"
hoenix -picture>
class_33 7"
class_34 1"
16 0"
id_12 3">
<h ead
-b readcrum
bar ">
<s up
font/woff "/>
h i
k i
class_41 5
6 00"
id_12 8">
profile "/>
dy na
track ing
class_41 1
class_47 1
20 00"/>
rimar y-
- re
cha nge
class_33 9"
id_12 5">
class_31 6"
class_44 6
17 6
<b lockquote>
id_8 5"
class_32 1"
class_34 6"
id_12 7">
2 5"/>
class_38 6">
1 5">
si te-
ope n
password "/>
-whe n-
a li
class_42 0
home ">
< client-
</ client-
ngcontent-sc2 1
7 5
id_8 3"
class_41 2
<ea- elements-loader
</ea- elements-loader
</ea-elements-loader >
2 80"/>
-a n
gradient transform
1 8">
we ight
id_12 6">
class_34 2"
<s ub
ngcontent-sc 14
id_12 9">
3 0">
sh a
font- weight
alytic s-
complementary ">
slide "
hide -sub
-when- collapse
hide-sub -when-collapse
n >
id_13 0">
-link -
class_49 0">
id_8 6"
5 4"
</ legend>
class_29 8"
id_13 1">
tile -pos
< nmo
a ss
</ nmo
er >
class_45 5"
- s
class_42 5
l back
te a
j ss
class_45 9
onkey press
class_32 7"
id_8 4"
vali dation
external "
5 00"
g dp
-ca rt
- nav-
1 2">
class_41 3
class_41 6
class_45 7">
class_40 3">
1 -
4 80"/>
ngcontent-sc 10
class_43 6
class_41 0
class_41 4
is- lazy
produ ct-
op in
class_57 1
id_8 7"
lz _src
ti ng
-a dd
6 4
m q
class_35 8"
14 "/>
router -link
textarea >
- icon
class_36 2"
ti le-
class_34 9"
c c
fa mi
tea ser
id_9 0"
id_9 1"
b ackground
class_31 4"
class_35 2"
id_13 6">
id_13 5">
class_33 8"
<b ase
class_39 8">
22 5"
n opin
w i
-to -cart
fami ly
l -b
class_44 3
id_13 3">
22 1"/>
alert ">
link -id
12 px"
id_13 7">
< main>
ng- cloak
id_13 2">
track -add
read only
track-add -to-cart
font- family
r d>
</ textarea>
class_34 3"
ng-reflect- router-link
</ no
class_42 3
class_39 6">
class_45 4
9 6"
v ari
class_48 7
id_9 2"
id_9 3"
lo g
id_13 4">
class_39 2">
id_16 9">
gdp r
<a mp-
</a mp-
f low
<i mage
class_46 1">
fal lback
id_8 8"
2 2">
class_41 2">
class_43 5
a go
er tive
class_47 9
pos ter
ass ertive
class_45 2
ngcontent-sc9 3
5 6"
4 2"
<a ddress>
class_40 6
menu- level
tab- index
< textarea
time ago
class_35 9"
ngcontent-sc 16
to m
gt m
2 .
class_40 0">
col um
lz img
</ th
class_40 2"
js name
over flow
</t span>
ngcontent-sc3 19
assertive "
class_42 4">
class_36 3"
class_43 1
class_51 8
ng- href
ng- bind
id_13 8">
</th ead>
ngcontent -
row span
u id
class_48 9">
id_14 1">
<t span
h a
sc ape
time s
ngcontent-sc2 14
class_44 2
box -
class_57 3">
></a> </li><li><a
9 0
f lo
id_8 9"
17 px"
opt group>
id_13 9">
- button
class_39 5">
L E
class_34 8"
ci te
up -image
apple-touch- start
13 2"
apple-touch-start up-image
4 4"
</ optgroup>
class_48 5">
class_48 8"
id_14 2">
3 1"
e dit
class_42 8
19 20"/>
opt group
2 80"
-p rimary-
key times
< optgroup
id_9 4"
id_9 7"
2 32"/>
menu bar">
treeitem ">
id_4 5
kb d>
class_40 2">
sele ct
3 8"
T "
176 3"/>
z e
le t
class_42 9
drop down
class_37 3"
class_47 3
listbox "
ink scape
- text
o type
in vali
image/ svg
class_44 5
js action
c ta
no translate
ch il
class_43 4">
-p ro
id_14 0">
13 0"/>
7 20"
class_46 7
u k-
con tainer
class_34 4"
id_14 3">
ac cordion
2 20"
5 8
< table>
class_39 9">
class_40 4">
ngcontent-sc 99
id_9 6"
canva s>
1 px"
class_45 1
id_14 5">
8 0">
16 px"
cust om-
class_44 1
inline -
la ce
is us
is gdpr
per s
inkscape :
class_41 7">
invali d
target -attr
menu _
-po sition
class_32 0"
class_40 5">
class_48 6">
17 "/>
- name
</ canvas>
class_35 0"
class_44 4
-link -primary-
menu-item -link-primary-
canva s
merge node
menu-item-link-primary- level-
7 0
l ">
class_34 7"
class_57 0">
id_14 4">
disable web
t mp
ho to
image/jp 2"/>
class_35 6"
class_57 2"
6 5"/>
class_42 7
disableweb edit
ngcontent-sc 18
class_46 6
</ kbd>
ne -
apple-touch-startup-image "/>
< canvas
m in
id_4 6
id_9 8"
5 5
a nt
<a side>
class_45 8
14 px"
mode l
3 .
ta x
class_39 0">
class_47 7">
id_9 5"
class_38 8"
13 "/>
s _
<h y-menu-item
</h y-menu-item
button -breadcrum
class_36 0"
class_45 4">
menu- link-id
menu- button-breadcrum
page -
b- main
</hy-menu-item >
menu-button-breadcrum b-main
_ up
class_42 3">
class_50 8
<th ead>
u di
tag 1>
F T"
m id
con fig
id_14 6">
13 0"
code _up
LE FT"
notranslate _title
code_up per
aria- modal
id_4 7
o ri
class_40 7"
id_9 9"
vari ant
class_34 5"
class_43 2
id_10 2"
da -
class_45 0
-p lace
id_14 8">
24 0"
lazy- image
ngcontent-sc4 8
po st
6 4"/>
filter units
a b
class_36 1"
15 9"
30 0">
t jj
class_45 9">
class_52 1
id_10 1"
tjj j
a i
aria- invalid
class_35 3"
class_43 4
class_44 7
5 4
a mp-
r id
id_4 4
id_10 0"
id_14 9">
ngcontent-sc5 2
t t-
id_10 3"
link- validation
</ object>
10 9"
offset >
id_15 1">
class_39 7">
auto "
99 2"
class_38 9">
class_47 8">
</b di>
18 4"
< cite
id_5 0
class_51 8"
-a d
an -ca
an -ac
ngcontent-sc5 4
an- la
an- tr
6 2
class_53 7">
class_65 5
an alytics-
c q
de vi
class_32 4"
28 .4"
z one
id_10 5"
mar y
14 5"/>
id_14 7">
um mary
chil d-
class_40 6">
id_16 3">
application/ open
search description
udi o
application/open searchdescription
application/opensearchdescription +xml"/>
18 8"
on change
id_4 9
class_43 9
mid dle
< kb
class_48 0">
<kb d
di table
class_40 9">
disable -
matrix "
re >
class_48 4
id_10 4"
12 5"/>
id_15 0">
id_15 2">
pub li
da sh
32 8"/>
5 4">
class_38 1"
ne xt
id_10 6"
sta t
g rid
on trol
class_41 0">
7 2"
e nter
class_39 6"
id_4 8
class_45 8">
c id
j sc
class_46 0
tag "
ontrol ler
jsc ontroller
f r
te ditable
conten teditable
> </textarea>
p ort
class_35 5"
d devi
h space
class_37 0"
st ddevi
id_15 3">
stddevi ation
class_46 3
fra g
id_11 5"
f b
class_43 9">
check er
<fe gaussianblur
</fe gaussianblur
</fegaussianblur >
- title
o m
p ing
me ga
class_38 9"
def a
ga-event- category
class_36 7"
class_47 4">
class_38 8">
x- cq
-link checker
x-cq -linkchecker
listbox ">
pub date
rs- lay
out put
id_15 6">
7 .
class_46 9
id_15 4">
defa ult
3 5"/>
class_44 0
ai r-
stroke- dash
id_15 5">
scope d
nghost-sc 7
image "
c f
ca rd
id_11 1"
middle "
class_48 1">
Ã 
class_53 6">
the me
9 8"
id_10 7"
right ">
class_48 2">
id_11 8"
id_11 9"
- o
ac pos
ellipsi s>
</ code>
vi sion
class_48 3">
id_10 8"
id_11 3"
id_11 2"
v space
class_41 0"
mi ng
id_10 9"
press ed
- track
3 9"
8 .
a mp
ti fi
aria- pressed
back "/>
ping back"/>
class_41 1">
C A
i ta
class_37 2"
class_41 4">
id_16 0">
icon- fallback
ea ture
class_43 7
class_46 2
</phoenix- ellipsis>
tmp l">
9 00"
id_11 0"
id_15 8">
id_15 7">
class_36 6"
</fe offset>
index >
id_16 1">
2 60"/>
8 6"
class_41 6">
ngcontent-sc5 7
ellipsi s
po sition
2 30"
t t
class_35 4"
class_36 4"
ngcontent-sc 30
class_42 6"
class_48 2
ngcontent-sc7 4
<phoenix- ellipsis
-item >
class_48 4">
ng-refle ct
h an
6 9
T I
class_65 8
- on
ti ming
class_39 8"
class_47 8
class_48 9
3 50"
t j
ca rd>
publi she
- 4
class_42 7">
id_15 9">
2 8">
2 9"
4 6"
8 00"
< de
e s
</ de
class_54 1"
ngcontent-sc5 0
id_11 6"
id_12 0"
ments -
- slide
5 9
class_46 4
element timing
class_40 8">
ga-event- label
c le
e n
sc he
class_48 3
id_16 2">
22 0"/>
6 8"
li ze
ac num
com ments-
7 8"
class_46 0">
lazy- load
var >
ngcontent-sc 13
class_44 3">
bo t
class_42 1">
17 0"
sp on
b er
class_45 5
-p hoto
id_16 6">
image/vnd. ms
-photo "/>
image/vnd.ms -photo"/>
2 5">
6 8
tion -
class_37 4"
class_42 0">
class_48 7">
class_49 1">
menu-item-link-primary-level- 3
on a
class_40 1">
link- text
2 10"
class_41 3">
class_42 2">
ga-event- action
0 px"/>
id_11 4"
id_11 7"
class_47 3">
class_46 5
auto cor
lazy- srcset
autocor rect
class_46 1
class_51 9"
cap ita
-a ut
< col
class_47 4
class_49 6
auto capita
i ng-
</h group>
ra y
id_16 7">
uthor >
autocapita lize
in 2
pre mi
ngcontent-sc7 3
a v
class_43 0">
app -c
id_12 1"
server app-c
class_39 4">
id_12 3"
ngcontent-sc9 2
-ac tive
0 0">
te nt
gtm- name
premi um
- teaser
5 4"/>
m s-
me ss
class_45 0"
id_16 8">
25 .4"
lazy image
2 60"
text ">
class_50 0
- f
2 2"/>
e nc
q ue
ar ray
id_16 5">
28 2"/>
dyna mic
p use
ll check
class_41 6"
10 80"
id_16 4">
spe llcheck
text- color
map puse
fr mappuse
class_43 5">
class_44 9
addthis: url
han dle
enc type
class_49 7
lazy- src
6 .
class_43 7">
class_47 2"
mq n-
5 3"
id_12 6"
class_39 3"
27 0"
stroke-dash array
handle bar
5 3
id_12 2"
29 1"/>
3 10"/>
class_43 5"
ab s
4 0">
pa rt
or ta
class_43 2">
4 80"
mess age
class_47 2
32 0"
7 9
class_43 6">
id_13 2"
class_44 2">
13 5"
id_17 0">
<fe offset
<b di>
id_4 3
19 3"/>
air- module
class_39 9"
class_45 6">
1 7">
o i
class_40 7">
class_40 0"
sub menu-
text/x- handlebar
class_37 8"
id_5 8
ga- on
ngcontent- serverapp-c
spon so
r y-
id_1 24"
nav bar
class_42 8">
class_44 8
class_48 5
14 0"
<no br>
</no br>
_ url
10 24"/>
so ci
addthis: title
U S
} "
link s
id_5 9
class_44 1">
id_12 7"
flo od
- url
g et
id_6 0
15 5"
s- template">
7 7"
ma t-
class_41 8">
id_12 5"
< w
g b
op y
class_51 6
produ ct
yg-server-content-sc 15
2 18"/>
q id
ch or
17 0"/>
id_17 1">
loca tor
v-bind: class
cc pa
class_42 7"
class_44 8">
tile-pos ter
-o pt-
4 13"
</p hoenix-picture>
class_42 6">
score -type
score -place
image _src
lig ht
id_17 6">
sponso red
ccpa -opt-
ccpa-opt- out
8 5"/>
9 60"/>
class_39 4"
class_49 1
text/x-handlebar s-template">
1 1">
8 8"
a to
class_44 9">
gb _
l t
ow ns
class_38 2"
class_43 3">
id_17 2">
</ var>
class_41 5">
new s-
ta il
aria- ato
st -
sta r-
score -id
aria-ato mic
<p hoenix-picture>
13 .
id_17 4">
lege nd
< legend
aria- owns
class_45 6
<phoenix- super
</phoenix- super
</phoenix- card>
star- ra
<phoenix-super -link
</phoenix-super -link>
class_50 5
control ler
id_12 9"
id_13 3"
id_14 4"
spaci ng-
5 5"
: search
< code>
N av
si te
class_47 7
/ tmpl">
2 6">
2 10"/>
c se
ig h
class_57 2
tabpanel "
cse :search
- button>
k e
13 33"
22 5"/>
image/svg +xml"/>
a ve
class_40 4"
id_17 5">
id_17 3">
content -
F Y
J US
al gradient
op er
class_47 5"
radi algradient
<phoenix- card
let ter-
TI FY
abs middle"
oi ce
JUS TIFY
class_40 5"
class_47 5
class_51 6"
id_13 1"
publishe r
f "/>
h igh
id_5 6
17 5"
nd c-
T E
g nt
i mp
re vision
class_48 1
class_56 8
x- image
gnt /tmpl">
. 0
2 1">
4 20"/>
f n>
class_41 1"
follow "
ch oice
class_45 1">
class_44 0">
id_13 0"
id_13 4"
post id
bot tom
image_src "/>
ngcontent-sc7 7
-link- choice
ngcontent-sc319 13
in put
1 3">
o -
list "
23 0"/>
ga- click
JUSTIFY ">
revision "/>
re la
class_42 5">
12 00"
< def
class_37 5"
class_38 4"
x- track-
id_17 7">
ng-reflect-router-link -active
<def s
x-track- ga-click
c opy
data >
class_36 9"
class_41 9">
image/webp "
id_17 8">
9 2"
class_45 5">
class_50 2
id_12 8"
19 "/>
gtm -p
class_48 6
19 0"
id_13 5"
-b lock
5 2"
in variant
ble nd
ble nd>
mark >
<fe blend
</fe blend>
gb_ invariant
- icon-
3 7"
c l
class_38 5"
ngcontent-sc 15
10 00"/>
id_18 0">
8 px"
class_43 1">
class_45 0">
-image >
se con
class_44 5">
class_49 2
xmlns: fb
nd -
id_18 3">
d c
class_39 0"
class_39 1"
5 50"
ma t
or der
class_50 6">
33 0"/>
medi a-
id_5 7
id_17 9">
class_46 3"
lo cal
6 75"
class_44 4">
ng- controller
ng-reflect- ng-class
7 20"/>
ul ti
class_47 0
js ">
id_13 8"
id_13 9"
18 5"
rd f
class_36 8"
class_45 3">
ngcontent-sc7 2
id_18 4">
-in ter
n links
id_13 6"
m ulti
re -
menu >
id_14 0"
id_18 1">
filter s
ngcontent-sc20 00
wi x-image
1 10"/>
c name
la tion-
ou r
xmlns: og
option s
id_18 2">
ngcontent-sc17 7
num ber
-sc ro
class_66 2
color -inter
po lation-
main -
sk top
jss lot
imp orta
color-inter polation-
color-interpolation- filters
mi c-
class_66 1
7 4"
7 50"/>
< form>
i m
class_38 3"
8 8"/>
f la
s ">
</ g
image "/>
class_50 7">
id_14 1"
id_18 6">
track-add-to-cart -
8 4"
a js">
text/ ps
class_48 6"
track- name
text/ps ajs">
class_40 3"
st ri
14 6"
text/html "/>
jss ha
jssha dow
dyna mic-
aria- pos
er -
in set
class_51 4
18 px"
id_15 0"
aria-pos inset
< legend>
wid get
item ref
class_45 7
class_47 2">
ngcontent-sc5 5
30 9"
letter- spacing
9 3"
re set
id_5 5
class_51 2
-p icture
id_13 7"
ngcontent-sc5 3
76 8"/>
1 9">
4 50"/>
< var
w in
id_5 4
track- type
importa nce
class_51 7
class_57 3"
id_18 8">
& gt
a f
em "
class_42 9">
class_48 8
nc y
id_18 5">
id_18 7">
header -
para tor
-container >
lt ;
secon da
set size
17 3"
nav- track
1 10"
C on
c ri
j or
aria- setsize
ro o
class_51 9
search -
nghost-sc 25
57 4"/>
loca le
< font>
meta data-
va ture
class_46 8
connect or-
cur vature
inkscape: connector-
soci al-
inkscape:connector- curvature
6 6"
bo ss
ma jor
class_40 8"
class_45 2">
track- metadata-
tile-pos ter-
aria- autocomplete
class_38 6"
class_47 9">
class_44 3"
12 8"/>
id_14 3"
30 px"
ngcontent-sc17 74
class_52 2
trans pa
mouse over
publisher "/>
8 80"/>
id_14 7"
v- cloak
home -
fla g
- v
- color
box "
vi si
class_38 7"
class_40 1"
-p ri
id_15 3"
ona me
f x
</ w
class_44 1"
class_49 5
origin al
20 7"
inline- width
disable- inline-width
s 24
class_52 5
id_14 2"
22 2"/>
id_19 1">
section -
background -image
l-b i
7 00"/>
class_49 4
class_49 9
list -item
<f l-b
</f l-bi
<fl-b it
</fl-bi t>
1 1
4 1"
v id
se parator
class_37 6"
ra ti
ngcontent-sc6 6
sli der
new sid
r d-
aria- checked
no tifi
ne ed
auto focus
id_19 2">
sha re
3 15"
4 5"/>
o title
class_50 3
auto -
24 px">
4 9"
5 1"
q a-
re ncy
10 px"
qu ali
25 6"/>
id_18 9">
ng-reflect -article
a ta
class_53 4
id_14 6"
event s
- -
class_43 4"
class_47 0">
st ory
id_14 5"
ngcontent-sc6 3
track- label
mergenode >
next "/>
< u
class_46 4">
web part
lo b
mo z
an d
margin width
1 12"
6 7"
class_37 1"
class_50 9
class_53 6
id_19 8">
Ã Â
- img
_ class
re ction
class_43 8">
ng- repeat
track ing-
over lay
carousel -slide
3 5">
3 80"/>
5 .
aria- value
class_49 2">
margin height
quali ty
% "/>
class_48 0
lo go
id_14 9"
id_20 0">
9 5"
< object
E "
de le
class_39 7"
class_46 5"
up port
id_14 8"
id_19 0">
nghost-sc 20
n da
-ca rd
password "
-icon >
7 6"
q >
s trong
class_43 1"
class_50 1
id_16 5"
</fe mergenode>
p or
id_19 6">
3 3"/>
<h group>
class_44 6">
id_15 4"
id_16 4"
v- show
colum n
webpart id
ll -
class_55 0
class_67 1
id_19 3">
yg-server-content-sc 62
2 7">
w or
class_49 0
id_15 2"
hide _
transpa rency
7 1"
l -link>
class_40 6"
class_56 2
bookmark -button
id_19 4">
allow transparency
></a> <a
tt- value
& lt;
a do
36 8"/>
strong &gt
di rection
de sktop
class_52 6
id_19 7">
tt -type
n _
le ave
use ra
class_41 5"
ce n
class_42 0"
10 5"
id_19 9">
<fe mergenode
27 0"/>
merge >
3 40"
w it
<h tag1>
</h tag1>
class_41 8"
class_51 3
class_51 0"
id_19 5">
49 5"
text- align
sid eb
usera ction
5 8"
m t
re v
class_43 2"
class_49 3
16 00"/>
track -position
-on -
8 3"
: useraction
e -
</div> <div
class_41 7"
ra i-
v- tag
:useraction event
v-tag :useractionevent
2 8"/>
7 9"
pa rent
class_46 2"
class_56 3
-p b-
field -type
id_21 8">
ata -pb-
ata-pb- field-type
expanded ">
auto "/>
id_15 1"
id_21 7">
boss zone
separator ">
ado be
. 5"
class_46 9">
id_20 4">
id_20 1">
log in
5 0">
8 7"
c link
</ data>
class_46 8">
class_56 9
class_55 2
to gg
ngcontent-sc6 9
seconda ry-
2 3">
9 9"
p id
class_56 3"
submit "/>
ngcontent-sc17 2
component -
com me
rimar y
custom- element
9 4"
class_41 2"
class_54 1">
sub position
id_15 5"
mask units
id_20 5">
track- element
track- subposition
dele te
adobe -track
9 0">
se g
class_44 7">
class_51 1
ng- model
has pers
navigation "
id_20 3">
id_20 2">
allow delete
2 e
4 3"
6 60"/>
L ink
i co
class_43 3"
class_43 8"
class_47 6">
class_52 7
19 6"
ngcontent-sc12 7
8 1"
class_56 4
class_54 9
id_15 9"
33 8"
sche me
win dow
5 9"
< rt
</ rt
text/ template
class_53 3
id_7 0
25 6"
nghost-sc 8
id_21 2">
9 7"
p on
sc ale
class_44 6"
class_51 6">
class_52 0
po in
id_20 6">
id_21 6">
sp m-
-aut o
¢ Ã
ngcontent-sc 19
class_45 1"
id_21 0">
ly out
active classname
ngcontent-sc8 3
tooltip ">
box- only
cse:search box-only
ÃÂ ¢Ã
M e
z ed
di rect
class_46 3">
eb row
10 0">
ho ver
id_15 7"
ey ebrow
id_20 9">
poin ter-
7 0">
d n_
class_41 3"
y- menu-level
stat us
ccpa-opt-out -
- class
4 8">
4 7"
d l
s a
s d
ari al-
class_47 5">
class_49 8
id_21 4">
4 30"/>
d l-
 Ã
v- for
router -
auto- locator
ÃÂ¢Ã Ã
s ig
li cen
form ">
class_47 8"
-content -
licen se
name at
ngcontent-sc 60
class_53 9
web ki
19 0"/>
id_21 5">
id_21 3">
tin g>
tile- copy
ummary >
4 0px"
text/ ng-
class_55 6
class_54 5
10 2"
sta te
id_21 1">
mobi le
ico "/>
text/ng- template">
< data
class_44 0"
12 7"/>
id_15 8"
down load
site- url
9 6"/>
< rs-lay
</ rs-lay
li de
class_39 2"
em ">
32 1"/>
out site-url
id_20 8">
id_21 9">
23 px"
pers on
<rs-lay er
</rs-lay er>
4 2
A N
class_41 9"
class_50 1">
class_66 0"
-pri ce
spm- d
dl -attr
5 12"
6 3"
< object>
ea rch
class_44 7"
-content "
+ xml
6 2"
f ro
pa r
class_46 2">
class_53 8
18 6"
id_15 6"
id_20 7">
res pon
child- menu"
output >
a tom
y g
image/ ico"/>
13 3"
ments upport
need seg
pointer- events
needseg mentsupport
</ output>
ct l
application/ atom
12 00">
id_22 0">
id_22 2">
2 -
ma x-
class_42 4"
class_43 7"
class_46 6">
id_22 4">
37 0"/>
__ child-menu"
arial- label
5 0px"
6 7
< output
_ id
li b
icon >
class_56 5
l- img
new s
-article -teaser
1 13"
2 16"
d _
l f
menu __
class_55 3
co mbo
id_20 2"
<f l-
</f l-
1 18"
3 30"
</ mark>
15 px"
id_16 2"
-ca rousel
<f l
Con tent
Me nu
si ve
class_50 7
class_52 4
web m
12 8"
16 8"
id_23 6">
<phoenix- icon-fallback
</phoenix- icon-fallback
</phoenix-icon-fallback >
6 1"
d ">
con >
she lf
class_46 5">
footer -
class_54 3
-a d>
16 4"
video/ webm
-article-teaser -v
2 1
<t body
follow ">
class_55 7
class_65 9
ni tr
mo di
id_16 0"
id_16 3"
analytics- event
. 9
f eature
class_55 1
id_16 1"
id_22 8">
-ca rd-
score -icon-
<amp- timeago
</amp- timeago
cri tic
tile-poster- meta
visi ble
score-icon- critic
</amp-timeago >
2 14"
item >
class_49 8"
img -
ngcontent-sc6 5
id_22 6">
id_23 0">
mobile- nav-
</no index>
lib -c
5 50"/>
ou tle
class_42 5"
class_42 3"
<no index>
router- outle
- 8
p ri
date >
co ok
id_16 9"
id_22 1">
onkey down
ngcontent- lib-c
application/atom +xml"/>
- width
_ section
g "
class_52 3
analytics- on
7 4"/>
g rap
class_51 5
-item -
te ">
class_46 7">
id_22 5">
</t t>
let ter
-pro du
rati ng-
3 3">
< rs-
s ource
</ rs-
class_51 0
class_57 0
16 5"/>
-an chor
product- tile-
cook i
4 .
c x-
tab -type
che ">
14 4"
id_23 8">
-content >
-scro ll
3 6">
4 48"/>
s p-
class_51 4">
id_22 3">
id_22 7">
id_23 3">
- tab
6 0">
8 3"/>
nav "
sta che">
countr y-
inline- template
<s ub>
class_42 1"
nghost-sc 17
id_23 2">
ki te-
colum n>
1 15"/>
1 18"/>
2 3"/>
L AN
_ menu-
di n
text -anchor
<t t>
class_43 9"
lo cation
id_16 6"
id_17 2"
id_23 4">
heading "
event- category
mobile- menu-item-link-primary-level-3
select or-
LAN D
- message
e 2e
p rimary
class_41 4"
class_44 4"
id_16 7"
id_17 0"
id_23 5">
event- action
Ã Â
cle ar
respon sive
2 _
2 14"/>
5 %"
9 6">
l on
p p
in g>
class_52 0"
class_53 5
ac a-
ngcontent-sc7 1
id_22 9">
ngcontent-sc8 9
ngcontent-sc12 3
+xml ">
< cf
P E"
S CA
_ list
</ cf
class_52 8
18 00"/>
30 px">
id_23 1">
23 .
LAND SCA
LANDSCA PE"
- target
g lob
10 5"/>
48 8"/>
loca le-
yg-server-content-sc15 7
8 0px"
u g
u sh
se ns
class_49 9"
class_53 1
ngcontent-sc7 0
id_23 9">
ng-reflect- c
ng-reflect- nmo
nmo lazyimage
row s
log id
_menu- child-
ng-reflect-nmo -src
m ">
u de
</ menu>
ta llow
</s >
or s_
class_63 7">
class_66 0
ng- version
id_17 1"
id_17 3"
nghost -c
webki tallow
webkitallow fullscreen
2 9">
3 4"/>
4 60"/>
9 .
9 7
9 00"/>
9 80"/>
class_50 6
panel -
30 6"
v-on: mouseover
sens ors_
class_40 9"
10 1"
15 8"
lo se
22 px"
high light
b c
re n
in ter
class_63 3">
top -
ngcontent-sc7 8
ngcontent-sc17 0
tt- premium
mqn- lazyimage
person ali
< menu
class_50 9"
class_53 7
class_63 5">
12 2"
mark et
id_24 0">
id_27 7">
flag s
comme n
4 4"/>
8 2"
style d">
ea r
view -
class_48 3"
class_54 6
13 px"
un styled">
56 0">
moz allowfullscreen
ng-reflect-c rop
5 12"/>
6 4">
o d>
bo ar
class_93 "/>
19 8"/>
id_25 0">
23 6"
-nav- shelf
local -nav-shelf
local-nav-shelf -sub
class_63 6">
class_78 7"
19 9"
-breadcrum b
om ni
5 6"/>
t ">
<a uthor>
</a uthor>
class_46 8"
class_49 3">
15 0">
100 0"
id_17 8"
id_17 7"
id_24 4">
id_24 2">
lon g
2 6"/>
me -
stroke line
class_50 4
id_17 9"
- load
5 7"
mg m-
class_51 5"
class_51 3"
</d fn>
class_53 2
id_24 3">
nav- menu-
current -
fro m
ul ts
up date
id_24 8">
s mall
re direct
fi t
</p re>
class_48 8">
100 px"
14 8"/>
id_16 8"
listitem "
ngcontent-sc6 7
id_23 7">
id_24 6">
-ca rd>
component >
ngcontent-c 10
ture -
commen dation
omni ture-
5 %">
: type
o s
class_54 0
10 4"
image/jpe g"
25 2"/>
do mi
65 4"/>
container >
mega menu-
video/webm "/>
3 8"/>
3 15"/>
u a
te l
de lay
19 2"
<fe flood
</fe flo
id_24 7">
node -type
image/svg +xml">
ndc- dynamic
</feflo od>
- dynamic
4 20"
g og
et wor
pe ri
nghost-sc 9
id_24 1">
id_25 1">
link- url
35 4"/>
ngcontent-sc10 5
config ">
nghost-sc7 2
combo box"
7 2"/>
7 50"
< tile-poster
d der
g ra
</ tile-poster
ch an
class_63 4"
10 3"
non -
res ults
id_25 6">
mq n
flood -opacity
5 -
u i-
class_55 5
class_54 4
id_17 5"
id_17 6"
id_25 8">
track- event
om- event
1 17
_ type
lazy img
33 5"
3 -
4 11"
O R
view ed
class_55 1">
id_17 4"
id_18 0"
22 8"/>
id_24 5">
id_25 4">
id_25 5">
go og
-re commendation
</de l>
spacing- bottom
gog -
1 _
tic k
class_54 1
v- lazy
id_26 5">
id_26 3">
text/x- template">
tail s>
star-ra ting
ke >
im press
reset ">
wit ch
8 8
e st-
f -
da a-
id_25 3">
id_26 4">
id_26 1">
27 6"
moda l-
<client- star-rating
</client- star-ra
box- news-
uk- grid
personali zed
</client-star-ra ting>
box-news- image"
4 27"
class_50 8">
col s
15 4"
19 5"
id_25 7">
tile >
treeitem "
sponsored "
: background-image
<a udio
</a udio
class_44 9"
class_52 9
class_54 7
20 6"/>
ngcontent-sc6 2
48 px"
disable- viewed
spacing- top
oper ation
nitr o-
v-lazy :background-image
- key
< radialgradient
c rea
</ radialgradient
on dra
class_43 6"
class_53 0
class_58 7
14 2"
video -card-
m- est-
fa v
id_24 9">
id_25 9">
id_26 2">
38 6"
rela tive
sd m-est-
</radialgradient >
3 4">
m title
li m">
class_44 8"
15 3"
18 7"
28 .
id_25 2">
id_26 6">
un ce
text/x- config">
frag type
lazy-load -src
text/template -dynamic
sensors_ operation
text/template-dynamic ">
sensors_operation _list
2 1px"
4 17"/>
re al-
</s ummary>
class_44 2"
id_6 7
class_78 9"
onmouse up
track name
sta nda
ng-reflect- url
37 5"/>
-an alytics-
-nav- section
local-nav-shelf-sub -nav-section
</audio >
/ javascript">
3 75"
6 2"/>
< client
a re
f mt
g d_
</ client
</div> </div>
ce ss
class_46 6"
img fmt
co ll-
id_26 0">
id_26 8">
ez imgfmt
onkey up
<nmo -link-choice
</nmo -link-choice
sdm-est- coll-
gd_ stat
</nmo-link-choice >
sdm-est-coll- 1-
ti -
class_42 2"
class_47 1">
id_6 8
10 80"/>
15 8"/>
20 7"/>
id_18 1"
id_26 7">
mu stache">
level- 2
Ã 
non- personalized
-recommendation s-
real- img
non-personalized -recommendations-
g ress
lazy-image >
Nav igation
goog le-
- dropdown
</ ma
</ q>
di domi
da y
content -id
class_50 4"
class_53 9">
sub menu_
at or
29 2"/>
0. 75
gtm- c
ush -analytics-
fav ori
ush-analytics- event
- error
- tracking
- options
f ree
y pe
title -text
use r
-p lay
ng- in
id_18 5"
id_19 0"
event- label
35 0">
long desc
2 13"/>
3 36"/>
I tem
v m
text/ javascript
class_50 5">
10 24"
12 4"/>
23 3"
tooltip "
ali as
locale- selector-
- 0
3 1">
_ content
f lyout
u i
li t">
for ma
class_46 0"
class_49 9">
class_49 4">
class_52 2">
img -src
main "
id_26 9">
37 6"/>
ngcontent-c 7
home- page-
ondra g
Ã ÃÂ
z on
de sig
ding -
class_54 2
id_19 3"
26 1"
collapse -
- count
4 2"/>
o t
y ou
class_51 1"
class_51 7"
14 .
header >
didomi /javascript">
g in
x s
24 5"
22 8"
ng-reflect- ndc-
ng-reflect-ndc- dynamic-
3 8">
4 6"/>
e di
bo l-link>
in tent
class_50 4">
class_50 0">
class_57 7
class_63 3
id_18 2"
id_18 9"
-b anner
id_19 5"
id_27 2">
-an no
sche ma
ondrag start
6 50"/>
< wix-image
</ wix-image
class_51 9">
12 .
id_20 3"
id_27 0">
ngcontent-sc30 8
-f eature
</ma p>
</wix-image >
< map
d x
el se
ge o
em p
class_48 0"
class_49 3"
class_56 6
class_65 7
id_19 4"
id_27 4">
ng-reflect-router-link-active -options
grap h
standa rd
3 9">
d f
e f
e xt
e nce
s te
ri ng
class_55 9
17 92"
v- else
be gin
show -
id_27 6">
id_28 2">
cta >
1 1"/>
3 7">
7 3"
m on
v o
w w
<a mp
</a mp
data _
ol or
ce nable
class_49 6">
ho cenable
ngcontent-sc7 5
id_18 3"
28 3"/>
26 px"
ad hocenable
ne- role
- data
i c
n el
<d fn>
10 .
id_8 0
bor de
15 00"/>
id_18 4"
at tr
id_27 9">
id_28 0">
1 ,
2 13"
4 6">
9 1"
</li> </ul>
</i con>
class_42 8"
16 5"
id_19 2"
id_27 8">
id_27 1">
v-on: key
main- menu__
roo t>
cse:searchbox-only >
- alt
b a
class_50 7"
class_47 1"
class_51 7">
class_55 8
xmlns: dc
an chor
id_18 7"
filter -key
28 5"
id_27 3">
<ea- container
</ea- container>
80 px"/>
feature d
standard "
7 8
c d
fill -color
<phoenix- accordion
</phoenix- accordion
id_28 6">
link- href
unce ment
zon ta
< lazy-image
</ lazy-image>
class_50 9">
class_58 5
dns-p refetch
100 px">
14 5"
id_18 8"
do m
id_28 4">
id_28 1">
<ea- cta
</ea- cta>
33 3"
&lt; /
img- lazy-load-src
j a
item _
class_46 1"
class_51 5">
id_6 6
class_33"> </span><span
ide n
class_116 "/>
onmouse leave
id_18 6"
rt ure
id_20 5"
ape rture
bl k
id_27 5">
su da-
nav-track -breadcrumb
-produ ct-
ua track
suda- uatrack
4 2">
O N
j -
s ummary
y ear
xmlns: rdf
15 .
20 5"/>
20 0px"/>
16 2"
17 .
none "
sk etch
id_19 1"
ng-reflect- type
bin d-
alytic s
hi story
ngcontent-sc16 4
tile-poster-meta >
ap -
ngcontent-sc 22
class_45 2"
class_55 0">
class_54 2">
12 3"
canonical ">
font/ tt
id_29 2">
slide show
34 9"
50 %">
-s mall
chan nel
mqn -auto
font/tt f"/>
2 7"/>
m "
stroke- opacity
px ,
class_49 7">
class_56 0
mo tion
sta r
30 8"/>
res ource
id_28 8">
id_28 7">
g- quo
din g>
emp ty
4 4">
5 20"/>
9 5
y le
<a s24
</a s24
ri zonta
rc olor
class_46 4"
ho rizonta
15 6"
28 px"
id_28 9">
id_28 3">
1. 6"
00 _
cta -
ori e
gog- track-event
-anno uncement
. dom
7 7"/>
< mark
</a> </li><li><a
sty yle
class_63 5
class_54 4">
class_58 6
v- html
19 4"
id_19 6"
id_19 7"
id_29 4">
wrap per
</de tails>
v-tag:useractionevent .dom
- menu-
1 17"/>
2 px"
3 px"
5 40"/>
content >
false ">
st u
10 6"
id_28 5">
id_29 0">
id_29 1">
hi nt
stri p
status ">
Content "
c l-
for mat
17 2"
red -
id_20 1"
id_20 6"
menu-item -
-re n
menu-level -id
<w s-
af p-
</w s-
qa- menu-level-id
ÃÂ¢ÃÃ 
ctl 00_
c _
r on
x ">
class_14 0"/>
pe rce
class_46 7"
class_54 8
ng- hide
v- model
id_20 7"
tri ke>
id_29 7">
69 6"/>
carousel-slide >
mobile-nav- left
4 40"
src 2
use map
image -
class_51 1">
popup ">
20 0">
20 00"
16 .
id_19 9"
home page
ngcontent-sc1 19
hi re-
-re desig
qa- id
home-page- hire-
mobile-nav-left _menu-child-
- set
c cordion
n etwor
re x">
se nt
text/ ez
-sc rex">
class_42 9"
class_45 4"
class_56 1
class_65 4
ex peri
10 8"
hea ding>
id_20 8"
section ">
-ac cordion
39 1"
moda l>
accordion -id
glob al-
text/ez -screx">
4 5">
5 5">
9 2">
on boar
tic al
link _class
ca che
class_55 4
id_7 6
17 8"/>
category -item
yg-server-content-sc 14
js- onboar
select id
mega _content
sideb ar
stu dy
home-page-hire- category-item
home-page-hire-category-item -redesig
. ">
9 6
b ra
h -
p b-
di po
<h group
class_52 1">
class_101 3
class_122 "/>
20 0px"
ngcontent-sc17 5
27 2"/>
id_29 3">
slide -id
para m
-ren de
dipo di
' "
- dp
4 10"
E N
_ hidden
c :
class_52 3">
class_53 8">
class_65 2
32 4
class_212 "/>
rou te
cou nter
27 6"/>
region "
new s"
ngcontent-sc1 16
mat ch
modi fi
borde rcolor
" "
_ text
class_50 3">
class_56 7
class_58 0
class_101 4
16 4"/>
category "
id_29 6">
id_29 5">
fx layout
-img >
sketch :type
js-onboar ding-
- A
m >
r u
x p-
di n-
<a -img
</a -img>
<p s-
id_2 00"
</p s-
class_45 9"
alternate ">
class_49 8">
class_69 8
class_63 8
class_58 2">
10 9
</dd> </dl>
-id s
dra w
</fe merge>
id_29 8">
i- quality
high -dp
strong&gt ;
&lt;/ strong&gt
iden tifi
high-dp i-quality
9 40"/>
al l
na t
class_47 3"
class_56 7"
class_63 1
-p op
class_65 1
align ment
14 40"/>
13 5"/>
</dt> <dd>
<phoenix- carousel-slide
</phoenix- carousel-slide>
bu rg
39 0"/>
ms id
js- site-
_hidden _text
- google-
5 1"/>
T ype
_ div
ngcontent-sc 324
class_51 3">
class_62 3
id_7 7
class_54 8">
-p opup
class_65 2"
19 .
25 px"
id_19 8"
<fe merge>
ng-reflect- u
ng-reflect- alt
id_29 9">
38 4"
50 7"
-container -width
-pro mo
ng-reflect -container-width
<col />
_section "
ng-reflect-nmo-src -set
5 10"/>
9 8
f l-
v site-
id_2 11"
class_57 6
class_59 2
16 8"/>
new window
eyebrow -text
- parent
2 24"
< mat-
< rai-
s [
</ mat-
</ rai-
no -
pre view
class_50 0"
class_50 5"
class_44 5"
20 2"
<dt> </dt><dd>
do t-
id_30 0">
ngcontent-sc1 32
ki te
ngcontent-sc16 0
Link Type
country- link
current- country
delay -load
ng-in it
identifi er
<dt></dt><dd> </dd></dl>
LinkType .
_ locator
a vi
a udio
p rimary-
</ caption>
re le
he ro
ra ting
class_49 5">
class_49 4"
auto _locator
22 2"
22 7"
id_20 4"
cust o
ne- lazy
js-onboarding- radio
js-site- wrap
- secondary-
3 40"/>
4 1">
5 6">
< template>
li ty
type title
si o
ver tical
ng- bind-
m- name
id_30 1">
bar "
// //
ngcontent-sc9 4
c- navigation
65 2"/>
-in it
-announcement -teaser
4 3">
4 7">
4 7"/>
5 8"/>
di sc
ta te
te _
te le
si te>
class_65 0
onmouse enter
29 0"
ment -
id_30 6">
id_30 4">
id_30 2">
context ">
para graph
tail s
cl ub
update d
ng-bind- html
5 20"
6 9"
n te
nt o
id_2 13"
class_50 3"
class_51 2"
id_7 8
class_65 6
class_59 3
ng- mouse
12 6"
25 9
22 7"/>
id_20 9"
66 66
v-bind: srcset
64 0">
roo t
router-outle t>
crea ted
ext link
v-on:key up
- B
5 3">
6 6"/>
j our
o rity
u m-
tab s-
<b di
class_45 3"
class_53 5">
class_64 2
class_63 8">
up por
ng- srcset
language s
track- click
id_30 7">
</g cse:searchbox-only>
pri ority
<phoenix-accordion -item
</phoenix-accordion -item>
1 1.
9 8"/>
< transition
l spa
s g-
u la
</ transition
ref errer
<h y-menu-level
</h y-menu-level
in view
id_2 10"
image/ avi
class_47 6"
class_49 6"
class_57 9">
rer "
x- on:
n- component-
id_30 8">
id_30 3">
37 0"
37 2"
tool bar">
comments- counter
ccpa-opt-out -ids
TE R
ccpa-opt-out- geo
ccpa-opt-out- lspa
modifi er
<hy-menu-level -container
</hy-menu-level -container>
image/avi f"/>
- menu"
0 8
0 px">
7 1"/>
> <div
S H
e ct-
me "
tab le-
class_57 4
16 3"
17 5"/>
list >
<phoenix- script
</phoenix- script>
id_30 5">
34 5"/>
-error -message
- collapse
- context">
1 12"/>
he l
text/ mi
id_2 12"
id_2 14"
link >
class_52 0">
class_56 2">
class_58 9
13 9"/>
19 8"
spe ed
ngcontent-sc6 4
id_23 5"
id_30 9">
<ea- tile
<ea- tile-copy
</ea- tile-copy
</ea- tile>
</f l
scro ll
js- target
76 8"
media- type
table- of
text/mi -context">
</ea-tile-copy >
2 75"
5 px"
6 36"/>
9 5"/>
< pattern
p i
</ pattern
xlink: title
class_51 0">
class_48 5"
class_58 2
class_58 3
nta ge
mark er
14 2"/>
selec table
28 5"/>
99 "/>
display name
id_31 9">
-pos ter
<nmo -
</nmo -
perce ntage
dipodi :
v-on:keyup .
</pattern >
0 7
5 2">
<p re>
in fo
pre vent
class_50 1"
class_50 8"
class_56 1">
class_57 3
class_58 1
10 6"/>
class_114 "/>
15 2"
13 6"
red "
spe ci
mage nto
min length
ngcontent-serverapp-c 6
togg le
5 2"/>
S ub
a m
di tion
ns "
id_2 15"
ap pe
image _url
class_43 0"
class_57 9
class_70 2
14 4"/>
25 2"
list -
id_22 3"
id_21 7"
pro motion
menu_ svg
menu_ hide_
da- action
da- category
hide_ button
item_ languages
menu_hide_ item_languages
8 53"
g er
p l
in ner
view -name
or de
id_6 9
class_56 8">
class_57 2">
class_65 3
class_58 8
class_60 5
20 5"
17 5%"
nghost-sc 3
row ">
38 2"
id_31 2">
uk- icon
da- label
grid cell
mega __
comments- identifier
mqn- inview
9 60"
d t
m pe
p in
re size
no w
fe ct
17 6"
13 7"
19 5"/>
event- name
clippath units
element -
text/x- magento
oper ator
cl ude
<rt l-img
</rt l-img
inter action
ste p
ru nat
burg er
-init ">
text/x-magento -init">
</rtl-img >
- component
1 175"
5 9">
b b
e s"
t f
ig >
ari tem
height -
class_49 0"
class_57 5
class_57 8
class_55 0"
class_54 5"
class_59 0
class_66 2"
has -
sk ey
id_22 9"
23 5"/>
1. 259
46 97"
menu-item-link-primary-level- 2
sideb aritem
nghost-sc8 3
eyebrow -secondary-
ngcontent-lib-c 12
omniture- data-
ui- s
impress ion
1.259 4697"
eyebrow-secondary- text
1 19"
5 8">
8 4"/>
e nd
s __
<s lide
</s lide
id_3 16">
class_48 4"
class_56 6"
ble -
32 5"
20 2"/>
16 16
acce skey
28 4"/>
id_31 0">
id_31 8">
id_32 3">
block -on-
<nmo -article-teaser-v
</nmo -article-teaser-v
que ry-
13. 7">
13. 7"
list-item ">
orie ntation
jour na
ui-s ref
<nmo-article-teaser-v 3
</nmo-article-teaser-v 3>
1 1px"
< score-icon-critic
</ score-icon-critic
</ tile-poster-meta>
ta lign
rel _
ou talign
id_3 20">
class_50 2"
class_48 1"
class_52 8">
-p i
class_81 "/>
lay outalign
-b ar
compo site
compo site>
id_22 7"
<fe composite
</fe composite>
-image s
46 8"/>
poli cy
carousel >
<de l
-block >
fx layoutalign
<tile-poster -image
</tile-poster -image>
orde red"
journa list
</score-icon-critic >
1 %">
2 15"/>
4 9">
5 1">
</ router-outlet>
<s >
fo re
tab -content-
vi ce
class_51 8">
class_52 3"
class_64 7">
class_63 6
id_21 9"
link- title
id_31 1">
<de tails
notifi er>
product-tile- id
nav-menu- study
5 80"/>
9 4
> <p
E x
H eader
_ nav
a mphtml
pa y
</span> </p>
me ga-
in d
in sta
id_2 20"
-p refetch
class_66 6
xmlns: sio
12 7"
12 80"
20 1"
mo o
video -src
rdf :
uppor ted
2 1"/>
4 32"
5 7">
a d>
/> <em
aria- multi
va a
ra nge
class_53 3"
class_67 "/>
class_60 0
class_71 6">
xmlns: a
</em> <span
12 44"
class_172"> <dt></dt><dd></dd></dl>
class_169"> <img
24 7"
id_22 1"
23 1"/>
su g
id_31 3">
64 px"
notifi er
-on- hover
<fl- text
</fl- text>
letter _
schema .
-rende ring
</span></p> <dl
0 %"
4 30"
< v-
< mark>
_ Navigation
c lose
i ti
l y-
</ v-
ta d
<s ummary
ue -article
view >
ra tion
class_45 7"
class_49 1"
class_52 6">
class_52 4"
class_63 2">
class_59 6
17 0
14 8"
mo re
ngcontent-sc17 8
obj ect-
</f l-link>
rep _Navigation
id_31 4">
40 px">
ngcontent-sc319 14
nghost-sc20 00
<fl -link
speci fi
sug ge
ue-article -id
7 8"/>
D rop
a id
t id
label -id
medi um-
va nt
class_47 0"
class_48 2"
img field
checkbox ">
19 1"
section -id
hide focus
id_31 5">
<app- rating-
</app- rating-
sha red-
product- tile
ngcontent-sc13 9
ngcontent-lib-c 10
<rs- slide
</rs- slide
ren der
ef fect
referrer policy
<app-rating- item
</app-rating- item>
1 b
6 7"/>
< kite-
e "
g i-
</ x
</ kite-
</div> </td>
aria- rele
box >
ca b
class_62 9
class_56 5"
class_59 1
ex port
an ima
nghost-sc 5
d- uni
section >
link- target
ngcontent-sc8 5
id_31 7">
product- overlay
track-add-to-cart -id
track-add-to-cart -title
track-add-to-cart -price
post _hidden_text
track-add-to-cart- label
track-add-to-cart- action
track-add-to-cart- category
product-tile- modifier
v-on:keyup. enter
aria-rele vant
- panel
1 16"
5 5"/>
7 00"
< caption>
N /
b ase
c "
n ull
y in
set ting
id_2 16"
class_50 2">
class_55 6">
class_54 5">
application/ x-
25 1"
24 px"/>
30 px"/>
id_22 5"
box- news"
max- width
pin yin
8 px"/>
9 3"/>
< q>
I TE
class_36 "/>
class_52 4">
class_62 8
class_64 3
line -
10 7"
ar row
19 px"
24 4"
-c ms-
23 0">
23 5"
<phoenix- notifier
</phoenix- notifier>
26 1
id_33 7">
id_32 5">
main-menu__ link-
EN TER
burger menu
amphtml "/>
vaa din-
- 9
7 5">
8 2">
d "
n ded
bo l
id_3 24">
class_49 5"
class_55 4">
class_63 4
class_60 3">
ver ti
cy cle
18 .
16 px">
navigation -
36 7"
requi re
30 7"
pro gress
page speed
bj ect
99 %">
hide -on-hover
id_32 1">
navbar "
max- height
vo cab
audio /
mega__ market
dt m-name
nav-menu-study __
aria-multi selectable
5 40"
5 70"
9 4"/>
< code
C ENTER
p le
ig nore
class_47 7"
class_56 4">
st ore
class_54 0"
class_68 7
sub menu
od u
12 44"/>
25 8"/>
-con sent
sta te-
allow export
0. 5
38 7"/>
id_33 0">
id_32 2">
dp id
-article -feature
ze us
23. 1"
highlight -container>
object- fit
7 8">
9 38
id_2 18"
class_45 8"
class_55 3"
id_7 9
class_54 7">
ex tr
18 1"
16 0">
search _type
id_22 8"
id_23 1"
id_23 7"
ngcontent-sc17 261
ngcontent-sc8 6
1. 5"
id_33 6">
id_33 4">
id_33 8">
cust om
-place ment
54 4"/>
lazy-load -images
ngcontent-sc19 1
<fl -picture
nghost-sc17 74
primary ">
</fl -picture>
gridcell "
5 60"/>
6 40"
] .
i te_
t rig
ct or-
true "/>
id_2 24"
class_55 5"
class_58 4
class_59 4
class_61 1
class_60 8
class_75 5
class_75 8
class_74 3
20 9"
s- id
25 4"/>
36 5"
id_22 2"
id_22 6"
allow s
nav- dropdown
id_34 0">
id_34 8">
></a> </li></ul>
57 6"/>
coun ty
id_32 8">
id_32 7">
gtm- event-
para ms
js- county
&lt; strong&gt;
c_ data_
paragraph ">
specifi c_data_
mega__market s__
ite_ specific_data_
1 14"
4 40"/>
6 8"/>
7 6">
8 8">
i r
s witch
in e
link _title
class_47 9"
class_54 3">
class_54 8"
class_61 4
22 4"/>
-con fig
id_24 5"
33 7"
row >
-ac cess
39 2"/>
<ins >
id_32 6">
stri p>
strokeline cap
</transition >
- 1"
0 6
3 %"
5 60"
8 1"/>
< router-outle
S h
n "
on -
rel type
content "
tab >
id_2 30"
class_48 7"
class_52 1"
class_62 7
class_53 7"
class_69 3
class_64 1
class_59 5
10 8"/>
class_75 6
ng- app
12 0">
htt p
20 px">
18 8"/>
ve ctor-
29 3"
28 8"
id_23 6"
id_24 9"
id_33 9">
id_33 5">
id_33 3">
ngcontent-sc1 1
id_32 9">
level- 1
uk- img
navbar S
social- share
<cf c
</cf c
strokeline join
nghost-sc9 2
vm x-
<router-outle t
vector- effect
- group>
2 18"
5 90"/>
: li
< cx-
< mgm-
b er>
c s
f l
p hoto
s tick
y ">
la rge
</ cx-
</ mgm-
class_1 "/>
da ble
ty le
<i con
ro om-
ck er
class_52 9">
class_62 2
class_63 7
10 24">
class_61 6
class_75 7
ga me
nghost-sc 53
shape -rendering
35 4"
id_34 2">
id_33 1">
id_33 2">
aly si
background -color
select or
inkscape: window
59 3"/>
product -id
- host
< ndc-dynamic
f f
ss tate
</ ndc-dynamic
</h eader
class_57 4">
class_64 7
class_63 2
focu sstate
x- tmp
14 3"/>
13 4"
sk ele
ngcontent-sc8 0
id_34 6">
id_37 2">
id_36 2">
yg-server -host
-ad verti
multi -parent
yg focusstate
f- multi-parent
slideshow _
</ndc-dynamic >
x-tmp l-
yg-server-host -sc
- date
2 12"
3 1"/>
6 3">
7 1">
8 6">
F o
I C
b id
i src
j ect
j query-
ss ion
<a dder
</a dder
on y
ari a
</s vg
fi le-
class_56 0">
<g cse:searchbox-only
class_53 0">
class_55 3">
class_64 9
class_66 5
class_61 7
32 5"/>
noref e
id_9 0
sub heading
poi nt
20 %">
-a bout
18 3"
25 5"
at ta
id_24 1"
26 3"
id_34 7">
id_36 4">
num ber>
44 6"/>
<app- comments-
</app- comments-
sha re>
product ">
custo m_
gi- icon
x-tmpl- mustache">
</adder >
<app-comments- number
</app-comments- number>
A "
m -po
s l
w a
li bi
na m-po
ci tad
class_47 4"
class_46 9"
class_62 4">
class_54 0">
class_67 3
co m-
xmlns: v
ng- change
15 1"
lo libi
18 9"/>
14 0">
ngcontent-sc5 8
ngcontent-sc5 9
-c ta
do ssi
26 4"
ez nam-po
id_35 1">
id_36 3">
ori src
sp- skele
tele vision
require _
atta ch
citad lolibi
dossi er
eznam-po citadlolibi
sp-skele ton
eznam-pocitadlolibi se
0 9
7 2">
S tyle
i ng-click
k odu
m d-
s item
w hi
id x
as 24
class_51 2">
class_57 1"
class_58 1">
class_59 8
sub heading>
15 2"/>
19 7"
25 .
il kodu
id_23 4"
show -on
id_25 3"
id_27 1"
ga- impression
26 2"
<ea- subheading
</ea- subheading>
application/json +
id_34 3">
id_38 0">
carousel -
<amp- social-share
</amp- social-
gtm ">
zone id
-track ing>
-track ing-click
megamenu- desktop
favori te
<as24 -tracking
</as24 -tracking>
ly- megamenu-desktop
jquery- tmpl">
as24 -tracking-click
show-on ly-megamenu-desktop
ga-impression -
</amp-social- share>
as24-tracking-click -target
- for
1 13
D F
T C
_ 1_
k ind
y q
le "
scri be
ig no
id_2 32"
si mp
follow -button>
class_71 6
class_70 3
class_70 0">
class_97 "/>
id_24 3"
id_25 2"
banner "
id_34 4">
id_35 0">
id_35 2">
id_37 3">
cr ony
aria-value max
aria-value min
dl- test
bc product">
results url
fore igno
medium- teaser
main-menu__link- -sub
application/json+ bcproduct">
foreigno bject
& amp
3 7"/>
3 13"/>
4 0.
7 3">
7 7">
7 6"/>
7 10"/>
8 9">
8 3">
8 40"/>
< relative
= '"
> </em><span
C ol
b la
g al
o me
s ap-
class -name
</ relative
view s_
class_50 6"
class_52 7">
class_67 7
class_68 6
class_87 "/>
12 0
ho ok
25 9"/>
id_23 3"
id_24 2"
id_24 7"
id_26 9"
track- data
id_27 0"
id_27 3"
page >
ment "
external -
link- path
35 5"/>
1. 5
id_34 1">
id_35 6">
id_37 8">
40 8"
47 5"/>
80 0">
alert "
vari ation
variant --
amp -access
original "
modi d
video-card- layout
video-card- component
ja x
experi ment-
_div _
inner html
cycle _div_
room- experiment-
slideshow_ cycle_div_
<relative -link
sap- modid
</relative -link>
views_ slideshow_cycle_div_
variant-- original"
room-experiment- variant--original"
5 33"
6 5">
8 4">
< x
U T
g va
y "
pan alysi
et -
id_2 40"
class_69 4
class_69 6
class_61 2
-a nima
18 2"
14 7"/>
an alytics
<phoenix- ad
</phoenix- ad>
26 1"/>
<ea- local-nav-shelf-sub-nav-section
</ea- local-nav-shelf-sub-nav-section
48 6"/>
id_37 9">
id_37 5">
44 7"/>
teaser -
gtm -a
ne- module
tel "/>
draw er
navbarS upported
gva _
panalysi s-id
2 32"
7 4">
< n
e e
</ n
class_4 0"/>
time sta
ra nce
class_48 9"
class_49 7"
class_52 5">
class_63 9
class_63 0">
class_54 9">
class_66 1"
10 px">
class_68 9">
12 9"/>
fe ed
track ing>
v- slot
19 3">
id_25 9"
<phoenix- non-personalized-recommendations-
</phoenix- non-personalized-recommendations-
id_34 5">
00 00
id_35 4">
id_37 7">
ad dition
number "
OR TC
SH ORTC
audio/ mpe
IC ON
<phoenix-non-personalized-recommendations- tracking
</phoenix-non-personalized-recommendations- tracking>
SHORTC UT
. com
3 90"
b t
f ter
s title
u s-
src 3
th -popup
<p ush-analytics-event
fi r
<source />
id_2 60"
ava il
</p ush-analytics-event
ngcontent-sc 23
class_62 6
class_63 0
class_65 8">
class_60 0">
class_82 2
12 9"
popup -data
18 9"
ngcontent-sc4 49
id_24 6"
id_25 7"
-c lose
id_26 7"
35 9"/>
bi _
id_34 9">
id_37 4">
id_36 0">
id_36 5">
ngcontent-c 25
gtm- l
gtm- n
block -
product- avail
colum ns
product -price
gtm-p n
gtm-p p
gtm-p id
multi ple
ctl 0
small ">
0.75 em"
gtm-c n
television -poster
audio/mpe g"/>
</push-analytics-event >
1 10
2 17"
6 1">
7 px"
7 70"/>
8 6"/>
9 px"
_ sa
m onkey
s qu
v source
</ col
</ bol-link>
<s earch
a- icon
a- icon>
</s earch
na tion
se nte
class_52 5"
class_53 8"
class_55 8">
class_61 3
up sente
ng- attr
class_132 "/>
12 px">
has h
18 5"/>
29 8"
29 8"/>
id_23 8"
id_23 9"
id_24 4"
26 6"
26 px"/>
<ea- locale-selector-
</ea- locale-selector-
<f a-icon
</f a-icon>
id_35 8">
id_35 3">
<client- redirect
</client- redirect
ngcontent-sc14 4
menu_ id
default -
aria-value now
text/javascript "/>
ÃÂ¢ÃÃ "
custom_ menu_id
</col group>
upsente nce
<ea-locale-selector- option
</ea-locale-selector- option>
<client-redirect -button
</client-redirect -button>
2 15"
6 70"/>
8 7">
9 8">
> </span><span
w -
x height
x -placement
ro ta
no -prefetch
class_53 3">
class_69 1
class_64 8
class_54 6"
class_60 4">
class_75 2"
20 4"
13 9"
25 3"
rea m-
id_25 5"
id_26 8"
27 1"
27 5"/>
id_35 5">
ngcontent-c 55
80 %">
<col group>
ÃÂ¢ÃÃ 
cooki e-
are ">
class_172"><dt></dt><dd></dd></dl> </a></li><li><a
N/ A"
navbarSupported Content"
squ are">
6 7">
li der
se ri
class_35 "/>
st _url
class_64 1">
class_59 7
class_67 2
class_67 4">
class_60 1
class_99 "/>
16 6"
17 0px"
25 8"
tive -
28 2"
id_25 1"
id_26 3"
23 4"
header -nav-
id_36 6">
id_36 1">
is- element
so dipodi:
product- label-id
next ">
publishe d-uni
input s
nitro- lazy-
ng-reflect-ndc-dynamic- component
ng-reflect-ndc-dynamic- inputs
published-uni x
- l
- event
4 -
6 64"
9 2"/>
< text>
L W
M ">
g uid
k >
s /
s ort
t ms
u k
re t
</a nimate
data- src
th um
class_16 "/>
class_53 1"
class_57 6">
transform >
class_67 0
class_66 9
ve hi
ort cut
13 0px"
nghost-sc 1
id_25 4"
id_26 2"
id_26 1"
id_27 2"
37 9"/>
element or-
object -position
<animate transform
v-on:click .
club logo
nghost-sc3 19
xmlns:a 10
</animate transform>
thum b
elementor- tab-content-
1 px">
5 3"/>
6 3
6 6">
6 8">
7 28"/>
8 5">
8 1">
a d-
b r/>
f u
u ">
</ column>
li fe
class_19 "/>
class_49 2"
class_56 6">
class_53 1">
class_61 9
class_60 4
top nav-dropdown
15 7"
20 6"
20 8"
18 1"/>
id_25 6"
id_25 8"
ser vice
<ea- link
</ea- link>
colla psi
id_35 7">
id_37 0">
id_36 8">
57 6"
45 45
pat ter
-to gg
<w br/>
responsive -link-
blk click
Sh ortcut
- 1
- test
1 11"
7 9">
< bol-link>
A C
Y _
a hea
e ng
i al
l h
n x
p icture
di ca
con ta
nt -
</s trike>
<p re
id_3 14"
nu ni
class_62 4
class_53 2">
class_55 9">
dy la
class_69 5
class_59 4">
ex te
10 %">
class_60 3
class_70 3">
class_32"> </span><span
14 0
13 00"/>
to ri
mask -type
id_27 4"
home page-
can dyla
id_36 7">
47 0"/>
ngcontent-sc14 5
amp li
que st
ti- shared-
0.75 em">
bra nd
x-on: click
progress bar"
sitem ap
hook -test
patter nuni
patternuni ts
9 9">
9 5">
c er
m d
pt "
use r-
id_2 75"
ol u
ngcontent-sc 100
class_62 5
class_70 1">
ng- src
comp id
20 8"/>
17 8"
19 2.
29 .
28 3"
id_24 8"
id_26 5"
id_26 6"
nav- main
id_35 9">
wi th
cse:search >
nda r
mqn-auto track-
networ k-
- search
3 %">
4 24"
4 22"
5 24"/>
6 2">
6 28"
7 b
9 1">
9 7"/>
< favorite
G OR
I n
S "
b :li
f ck
p cid
le ad
media >
class_56 5">
class_53 9"
class_55 4"
class_64 5
class_64 6
class_61 5
class_60 2
class_70 4">
class_105 "/>
class_104 5
class_104 6
class_104 "/>
ga me-
lo c-
class_170"> </span></p><dl
auto ">
13 8"
font/ ot
nghost-sc 74
27 .
26 5"
ngcontent-sc12 4
ved url
stroke-dash offset
</code> </pre>
CA TE
soci al
news- section
-icon- cta-
aca- news-section
omniture- value
forma t>
ww w
yg-server-content-sc14 9
</rs-slide >
ITE M">
inkscape:window -
_sa vedurl
Y_ ITEM">
192. 3%"
GOR Y_ITEM">
fck _savedurl
font/ot f"/>
CATE GORY_ITEM">
1 32"/>
3 80"
4 3
5 12px"
< n-
_ hash
</ n-
re m"
<p ro
<span> </span>
medi um
</p ro
class_57 7">
class_55 2">
class_69 7
class_69 9
st _title
class_60 2">
32 6"/>
60 5"
28 1"
id_26 4"
ngcontent-sc2 62
26 2"/>
mode lid
-po li
bi lity
model type
nghost-sc7 3
-f id
_url _hash
togg le-
Menu "
_section _
edi tori
wrapper >
appe nd-
pagespeed _url_hash
vehi cle
dica tor
3 px">
3 10"
3 12"/>
< tile-poster-meta
b bed
d r
e ting
f 8
l "
m h-
</ favori
rc ial
aria- gra
el m-
no r
bo l-
<b g-quo
class_56 9"
class_57 8">
st _
class_64 0">
class_58 4">
line _
class_60 7
class_68 "/>
</b g-quo
top ic
15 5"/>
uth o
36 px"
id_28 5"
id_28 3"
-image -
ngcontent-sc12 9
79 .9
-picture ">
text/template -picture">
2_ ctl00_
</tile-poster >
user name
<amp -ad
</amp -ad>
primary- menu"
Col la
<ea-local-nav-shelf-sub-nav-section -link
</ea-local-nav-shelf-sub-nav-section -link>
topnav-dropdown -cms-
aria-gra bbed
<bg-quo te
</bg-quo te>
79.9 1">
2 10
2 1.
4 9"/>
7 9"/>
9 3">
> <img
D e
d ou
g if
u href
u src
u title
v -product-
la n
li u">
aria- test
aria- orientation
id_2 50"
link id
link group
for me
ra i
app ro
class_57 5">
class_64 4
class_59 2">
class_70 7">
x- show
15 %">
-a nd-
13 6"/>
<th ead
ress ource
l- ressource
active -title
0. 8"
id_37 6">
id_36 9">
45 8"
-in put
carousel "
ngcontent-sc14 8
background -
premium "
our l-ressource
rati ourl-ressource
</favori te>
line_ number
v-product- interaction
0 2"
3 1.
4 3"/>
< q
_ re
s m-
s and
on scree
class_6 10
no ver
click -a
tra y-
class_52 2"
class_52 7"
xmlns: x
preload ">
ng- disabled
12 8">
60 5"/>
panel "
nghost-sc 12
28 4"
28 1"/>
-c ri
34 px"
49 0"/>
46 3"
toolti p-
v-bind: src
ki cker
sha de
ug c"
level-2 -item-
df p-
blk title
</header -
attach ment">
bla nk
sitemap "
utho red
dou ble
onscree nover
- news
2 16"/>
< bookmark-button
S cri
_ sub
e j-
</ bookmark-button
<i con>
content url
content -image
content -title
no shade
id_3 13"
nav _
class_52 8"
class_53 2"
class_57 0"
class_55 1"
class_54 3"
class_66 3
class_60 6">
ng- mouseover
id_10 0
-a fter
load -after
25 60"/>
author s
60 0">
key hint
30 8"
do t
onfocus out
is- premium
46 5"/>
-an alytic
-s mall>
enter keyhint
<de l>
en tr
bot to
-aut o-
content- date
content- lead
content- kicker
witch >
</kite- date>
trig ger
<bookmark-button -small
</bookmark-button -small>
load-after -cri
- preview
4 1"/>
6 35"/>
7 40"/>
9 7">
C om
J ava
s tion
t p
re view
re quest
pa lign
<a afp-
</a afp-
class_7 10
tic al-
in -
ca r
css class
class_56 9">
class_53 0"
class_54 9"
class_59 9
img size
class_108 "/>
16 3"/>
tag 3>
module >
id_27 7"
id_29 3"
id_30 5"
33 5"/>
id_37 1">
toolti palign
<app- home-page-hire-category-item-redesig
</app- home-page-hire-category-item-redesig
90 %"/>
8. 57
ngcontent-sc15 0
ngcontent-sc15 6
dl- template
42 px"
-tab s-
featured date
px, ,
pb- click-a
norefe rer"
timesta mp-
nghost-sc319 13
double click
botto m-
tooltipalign ment
<app-home-page-hire-category-item-redesig n
</app-home-page-hire-category-item-redesig n>
2 19"/>
3 12"
6 9">
D C
L i
c re
e >
s y
s or
le s
da y-
text/ Java
form "
click track
menu .
menu -about
ra tio
nofollow ÃÂ¢ÃÃ"
class_62 0
class_53 4">
col -
class_59 1">
class_66 4
co ver
class_60 9
class_71 "/>
<header -
application/ xml"/>
lo s
18 75
ur n
19 2"/>
36 2"
nghost-sc 6
id_27 6"
id_27 8"
id_27 9"
id_28 1"
id_30 2"
id_30 4"
text/html "
ngcontent-sc1 17
id_38 8">
id_39 8">
dropdown -
ori es
notifi cation
ÃÂ¢ÃÃ nofollowÃÂ¢ÃÃ"
seri f
nitro-lazy- empty
-poli cy
sand box
8.57 3px">
4 60"
6 px"
8 px">
9 4">
< date
< yg
E m
I con
b al
c 3
c sk
d G
e :
k it
l r-
</ yg
le a
<s ummary>
aria- readonly
item s[
ter "
link track
ge ner
nu p
<d xp-
</d xp-
class_66 5">
32 4"/>
class_78 6">
</b ig>
application ">
action hint
main -link-
17 3">
ve dby
25 4"
24 5">
video -
over view-
is featured
23 4"/>
99 99
d- append-
region _id
38 1px"
38 1px">
1. 1875
39 4"/>
40 0">
i- img-
66 7"
ngcontent-sc16 1
default -c
79 9"
ngcontent-serverapp-c 12
input mode
moz actionhint
results "
star s">
pb- impress
dot- dot
element- bookmark-button
photo id
require_ login
ampli ence
appro vedby
timestamp- data
text/Java Scri
menu. items[
d-append- class
1 320"/>
1 125"
6 30"/>
8 42"/>
9 3
c ms-
g ree
m p>
da tor
de sti
type s
ari ng-
rop -config
id_3 00"
id_3 11"
ch ro
css -class
class_62 7">
class_53 6"
class_58 3">
class_59 "/>
10 7"/>
class_70 8"
class_79 2
ng- style
sh aring-
ni ce
s- config
mo re-
22 .
29 4"
ng-reflect- default-c
id_28 2"
id_28 8"
id_28 7"
vali d-
id_29 4"
id_30 3"
33 %">
35 5"
57 0"/>
id_38 6">
44 9"/>
74 3"
<nmo -image
<nmo -picture
</nmo -picture>
</nmo -image>
chil d
70 %">
license ">
par ti
cooki es
aca- homepage
aca- homepage-
glob al
ng-reflect-crop s
ng-reflect-crop s-config
ng-reflect-u ri
ng-reflect-u uid
ng-reflect-alt -text
level-1 -item-
nor mal
ng-reflect-default-c rop-config
aca-homepage- index
- widget
0 -
1 17"
2 12"/>
7 80"/>
8 9"
9 1
9 40"
< kite
d 3
p "
p y
r k
s -promo
x lazyimg
</ kite
pt ">
th er
pe op
fi x
<p> </p>
id_3 10"
class_56 3">
class_69 2
class_54 6">
class_58 4"
class_71 9
class_87 9
qui ck
placeholder src
placeholder msid
14 3"
offset vertical
ngcontent-sc6 8
-c rea
vali dator
nav- menu-about
99 0"/>
id_29 0"
id_29 1"
id_29 9"
du ration
-ac count
id_38 2">
id_39 4">
id_39 3">
mobile- menu-item-
pers ona
ne- class
nghost-sc7 8
sponsored ">
c-navigation -item
resize mode
mega- menu-
extr a-
ite_specific_data_ property
Style sheet
5 80"
6 80"/>
7 0px"
8 9
< r
D -
D E
m v
t _nav
w rt
</ r
le rt
<s trike>
text box"
fi ni
id_2 80"
ope n-
class_62 6">
class_53 4"
class_57 9"
class_55 8"
class_60 6
class_71 7
class_70 0
xmlns: dd
class_137 1
side nav-
16 62"/>
17 6"/>
out ub
lazy _src
id_28 4"
id_38 1">
id_39 0">
id_39 7">
node types
-in dicator
<nmo -announcement-teaser
</nmo -announcement-teaser
ngcontent-sc10 6
ha re
70 px"/>
<de vsite-
</de vsite-
ui b-
</slide >
sodipodi: nodetypes
-analytic s>
xmlns:dd wrt
</nmo-announcement-teaser >
< center
< param
L X
S T
_ icon
c mode
e ve
f id
y outub
<a ccordion
</a ccordion
ta tion
scri m-
me so
si ng
javascript "/>
loa ns"
class_62 2">
class_56 1"
class_67 6">
class_66 7
class_72 0
class_70 4
xmlns: cc
action -
sub Item
sub -menu-
20 .
18 px"/>
18 4"/>
17 7"/>
cal cmode
19 8">
19 4"/>
24 9"
if empty
29 5"
<fe offset>
is o
23 9"
27 3"
id_29 6"
id_30 8"
id_30 7"
hide ifempty
48 5"
tool bar
ler >
50 5"
ngcontent-c 9
id_40 6">
v-bind: href
-an alytics
Link "
mobile-nav- right
-produ ct
nghost-c 9
daa- im
daa- lh
vm x
no- follow"
promotion -crea
pay day-
moo th
]. subItem
<cfc -link
</cfc -link>
load-after-cri tical-
promotion-crea tive
payday- loans"
].subItem s[
load-after-critical- elements
- component>
1 14"/>
1 19.
6 70"
7 30"/>
< comments-counter
O pe
Z X
b G
c as
i nt
n der
o om
p op
</ date>
</ comments-counter
le ss
button _icon
icon _class
app ly
class_62 8">
<d n-component-
</d n-component-
class_59 3">
class_61 3">
class_72 1"
class_68 1
class_78 2">
origin al-
15 px">
bookmark -button>
v- srcset
36 3"
36 6"
23 7"
23 3"/>
id_29 5"
id_30 1"
id_39 2">
id_40 2">
<client- root
</client- root>
cc _
container _class
min -count
53 3"/>
-scro l
tracking- label
desktop -
dn_ aid
dn_ button_icon
dn_ icon_class
dn_ container_class
</cf c-navigation
text/JavaScri pt">
chro me-
nav-menu-about __
</comments-counter >
<dn-component- bookmark-button
</dn-component- bookmark-button>
5 2
8 9"/>
V 2_ctl00_
_ Drop
b s
j 0
u cc_
di al
ri ch
in iti
ma na
si s
class_41 "/>
class_58 5">
class_78 5">
class_88 7"
class_105 8
class_128 "/>
x- data
class_165 "/>
13 px">
24 .
layout >
29 6"
id_28 9"
id_30 6"
component -name
collapse -content"
text/x- dot-
40 2"
id_38 4">
id_38 3">
id_38 7">
id_39 5">
id_39 1">
tracking data
ngcontent-sc14 2
custom- style>
amp- type
amp- name
amp- lang
amp- persona
next "
-slide -
mobile "
<rs- module
<cf c-navigation-item
nghost-c 10
ctl00_ ucc_
networ k
//// ////
table-of -content
table-of -content>
Header V2_ctl00_
rep_Navigation _
nav-menu-study__ apply
block- premium
collapsi ble-
Colla pse
<kite -picture
</kite -picture>
peop le-
</cfc-navigation -item>
_Drop out
text/x-dot- template">
ctl00_ucc_ HeaderV2_ctl00_
nav-menu-study__apply ing
ctl00_ucc_HeaderV2_ctl00_ rep_Navigation_
2 36"/>
3 _
4 70"
6 -
7 36"/>
9 f
N ew
S earch
a teg
f un
h k-
w he
script ">
th -
ton e"
ter ms
ngcontent-sc 37
st id
class_64 4">
class_67 5
class_67 6
class_76 "/>
class_73 0
class_73 1
class_70 8
application/ javascript"/>
12 5
17 1"
out side
22 3"/>
article -url
nghost-sc 99
nghost-sc 54
23 8"/>
ngcontent-sc17 4
id_29 8"
face s
26 7"
37 .
35 px"
38 5"/>
1. 25"
id_38 9">
id_39 6">
id_40 4">
id_40 0">
id_40 1">
56 px"
<client- table-of-content
</client- table-of-content>
-s m
ms- visible
bottom "
pp le
Ex pan
setting s
mobile-nav-right _menu-child-
- nav
7 %"
< var>
B o
a no
n z
s .
t z
w s-
ti -a
class_3 "/>
style s
mg m
type ahea
rg -ad
id_1 10
fo x
in clude
box ">
siz cache
id_3 12"
id_4 14">
-sc ope
ne s
class_52 6"
class_74 9
class_86 "/>
ni ng
json -l
20 4"/>
25 60"
36 .
required -error-message
nghost-sc 2
nghost-sc 22
29 2"
preser ve
id_28 6"
id_29 2"
id_29 7"
id_30 9"
34 1"/>
id_39 9">
ngcontent-sc14 3
cc :
TI ON
ngcontent-sc13 7
grap hi
nghost-sc9 3
pl us
mqn-inview -slide-
-bar >
stick y
gva_ layout
thumb "
candyla nd-
gif "/>
bottom- up
desti nation
mooth -scroll
rg-ad fox
mqn-inview-slide- bottom-up
2 19"
3 14"/>
4 px"
7 -
8 90
A R
a a
o g>
y es"
pa ck
class_4 "/>
al la
<h o
</h o
de te
bo s_
fo af
id_3 17"
image _
image/ gif"/>
ca rd-
class_62 1
class_62 9">
st re
mi les
10 3"/>
class_60 1">
class_71 2
class_71 9">
class_88 7
top margin
po se
ur pose
13 8"/>
25 %">
36 36
left margin
nghost-sc 75
slot -scope
<ea- section
<ea- section-
</ea- section-
</ea- section>
context _type
file "/>
50 0">
50 px"/>
45 0">
mobile- menu-item-link-primary-level-2
id_40 8">
<app- sidebaritem
</app- sidebaritem
CA S"
68 3"
nitro- lazy-src
exte nded
background- overflow
parti al-
mobile-menu-item- level-2
original- title
dial og>
bos_ context_type
miles tone"
<ea-section- column
</ea-section- column>
</app-sidebaritem >
- display
- arrow
4 b
7 d
7 34"/>
8 2"/>
8 1%">
M o
P ro
R e
a _
f 0
l ng-
ss >
li -
le rance
ti ty
<i ron
title -
<p> <a
</i ron
<svg use
ra ting>
class_55 7">
class_55 2"
class_69 2"
class_64 0
class_64 1"
class_67 8
class_61 8">
32 8"
32 9"/>
class_78 1
x- transition
15 0px"
id_12 0
18 %">
-b ra
29 4"/>
27 9"
test -event
34 2"
eza h
eza w
id_38 5">
id_40 5">
id_40 3">
block >
modal :
64 5"/>
log ge
7. 6"
53 4"/>
ngcontent-serverapp-c 11
cooki e
mqn-lazyimage -google-
ng-mouse enter
tabs- container
1616 4
state- data
</svg use>
rota te">
uk -scroll
cookies -policy
ti-a uthored
x-transition :
1 a
2 17"/>
2 30px"/>
4 29"
6 1"/>
O T
b ea
e qu
p refetch
w t-
| "
da p
da nt
sc i
aria- lab
value >
fo un
fi nd-
class_31 7"/>
id_3 15"
nav -con
ow ner
id_4 10">
class_69 0
class_54 2"
class_67 8">
class_67 7">
web kit
class_61 8
class_60 9">
class_70 5">
class_78 0">
class_92 "/>
xmlns: content
xmlns: sk
xmlns: foaf
class_121 "/>
off "
main -nav-
16 2"/>
14 40"
navigation >
<em bed
25 7"
24 7"/>
rea k
-b ase
30 3"
28 8"/>
27 2"
header _sub
37 6"
-loa ns"
tool s-
id_32 1"
yg-server-content-sc 109
id_40 7">
margin -
ngcontent-sc10 2
2. 5"
par alla
xmlns:rdf s
horizonta l">
xmlns:sio c
xmlns:sio ct
whi te">
xmlns:x sd
partial- name
foun dation
xmlns:sk os
7 2
7 28">
< ss
< m-
a u
d s-
e v-
g i
k a
s ur
u ti
ss -
class es
</ m-
</ ss>
targ eting
aria- active
no te">
id_1 12
item -
text class
<b -dropdown
class_52 9"
class_64 2">
class_54 4"
-p urpose
expan der
class_107 "/>
class_78 1">
</b -dropdown
class_129 "/>
12 2"/>
defer ">
16 px"/>
class_182 1">
class_181"> </i>
track er
search >
13 7"/>
19 20">
24 5"/>
desc en
list -load
group "
23 1"
menu-item -link-
34 6"
></a> <i
docu ments
56 3"
<app- home
</app- home
tracking source
gdpr -purpose
90 90
28. 5%"
28. 5%">
edi -adverti
<amp -analytics
</amp -analytics>
<as24 -icon
</as24 -icon>
-component -r
block-on- gdpr-purpose
rdf: rdf
&amp ;
teaser- list-item
network- code
dr m
tooltip- white">
valid- method
meso -display
Expan dable
candyland- overview-
<iron -icon
</iron -icon>
uk-scroll sp
equ al-
wt- cli
owner textclass
header_sub _section_
foundation -component-r
aria-active descen
aria-activedescen dant
- top-
1 F
1 16
4 px"/>
6 %">
: plus
< column
> </div></td>
b ackgrou
e ledby
l p
r ule
s b
s __child-menu"
la tive-
fi t-
as t
id_4 19">
ngcontent-sc 24
class_62 4"
class_59 0">
class_78 2
class_75"> <div
class_78"> <div
<i> </i>
20 0%"
18 0">
14 00"/>
ac id
13 0
13 3"/>
-id -
navigation __
25 5"/>
event label
nghost-sc 4
26 .
26 1">
34 5"
attribute type
id_40 9">
-re lative-
sha dow
lazy-image "/>
54 px"
fr ont
news- group">
Nav "
home- news-group">
slider >
1, 1">
1, 1,1">
promotion -name
rel_ 22
</x mp>
</div></td> </tr>
vmx- type
v-slot :
Stylesheet "
aria-lab eledby
rdf:rdf >
:plus one
></div></td> <td
- box
8 5
8 70"/>
< vaadin-
R l
W A
c :type
f n
f -relative-
i ler
s -pi
z -
z oom
</ vaadin-
pa m>
le d"
ti na
th "
de tail
<s elect>
wid e
text/ xml"/>
id_3 22"
id_4 15">
id_4 18">
pre v
class_51 4"
class_56 7">
foo t>
class_36"> </span><span
class_64 5">
class_63 1">
class_65 8"
web store
10 79"
nta ction
class_72 7
class_71 8
32 2"/>
class_70 7
class_68 2
noref fe
ver b
sub section">
12 8px"/>
side nav
13 33"/>
an alytic
sk i
19 9"/>
ngcontent-sc7 9
24 2"/>
-b ack
event category
sta te>
sed ">
30 .
30 2"
29 6"/>
sp ort
27 px"
heading -
99 0"
face book
26 5"/>
-item "/>
id_33 4"
text/x- jquery-tmpl">
id_31 9"
ngcontent-c 21
45 px"
en tity
que ry
tracking- verb
text/javascript "
main-menu__ link
c: format>
ula r
ula r-
<x mp
-anima tion
e: menuitem
extra- small">
mv l-
eve ntaction
ctl00_ucc_HeaderV2_ctl00_rep_Navigation_ ctl0
typeahea d-
cc: wor
prefetch "
expander -target
equal- height-
webstore -item"/>
noreffe rer"
- header
- overlay
/ "
0 b
3 c
4 34"/>
5 45"
6 b
8 36
8 60"/>
9 0px"
< c
< zeus
a ct
m ber
s tem
t mode
y >
</ c
</ zeus
le ry
class_6 0"/>
tle tmode
<s pa
</s pam>
use -s
ck "
id_3 20"
id_4 12">
id_4 11">
id_4 13">
st "
class_64 8"
class_58 0">
class_58 7">
mi _
class_66 8
class_75 1
font s
top -nav-
class_154 "/>
15 3"/>
id_14 0
mo ve
19 3"
be dding
rea ct
og roup
22 6"
ngcontent-sc4 50
nghost-sc 0
nghost-sc 13
30 5"/>
language -
nav- item
nav- sub
37 4"
ph a
38 4"/>
com pan
id_32 3"
<nmo -article-feature
</nmo -article-feature
<amp- state
</amp- state>
ngcontent-sc16 3
amp- href
amp- path
amp- parent
ngcontent-sc13 5
yg-server-content-sc15 6
number "/>
por tletmode
Menu 2"
-0 -
ba si
h- use-s
<rai- highlight-container>
</rai- highlight-container>
<kite- date
CENTER "
CENTER ">
0.5 em"
ine ss
Fo o
ICON "/>
ng-attr -content
cookie- tracking
-togg le
eng age
chrome- webstore-item"/>
documents .">
block-on-gdpr-purpose -consent
<zeus -ad
</zeus -ad>
<nmo-article-feature s
</nmo-article-feature s>
1 32
1 16"/>
6 50"
8 7"/>
A F
_ share
j u
m uni
m w-
w o
y our
la sh
ss s-
</ content>
<a d
</a> </li></ul>
ri bb
te or-
sc s-
id_1 "/>
id_1 32
ll s-
str u
id_4 16">
id_4 20">
id_4 30">
id_4 21">
ce nt
ca mp
ca r-
app s-
class_57 1">
class_64 3">
class_59 0"
class_76 7
class_70 9
class_78 8
class_77 9"
radi ogroup
13 0">
author "/>
hea teor-
22 %">
nghost-sc 14
29 1"
header ">
bg imgfield
35 .
35 1"/>
38 8"/>
1. 8
47 9"
only forme
66 6"
text- collapse-
site- nav-
2. 0
apple-touch-startup-image "
55 7"
content- modal>
secondary- image
<client -content
</client -content>
-play er
-play sinline
dns-prefetch "
ngcontent-sc22 890
c: title>
ng-mouse leave
null ti
js-county -item
js-county -name
simp le-
De sktop
rai led"
Collapse "
li- letter
modal: open
nav-con tainer-id
<b-dropdown -item
</b-dropdown -item>
<spa m
sss- data-
heateor- sss-data-
onlyforme part
1 100"/>
4 11"/>
5 _
5 25"/>
8 35"/>
9 1"/>
= '
C 0
I D
R D
_ equiv
f s
h r
h a-
w d
w are
class_2 "/>
th ing-
et "
de bu
ro ad
no com
id_3 16"
id_3 32"
image ">
menu title
class_62 5"
class_56 2"
class_57 6"
class_58 9">
class_59 5">
class_59 8">
pla y-
class_82 6
top "
ng- options
focu s-
class_131 "/>
12 6"/>
id_13 0
18 64"/>
14 9"/>
og g
quo te
padding bottom
show _
header __
bin e
id_37 6"
50 4"/>
40 5"
ngcontent-sc1 13
ngcontent-c 14
65 8"/>
fb _share
68 3"/>
-f lyout
visi bility
fit content
ÃÃÂ ¼
horizonta l"
anima tion
http _equiv
bt n-
conta ct
webkit -playsinline
top-nav- list-item
nocom bine
- di
- if
- level-
/ inline
4 c
4 25"
4 39"
4 .0
5 13"
7 7
< ti
m y-
o pack
t wit
t ream-
</ ti
on input
ti t
<i on
tion ">
ul _Dropout
tr o
no tic
in etwor
in stid
</i on
class_27 0"/>
class_28 "/>
<b ig>
size "
time range
id_3 26"
image -auto
id_4 17">
class_38 "/>
class_62 0">
class_62 5">
class_62 1">
class_67 5">
ex po
class_61 4">
class_60 7">
class_78 6"
class_77 7
class_88 6
ng- switch
sh -date
lo on-
-a jax
100 0">
cal lback
ted -
25 0">
24 0px"/>
36 8"
29 "/>
ngcontent-sc2 13
27 8"/>
33 4"
33 9"
35 6"/>
__ content"
ngcontent-sc9 5
39 5"/>
39 6"/>
34 7"
40 7"
56 .
ngcontent-sc14 0
ngcontent-sc14 9
wi per
54 5"/>
publi sh-date
7. 0
need -ajax
Content __content"
nitr opack
market id
prevent default
moo tools-
crony m>
bal loon-
gree s>
sub-menu- link"
nav-menu-study__applying __
ss- offset
Expandable Content__content"
s-pi ano
ribb on
nav-container-id -
debu g
/inline script">
ul_Dropout Menu2"
publish-date -
nitropack /inlinescript">
1 B
2 F
8 -
9 10"/>
T ab
l tr
m y
w ave
z p
z y-
pa ir
on is-
alt text
<s eznam-pocitadlolibise
</s eznam-pocitadlolibise
content -type
class_21 "/>
button "/>
use _
class_27 "/>
ap d
ngcontent-sc 39
ca ble
ca rt
<d fl-
</d fl-
class_55 7"
st rea
class_63 4">
class_65 3">
class_59 6">
class_76 8
class_76 9
class_76 3"
class_60 8">
class_72 6
class_72 "/>
class_75 0
class_79 3
class_86 6
<tr> <td
12 1"
error -message
js x
che r
20 px"/>
20 1"/>
-a ss
-a lert
100 px"/>
14 1"
14 9"
y- name
24 6"
36 5"/>
hea d
-link s
mod _
27 5">
26 8"
un de
hide -
ad onis-
ngcontent-sc10 4
64 4"/>
-place holder
nghost-sc7 7
CA RD
tj _id
-slide >
message -id
id_43 6">
id_43 3">
<w sp-skeleton
</w sp-skeleton
tel "
117 6"
daa- ll
-banner >
experi ence
LinkType. AC
<pre> </pre>
insta nt
range "
ignore apd
0.5 em">
foreignobject >
gal lery
ret urn
119. 664"
rich text>
TION ">
lp checked
h-use-s mooth-scroll
zy- fid
</seznam-pocitadlolibise >
adonis- marker
<wsp-skeleton -image
</wsp-skeleton -image>
LinkType.AC TION">
- template">
- section
2 11"
2 em"
G E
H J
T h
Y 29
b m-
e id
</ row>
</ foreignobject>
</a cronym>
te ver
me mber
ue -
</s ource
na tive
id_3 18"
image -id
ow ha
id_4 24">
id_4 26">
or k
ra p>
ci ti-
class_55 5">
class_55 9"
class_63 6"
class_58 8">
class_59 9">
class_76 7">
class_73 6
32 .
class_84 "/>
class_79 0
class_98 "/>
class_82 7
class_185 "/>
to day
25 9"
22 1"
field s
30 0
filter disable
28 8
is _re
-c c
ng-reflect- has-
font- style
menu-item >
26 4"/>
-background -src
du ct-
34 .
></a> </div><div
ngcontent-c 27
49 3"
45 5"
66 6"/>
44 3"
video/mp 4">
wi sh
tt- com-
zone >
position -
-aut owha
mqn- equal-height-
id_43 5">
share url
lob al-
-carousel -content
sp- main-nav-
97 8"/>
mqn-lazyimage -background-src
gra m
-product- ribbon
<ps- follow-button>
</ps- follow-button>
<nmo- medium-teaser
</nmo- medium-teaser
mqn-inview -product-ribbon
render as
yq role
main-menu__link--sub -1
v-on:click. prevent
27. 354"
editori al-
uib- dropdown
nz -carousel-content
candyland-overview- tt-com-
fit- margin-
react -autowha
Foo ter
apps- app
pair -id
</source >
is_re tina
ng-reflect-has- desc
mqn-equal-height- apps-app
</nmo-medium-teaser >
react-autowha tever
- text-
0 c
4 16"
4 2.
5 25"
6 80"
6 85"
< foreignobject
A -
M a
b x
e k
e id_
g u
j p
l pos
m r
t oa
t form
y t
me ">
th read
<s amp
rel -news
</s am
se am
text/ json">
vi a
class_32 "/>
for mat-
id_3 25"
id_3 27"
id_4 28">
id_4 25">
class_53 5"
class_63 1"
class_58 3"
class_66 6">
co re>
class_76 4
class_73 5">
32 0">
class_70 1
reload _div
12 1"/>
sh i
ni pp
-a d-
16 0
13 56"
lay er
class_219 "/>
24 0">
video id
29 .0
27 7"
page _
nav- item>
33 .
37 7">
46 5"
46 7b
ngcontent-sc14 1
id_45 0">
58 4"/>
3. 02"
page- location
id_44 1">
part ner
id_43 9">
id_43 4">
id_43 1">
id_43 7">
.0 8"
-block _1_
dynamic- strip
dynamic- strip>
11 1"/>
news letter-
-carousel >
cd 09
<rai- dynamic-strip
</rai- dynamic-strip>
<slide -item
</slide -item>
vmx- page-location
loc- str
iso date
modal:open ">
-level- 0
eid_ desc
</sam p>
seam less
0 5
0 _
1 E
1 19"/>
2 ded
4 90"
4 38"
5 px"/>
5 7"/>
8 6
< o
_ load
a te
d z
f y
i a
l d
n ch
u x
w ar
z ation
</ o
ref re
<a crony
ta r
on hover
scri ption
al l-
et >
<img />
se nd
bo th"
button -group>
view port
ch r-
id_4 32">
id_4 22">
id_4 23">
px ;
class_56 0"
class_57 4"
class_54 7"
-p l
-p rimary
class_58 8"
class_58 7"
col >
class_59 2"
web site
class_72 9
class_68 8
class_68 9
class_77 8
class_82 "/>
class_105 9
class_128"> </span><span
x- widget
class_186 "/>
14 px">
25 3"/>
24 3"
list -item>
60 %"/>
lazy _load
28 7"/>
uni vers
ngcontent-sc17 1
35 5-
38 .
t- com-
48 cd09
34 1"
id_32 9"
k- drop
65 836
-in fo
tile- scrim-
<amp- video
</amp- video>
id_43 8">
media- wide
-scro ll-
win view
seconda ry
scale onhover
news letter
nghost-sc17 7
crea te
ÃÃÂ ¤
mon it
-accordion -
pi lls-
Drop down
1b 355-
<mgm- television-poster
</mgm- television-poster
wa y
b:li ke
elm- img
cre di
sb winview
</div></td></tr> <tr><td
expander-target --
radiogroup ">
<ion -icon
</ion -icon>
mootools- core>
wish -button
467b 2ded
<acrony m
t-com- www
48cd09 65836
1b355- text/javascript">
</mgm-television-poster >
467b2ded 48cd0965836
467b2ded48cd0965836 1b355-text/javascript">
2 f
3 16"
3 13"
3 9"/>
4 14"
4 36"
5 36"
6 90"/>
7 0.
9 36
9 35"
< kbd>
C F
a jax
e c
i me
l Z
ti vi
ti n-
al "
class_8 0"/>
type name
vi e
id_3 24"
form -
click -
id_4 27">
id_4 29">
em pha
class_58 1"
class_67 4
class_67 9
class_66 2">
class_73 "/>
class_71 5">
class_75 3
class_88 8">
xmlns: svg
class_137 "/>
20 210
16 6"/>
16 7"/>
13 50"
22 3"
event scale
38 px"
-loader >
go v-
34 4"/>
https:// the
display text
-w i
id_45 4">
id_44 6">
submenu- 2"
slider "
42 6"/>
combo box">
top- nav
v-else -if
club -
http ://
40. 8
addition s"
ndar .com
Ope n
scs- header
use_ picture
29.0 9"/>
refre sh
empha sis
eventscale ndar.com
https://the eventscalendar.com
' />
- 1-
/ html
2 b
4 _
4 28"
6 32"/>
7 3"/>
: p>
< di
< data-src
< clublogo
B E
B F
R wd
c z
d x-
m m"
s ale
la tion
</ data-src
</ clublogo
te ch
th rea
rel -attr
no sk
er s
text/ stache">
ma cro
as "
</h4> <ul
class_45 "/>
class_51 "/>
class_62 3"
class_56 4"
class_65 0">
class_78 3
class_87 2">
class_84 7"
class_77 4
class_12"> <div
class_88 "/>
xmlns: serif
sub itemprop
20 48"/>
17 0">
class_182 2
sta nce
nghost-sc 10
nghost-sc 18
nghost-sc 26
home "/>
27 8"
event- tracking-
matri pple
ph one
ore nder
35 2"/>
score ">
id_34 1"
can -aut
39 5"
.org /
ngcontent-c 30
44 9"
text/plain "/>
-whe n
ting ">
wi pe
id_45 5">
id_45 1">
id_45 7">
amp- mustache">
ngcontent-sc15 7
stri ng
tracking- url
comme rcial
<cf c-
</cf c-
mon th>
cd k
year >
yg-server-content-sc14 4
sugge stion
external- target-attr
external- rel-attr
addition s
topnav-dropdown-cms- -
Com me
ateg ory
Bo ok
uti lity
camp us-
nullti ps
monit or
20210 3
https://theeventscalendar.com /"/>
</data-src >
</clublogo >
nosk im
can-aut orender
- group
- wrap
. score">
4 00
4 14"/>
6 30"
6 60"
6 12"/>
9 -
Q u
S _
Z W
b k
e din
h ow
o ci
o mo
u ra
x y
cla ime
pa -re
ti ng-
<i ti-shared-
class_12 "/>
<h y-
</h y-
</s witch>
lab le-
val s"
</i ti-shared-
ns ion
class_57 "/>
class_57 8"
class_65 9">
class_65 1">
class_65 7">
class_65 0"
img _url
class_61 9">
class_61 0">
class_61 8"
class_76 6
32 4"
32 px">
class_68 0
class_68 5
ub li
xmlns: foo
ng- focus
class_4"> <li><a
class_106 0
<h4> <a
sub menu-item
x- bind:
x- jquery-tmpl">
14 0px"
24 2"
dra ting">
30 %">
29 5"/>
28 6"
uni t
<phoenix- carousel
<phoenix- carousel-
</phoenix- carousel>
</phoenix- carousel-
26 3"/>
access i
bar >
35 0px"
38 9"/>
-ac credi
id_34 5"
id_35 9"
dis play-
39 .
></a> </h4><ul
49 6"
ms allowfullscreen
-w ea
block -on
-to -
gdp r-
90 px"/>
inkscape: page
id_44 5">
id_44 8">
id_44 3">
grid >
air- click
ngcontent-serverapp-c 5
</g cse:search>
login -
67 6"/>
mqn-lazyimage -
forma ction
-alt -text
homepage _
ble- megamenu-
sl ug
bi_ name
nx defer">
gener ator
today ">
-cc pa-re
thread .score">
click- outside
threa drating">
<phoenix-carousel- strip
</phoenix-carousel- strip>
-accredi tation
block-on -ccpa-re
block-on-ccpa-re ject
1 px"/>
2 C
3 a
3 48
4 a
4 f
4 35"
5 a
6 3"/>
< tile-poster-
< tile-poster-meta>
D ">
F 0
Z S
_ columns
a "
a mt
a nup
b p
c cess
d b
d m
d sg-
e ch
h u
h y
h p-
o dipodi:
t c
t n
</ tile-poster-
li ck
ti mage
data :
class_8 "/>
de fini
label ledby
name d
box -type
index "
id_3 28"
image srcset
pre render
ca le
class_56 8"
<g cse:search>
<d sg-
</d sg-
class_69 3">
class_64 6">
class_64 8">
class_58 6">
class_59 1"
class_66 9">
pla tform
class_61 6">
class_61 7">
class_76 0
class_76 6">
class_76 5"
class_60 7"
class_72 2
class_72 5
class_71 3
32 06
class_70 5
class_70 6
class_70 6">
class_77 6
xmlns: article
class_136 8
class_132"> </span><span
class_130"> </span><span
12 40"/>
x- webki
15 00"
18 px">
18 7"/>
13 1"
video visible
ngcontent-sc4 5
30 7"/>
is videovisible
27 .5"
page type
-image "
-image -fid
26 9"/>
26 4px"/>
<f b:like
ngcontent-sc8 4
component type
colla p
new column
go al-
id_33 1"
id_35 7"
id_37 1"
id_36 9"
ngcontent-c 15
47 2"/>
45 %">
svg -icon
<amp- layout
</amp- layout>
id_45 3">
id_46 8">
id_47 4">
lazy-image -google-
id_44 7">
enter -
default ">
cle anup
6. 5"/>
tracking- category
<rt -icon-cta-
</rt -icon-cta-
download -link
par k-
Item ">
ÃÃÂ ¶
-google- dfp-
disc los
schema. DC
base "
nded -preview
-adverti se
-auto- test-id
doubleclick "
ngcontent-sc37 8
paralla x
tracker type
<app-home -item
</app-home -item>
foundation-component-r te>
backgrou nded-preview
muni ty
editorial- teaser
dz -image-fid
t-com-www -google-dfp-
<tile-poster- video
amt -auto-test-id
dsg- button
odipodi: named
</tile-poster- video>
x-webki t-
<rt-icon-cta- video
</rt-icon-cta- video>
t-com-www-google-dfp- v
- E
- footer
- nav"
- params
/ template">
5 10"
B 8
I mage
_ name
_ year
c n
i se
n dex
o allowfullscreen
q s
t type
la st
li -type
<a bbr>
ri ce
sc ategory
class_11 0"/>
se x
class_33 "/>
stroke- color
app lazyload
class_69 7">
st op
class_63 9">
class_59 3"
ex cer
class_61 1">
class_60 5">
class_60 5"
class_72 8
class_73 2
32 6"
32 7"/>
class_70 5"
class_88 0">
xmlns: book
xmlns: video
xmlns: profile
class_137 2
-a nd
16 1"
ve nd
to lerance
-b in
29 9"
module id
module preload"/>
do c
d- by
link- -level-0
37 2"/>
start "
mu te-
48 6"
id_34 3"
dis claime
40 6">
soft ware
46 px"
ngcontent-sc12 0
v-bind: style
176 px"
id_45 9">
id_46 0">
id_46 5">
id_47 9">
id_47 0">
id_47 8">
id_44 4">
id_44 0">
id_44 2">
submenu- 1"
submenu- 3"
yg-server-content-sc15 3
ke e
er- story
ngcontent-sc19 5
tick er-story
ng-in clude
Item "
-collapse >
selector >
analytics on
entr y-
col- md-
normal ">
youtub e
WA _
analytic scategory
notic e
Th is
-text- 3206
x-bind: class
excer pt
ticker-story -text-3206
- label
- or
- page
3 32"
3 14"
4 15"
6 10"/>
7 40"
7 90"/>
8 5%">
9 20"/>
B lock
N OT
P os
_ srcset
a e
c tive
e j
e u
f a-
g :
p r
p hol
t L
u s"
u ZX
x p
z y
</ video-
div id
</div> </div><div
</a> <a
ty -
te s
op per
con sent
</p> <p><a
he ap-
se ssion
meta data>
tab Rwd
class_29 0"/>
link s-
id_3 30"
id_3 75"
or phol
pre view-
em orphol
class_62 6"
<d fn
st ream-
class_64 9">
class_65 4">
class_58 2"
class_66 7">
webp _srcset
class_61 2">
class_78 9
class_79 "/>
top -article
xmlns: product
class_131"> </span><span
12 80">
ho mr
15 7"/>
mar que
20 3"/>
17 9"
17 1"/>
onmouse move
mo vie
ac count
13 1"/>
13 34"
v- text
19 1"/>
y- class
menu- url
class_246 "/>
24 8"
22 9"
lazy -pri
pro xy
do es
ngcontent-sc2 7
code cs
27 7"/>
-content ">
33 3"/>
-po st-
collapse "
id_33 5"
id_35 3"
id_37 4"
39 8"
com ment
tab- group
remo vals"
we ek
</app- root>
-re view
<client- main
-s ig
colum n-
ngcontent-sc319 12
dropdown "
-pro file
custom- mute-
min i
id_46 6">
id_46 4">
id_46 2">
-title ">
theme name
yg-server-content-sc15 1
cl u
media- homr
widget Block
reset "
lt; strong&gt;
boss expo
logo -url
por table
footer- menu"
inter lace
12. 7"
ja x-
mqn-auto track-event
cl- icon
draw er-
hel p"
block-on- gdpr-
schema. dc
line- spacing
ICON "
v-on:click. stop
mqn-autotrack- category
mh- lazy-src
mh- lazy-pri
-input >
rk no
fix ed
article-url -or
stre et-
uk-scrollsp y-class
fs 2
road street-
288 px,
candyland-overview-tt-com- top-article
dx- accordion
col-md- 4
NOT &lt;/strong&gt
heap- ignore
emorphol og
custom-mute- button
media-homr -ass
lt;strong&gt; NOT&lt;/strong&gt
mh-lazy-pri or
article-url-or -link
- tab-
2 20px"
3 17"
3 1-
4 10"/>
5 22"/>
6 20"
6 35"
7 60"/>
7 36"
8 7
< content>
A rt
B 9
C C
E vent
L y
M DF
O ne
P GE
S S
j ell
o st_
p lo
s r
w ri
y bea
</ m
li ndex
</a d>
op ds-
<h tag3>
</h tag3>
<s tri
as ide
ne lid
ngcontent-sc 25
ci ty
terna tion
class_53 "/>
class_57 7"
class_55 6"
class_69 9">
class_69 0">
10 2"/>
co vid
class_60 0"
class_68 8">
class_75 2
cu MDF
class_88 0
class_119 4
class_10"> <li><a
class_127 "/>
ar y"
class_126 "/>
ga HJ
15 6
15 1"/>
15 67"/>
18 6"/>
16 7"
17 px">
14 1"/>
mo re>
19 19"/>
25 7"/>
y- use
panel --
sed -link-
30 6"/>
28 9"/>
do main
description >
bg -for
menu-item ">
26 6"/>
-po st
38 5"
1. 1"
score -box
id_34 4"
id_33 3"
39 4"
39 6"
mask- icon"
40 4"
drop -
id_45 6">
id_46 3">
id_46 1">
id_47 1">
id_48 8">
<de tails>
submenu- 4"
light "
nghost-sc20 08
fro m-
par sed-link-
<fl- col
</fl- col>
ren de
chan nelid
-feature d
<mat- sidenav
rel_ 25
base profile
extr as"
yq g-
fir st
Icon "/>
93 d3
dete ction
-bra nd
find- a-
nav-sub -menu"
show_ faces
Y29 tL
lZ j0
Qu Y29tL
goal- click
uZX QuY29tL
Ly 93d3
PGE gaHJ
jell ybea
cuMDF uZXQuY29tL
parsed-link- destination
Ly93d3 cuMDFuZXQuY29tL
PGEgaHJ lZj0
. 3"
/ defer
0 2
3 19"
8 54">
9 5%">
: fl-
; &amp
< track
A A
C 9
I G
L T
U se
e Book
f le
g pt"
h k
i -link
i -type
k 2
l g
s ho
s &lt;/strong&gt
u uid
w ix
</ metadata>
re nce
<a -ad
</a -ad>
le ar
th er-
et -id
tr g
<p orta
ro l
ro ll
no excerpt
se ct
bo l-b
item s
ct -id
ou d
ou che
ma i
tab _
id_2 "/>
<b anner
vi et-id
str y
</p orta
loa ded
ra te
trans lation
class_57 5"
class_64 0"
class_58 6"
class_58 9"
class_59 8"
class_67 3">
class_66 8">
10 6.
class_61 5">
class_35"> </span><span
class_72 4
class_68 4
</b anner
le- text
class_77 2
class_77 5
class_74 8
application s
touch start
preload -di
sub list
sh op
x- template">
15 0
15 9"/>
main -content-
18 0
18 4">
s- block
track -breadcrumb
19 6"/>
sta tic
28 0">
show -back
module -id
23 8"
font- face
99 3"
<ea- game-
</ea- game-
<f eature
</f b:li
section _
bed s">
35 7"
<video -
id_34 2"
id_34 6"
id_34 9"
id_35 5"
id_37 3"
id_36 1"
c- menu-
docu ment
com pa
40 6"
id_39 5"
i- img
i- loop
i- info
66 47
44 4"
id_45 2">
id_44 9">
id_50 6">
id_50 9">
id_49 7">
id_49 2">
amp ;&amp
ona ux
6. 6"
publisher "
Con te
background-image -alt-text
sa fe
sa le-text
responsive -image
2_ ctl0
bc n-
modal- group>
ype -count
schema >
show- front
data_ channelid
1, ,
-small -teaser
menu-item- child-
rep_Navigation 2_ctl0
&lt;strong&gt; Comme
ite_specific_data_ schema>
fl :fl-
simp le"
olu tion
Em beds">
main-link- title
main-link- url
1.1875 em"
1.1875 em">
i-img- ratio
i-img- qs
menu.items[ 0
menu.items[ 1
91 e
mega-menu- sublist
graphi cs
mvl- type
mw- modal-group>
cable s
toa st
page_ card>
website s
/html Embeds">
-advertise ment
software .">
ost_ image_
Use &lt;/strong&gt
wix /htmlEmbeds">
preload-di stance
show-back -alt
<ea-game- box
</ea-game- box>
</fb:li ke>
onaux click
show-front -alt
&lt;strong&gt;Comme rcial
fl:fl- noexcerpt
- 3
- navigation
- date>
3 1
4 75"
4 47
5 28"
7 10"
7 32"/>
8 50"/>
8 10"/>
8 72"/>
9 d
D B
S hare
T i
V I
b reak
c 57
e v
k 3
m pt
n g>
p _
{ E
</ u
id -
</li> <li>
</span> </pre>
script -id
<s ite_specific_data_property
con ttype
</s ite_specific_data_property
content -item
<p s-promo
bo iler
er "
er t
lab le
prop s
in it
class_26 5"/>
ma s
for um
</p s-promo
id_4 80">
<strong> <a
trans f
class_63 7"
class_63 9"
col le
class_59 7">
class_59 4"
class_66 3">
pla te
class_61 9"
class_72 1
class_68 3
class_68 4">
class_87 4
class_79 1
class_77 2">
class_74 6
sub title
sub scribe
15 6"/>
class_188 "/>
class_170"> </span><span
14 4">
s- menu"
class_171"> </span></p><dl
v- t
sele ct-
24 1"
rea ct-
panel >
30 0px">
29 px"
enable d
33 6"
</f eature
bu s
48 px">
id_34 7"
id_33 9"
00 9">
id_37 2"
id_36 5"
id_36 7"
></a> </strong>
66 4"/>
<app- rating
</app- rating>
open id
id_45 8">
dropdown -menu-
70 %"
id_46 9">
model s-
id_49 6">
grid width
id_48 5">
han d
<code> </code></pre>
cl oud
header- search-
11 16"/>
desktop "
direct ory
responsive -image>
ug ge
global- header__
-panel "
</search -
www .
in- new
<yg -card
sharing- panel-
open- in-new
item- models-
1.8 75
Dropdown "
cale ndar
from- cache
Conte nts
</site_specific_data_property >
boiler plate
global-header__ item-models-
- logge
/ bu
1 120"/>
1 140">
3 F
4 23"
4 3.
5 0.
6 25"
6 26"
7 70"
< bol-
< nice
@ font-face
A E
C SS
D 0
E C
N E
S he
Z ur
l :
s pre
s nipp
v site
x id
x xs
x hr
y o
y stem
la r
la nd
</ date
</ di>
</ tab>
</ bol-
</ nice
</ value>
</div> </textarea>
li ng-
href -logge
class_10 "/>
ul l-
de m
con tro
in ternation
ml xs
ap p>
image -url
stylesheet ">
ne x
id_5 12">
id_5 11">
class_43 "/>
class_46 "/>
class_48 "/>
<g cse:searchbox-only>
class_65 6">
class_65 1"
class_65 3"
class_67 1">
img "/>
class_72 3
class_73 7
class_87 2
class_99 2
ng- non
ng- blur
class_123 "/>
sub tree
qui sition
po t
cx l-
book ing-
17 4"/>
class_215 "/>
class_187 "/>
track er-
13 84"/>
class_208 "/>
19 7"/>
menu- /
video -content">
list -sm
-link s>
event code
nghost-sc 16
nghost-sc 76
-image -re
33 0">
du stry
component transf
contentinfo "
48 2"/>
id_33 6"
id_35 8"
id_37 8"
id_37 7"
id_37 9"
id_36 8"
40 px"/>
49 4"
id_38 1"
-w rap>
47 4"/>
45 3"
ngcontent-sc12 2
56 2"
remo ve
80 %"
<client- star
</client- main>
</client- star
id_46 7">
55 px"
id_47 6">
id_47 5">
id_47 3">
id_47 2">
54 6"
id_50 0">
id_50 7">
id_49 0">
id_49 1">
id_48 4">
id_48 2">
lazy-load -parent
navbar Nav
dynamic- media>
header- search
mt xxs
mobile menu-/
Navigation "
-pop up>
-pop ular-
end point
nghost-sc5 2
submenu Open
]. submenuOpen
&lt;strong&gt; @font-face
game id
ff an
ga-impression- event-category
ga-impression- event-action
analytics action
.com /
<search -
elm- dynamic-media>
doubleclick ">
Em bedding
Icon "
lea der
cms- name
-scrol lable-
<vaadin- tab
ÃÃÂ¼ ck"
my- date
zp gameid
gov- banner"
string ">
cdk monitor
-bin dable
-post- preview
menu.items[0 ].subItems[
menu.items[1 ].subItems[
bus iness
directory ">
<nice -date
CSS .">
She et"
Zur ÃÃÂ¼ck"
</nice -date>
href-logge din-
contro lid
ng-non -bindable
subtree focus
tracker- eventcode
list-sm -scrollable-
-image-re sizer
<client-star s
</client-star s>
Embedding &lt;/strong&gt
cdkmonitor subtreefocus
list-sm-scrollable- item
- size
- time
- mode
- fallback
1 170"/>
3 16"/>
3 Rl
4 21"
4 19">
6 32
6 36"
8 2
9 b
9 60">
< z
< dialog
< component
< yg-
< data>
< bol
< custom-style>
A l
H o
L 2
O W
P D
S ta
S lider
S ugge
Y LE
d 8
f "
i frame
i e-
s :
s ave
t bG
z a
</ z
</ yg-
</ component>
</ custom-style>
pa gi
le d
ti es
ri mage
title -loans"
content units
content s"
se -
bo ot
fo rce
id_3 40"
id_3 50"
id_3 60"
id_3 70"
ne d
id_5 15">
class_62 3">
class_63 "/>
class_66 1">
10 5
10 8px"
class_61 0"
class_76 2">
32 1"
class_68 6">
class_68 3">
class_78 7
class_75 2">
class_87 1"
class_87 3"
class_84 8
class_59"> </span><span
class_89 1"
class_77 9
class_76"> <span
class_86"> <span
class_88 1
class_82 4
class_86 2
class_135 8
ng- key
class_136 0
class_136 2
class_136 4
class_136 6
class_128"> <li><a
sub section
lo t>
mar t
control _id
book -title">
class_182 5
ac quisition
13 9f
13 c57
cell ">
19 00"/>
to ta
24 1"/>
class_247 "/>
spa cer
application/r df
-link s"
22 6"/>
key word
url "/>
spe ech
30 4"/>
spec .org/
module -wrap>
ng-reflect- dossier
cur tin-
1. 98"
new sex
id_33 7"
id_35 1"
tile srcset
tile abs
id_36 6"
39 7">
40 9"
46 7"
id_38 3"
id_38 9"
47 3"/>
ad type
ad method
44 7">
pattern transform
js- role
<client- page
</client- page>
ass et
ngcontent-sc319 08
90 3c
-pro gress
58 2"
58 2"/>
ne- nex
3. 8
page- path
id_50 4">
id_49 9">
id_49 4">
id_49 5">
id_49 8">
id_48 3">
id_48 1">
id_48 7">
theme options
8. 9
-4 E
53 9"/>
submenu- 5"
light box
oper -slide>
main- menu"
main- nav"
&gt ;
e- text/javascript">
togg ler
</rs- module>
</rs- module-wrap>
country- selector-
view- box
-pop over
6666 6666
hel per
<nmo- dossier
</nmo- dossier
<rs-slide s>
</rs-slide s>
setting s>
switch "
yg-server-host-sc 62
1.5 00
drawer "
ad- location
nx tray-
request url
</yg -card>
ST YLE
52 15
<rs-module -wrap
whe n
wt-cli -tab
return value
http:// opds-
accessi ble-megamenu-
_year ">
vend or
<porta l
6647 13c57
safe frame
91e 139f
spre admethod
3Rl c3
632 664713c57
ie- style
application/rdf +xml"/>
newsex po
tileabs url
903c 91e139f
ne-nex ad
<nmo-dossier -icon
</nmo-dossier -icon>
http://opds- spec.org/
632664713c57 e-text/javascript">
903c91e139f 632664713c57e-text/javascript">
- results"
. 2"
1 13"/>
2 %"
3 99"/>
4 12"
4 19"
4 1px"
5 C
5 2px"
6 18"/>
7 76"/>
9 px"/>
9 88"/>
< column>
< mgm
< rg-adfox
< tabs-container
A M
D i
E -
E t
P ubli
c 0
d 7
d s
e s-
g er>
j s>
m w
s a-
t g
t name
u ci
v link
w key
w ords
w j-
</ mgm
</ rg-adfox
</ dialog>
re dit
re cent
href url
pan e-
data name
</span> </code></pre>
de mic
<s witch>
rel ='"
aria- co
er ni
view _
image s
ch at
id_5 32">
id_5 14">
id_5 21">
id_5 27">
false '"
class_69 6"
class_64 "/>
ble -content>
class_65 2">
class_58 0"
class_38"> </span><span
date -type
class_66 0">
10 1"/>
10 8px"/>
class_76 1
class_76 3
class_73 5
class_68 5">
class_80 2">
class_78 4">
class_75 4
noref f
class_77 1
class_77 1">
async -url
class_88 5
class_86 4">
class_119 5
fra nch
class_137 5
class_137 7
12 5">
12 3"/>
12 0px"
12 47"
ga te
15 40"/>
main Nav
mark er>
20 0
18 18
16 1"/>
17 7"
17 9"/>
canonical "
tag ert
25 00"/>
24 00"/>
laz zy
36 4"
22 0">
down .
panel _
30 9"/>
30 0px"/>
28 7"
show -close
pro -overlay
ngcontent-sc2 6
ga- component-name
reg is
33 px"
onfocus in
38 3"
38 6"/>
result s-
48 0">
collapse One
id_33 8"
id_35 2"
id_35 4"
id_35 6"
text/x- custom-
id_38 4"
this _year">
mobile- menu-item-link-
-in dustry
js- find-a-
-s wipe
ngcontent-sc16 2
ha red-
ha wkey
90 %">
58 4"
3. 009">
id_50 3">
id_49 3">
id_48 9">
7. 1"
8. 33
68 6"/>
mat- button
yg-server-content-sc15 0
.0 6"
id_55 3">
id_55 2">
hover -class
dl- lang
menu__ link
menu__ link--level-0
21 1"/>
105"/> <span></span>
bc n
117 5"/>
</div></div> </textarea>
vo te
slideshow "
mqn-auto track-label
</ws- text>
sidebar _list
96 px"
-rende rer
hero -banner
disc erni
></a></li></ul> <h4><a
views_slideshow_cycle_div_ homepage_
gva_ block
nav_ sidebar_list
action- xhr
fun ca
terms "/>
json-l d
json-l d>
preserve -params
gva_layout _columns
prev ">
ski p-
facebook "
twit ter"
ng-switch -when
Ma in
movie -poster
schema.dc terms"/>
plo re
wri te
jellybea n"
</porta l>
section_ key
colle ction
/bu y">
internation al
ffan y-
acquisition /buy">
66666666 66
http://opds-spec.org/ acquisition/buy">
wj- hawkey
</rg-adfox >
dataname field
aria-co lindex
franch ise
text/x-custom- template">
js-find-a- pro-overlay
discerni ble-content>
wj-hawkey e
- view
- nav>
- un
3 e
3 48"
4 19
4 17"
5 e
5 15"
5 14"
5 30"/>
5 85"
5 3.
8 20"/>
9 48"/>
9 70">
< tab
< mq
A 0
A 7
A 8
C H
D 8
P opup
P an
R h
W id
Y X
a uth
d on
f g
f -4
g ws-
h at
n variant
</ ig
</ mq
di d
di ct
</div> </a></li><li><a
te n
sc :
<i ti-authored
<i gws-
style "
de -
er ">
text/ calendar
</i ti-authored
id_4 22"
menu -id
pre _hidden_text
id_5 18">
id_5 22">
id_5 28">
id_5 25">
id_5 17">
id_5 33">
id_5 31">
id_5 37">
app -
-r un
class_63 3"
class_58 5"
class_67 0">
class_66 8"
webp -fallback
class_61 3"
class_76 5
class_73 9
class_68 1">
class_68 7">
class_78 "/>
class_77 3
class_74 4
class_111 "/>
ar t
sub menu">
12 4">
15 7
15 2.
18 3"/>
17 3"/>
17 60"/>
s- menu-
19 83"/>
sele ction
list Item">
nghost -
nghost-sc 69
99 8"
<ea- local
</ea- local
access ories
33 9"/>
section -title
37 7"
un der
48 4"
00 0">
id_36 3"
39 9"
su peri
docu ment"
-sub menu"
46 8"
id_38 5"
ad "
mobile- target
mobile- ad
id_40 1"
id_40 9"
44 1"
or- width
176 5"/>
<client- cookies-policy
</client- cookies-policy
<amp- carousel
</amp- carousel>
id_50 8">
zone -id
id_48 6">
69 5"/>
ms- controller
message >
light ">
gb_ superi
id_56 5">
id_55 0">
tracking- id
desktop -ad
-message s
mqn-lazyimage -src
nitro- lazy-srcset
attr -
image- webp-fallback
sidebar >
bra nd-
height- or-width
large st
ga-impression- event-label
4545 4545
Li st
sharing- panel--
mqn-inview-slide-bottom-up --
mqn-lazyimage-google- image-auto
mqn-lazyimage-google- image-webp-fallback
x-transition: leave
sci ty
ju sti
stru c
-pl ug
univers al-
mqn-lazyimage- height-or-width
disclos ure
Image "/>
preview- mode
yqg- events
tagert url
Pan el
</ig ws-
text/calendar "/>
</client-cookies-policy >
gb_superi nvariant
mqn-lazyimage-google-image-auto width
) "
- region
1 c
4 34"
5 9"/>
6 99
< x-
< edi-adverti
< meso-display
A B
A ka
D 9
D EN
P hoto
Q U
S elect
S ITE
S QU
V z
a me
d 0
h ou
l -accordion
m b
n b
p fe
r k-
s ing>
u ration
w x-
cla ng
</ x-
</ tabs-container
</ edi-adverti
</ meso-display
</ rdf:rdf>
</ foundation-component-rte>
div "
re search
re position-
li as
pa bs
<a pp
id ">
le d-by
on invalid
</span> </span>
pt l:
me type
<i hk-
ul se
class_18 20
class_19 4"/>
ro tate
but tom
button -
fi fu
ct x
in s
in dow
fill rule
</i hk-
ns w
aria-label led-by
ma n
ma tic
tab s"
tab list"
ea 7
index _
size set
id_4 00"
pre dict
id_5 16">
id_5 24">
id_5 54">
id_5 40">
id_5 35">
id_5 39">
ci ti
class_62 0"
-p ink
mi metype
date -
class_59 5"
class_60 6"
class_60 9"
class_71 4
class_71 4">
class_89 "/>
class_89 7"
class_79 6
class_79 4">
nc el
class_74 1
class_88 4
class_86 6">
class_86 7">
class_105 3
class_105 4">
</h5> <p></p>
ng- touchstart
class_129"> <h5>
class_129"> </span><span
sub section-
class_137 9
12 0px">
x- ms-
class_161 "/>
cx l-accordion
18 66"/>
ur al
14 6"/>
class_182 1
class_182 4
class_182 7
class_182 9
class_182 6">
13 5">
13 4"/>
category ">
19 0
25 em"
menu- text
-b u
60 .
60 8"
60 9"
class_221"> <a
nghost-sc 30
30 0px"
29 7"
vf -
28 3.
nav- section-
pt- sizeset
ult ure
d- error-message
d- wx-
37 3"
37 8"
37 1"/>
__ sect
1. 82">
id_36 2"
34 0">
34 3"
api -
57 1"
50 1"
50 6"
com munity
ngcontent-c 13
46 9"/>
id_39 2"
id_39 1"
id_39 3"
id_39 6"
id_39 9"
47 .
mobile- network-code
add -
44 5"
56 9"/>
65 .
<client- json-ld
</client- json-ld>
75 %"
validation -error-message
product- dynamic-
-pro gram
70 2"/>
min -width
55 2"
55 5"/>
id_47 7">
id_50 1">
analytics- label
ngcontent-sc13 8
-f lash
6. 8
id_56 2">
id_55 6">
id_55 9">
id_54 3">
id_54 1">
transpa rent
<u i
column header">
hover -image-
-class es
-tab list
country- flag
ui- view
ÃÃÂ ¥
mon th
id_76 9">
hero >
-prefetch "
rdf: about
rdf: resource
sugge st-
pagespeed _
stick y-
-anima ted-
columns >
header-nav- panel
fu nc
ej- hover-image-
tp pabs
desktop- network-code
//////// ////////
sticky -position
AR E"
Mo bi
class_181"></i> <a
</vaadin- tab>
contact ">
react-autowhatever -1"
format- detection
x-webkit- speech
disclaime r-
comment count
sr clang
sho ck
bol-b loc-
ouche nd
mai -prefetch"
show-close -icon
8.33 3%">
nav_sidebar_list _
mobile-ad -position
desktop-ad -position
<edi-adverti sing
<meso-display -ad
Aka mai-prefetch"
SQU ARE"
</edi-adverti sing>
</meso-display -ad>
ptl: if
fifu -featured
-pink -arrow
</h5><p></p> <div
class_129"><h5> </h5><p></p><div
x-ms- format-detection
product-dynamic- cover
-program matic
ej-hover-image- change
- 2"
- template
1 15
3 b
3 -4
4 15"/>
4 19"/>
5 12
5 17"/>
6 1
6 _
6 9"/>
6 25"/>
6 38"/>
8 12"
8 80"
< clippath>
< rdf:rdf>
< cc:wor
A 5
A TE
B l
D _
E F
H ID
I CA
L e
M ore
S t
U N
b 6
d bl
g l
i i-
i Ly93d3cuMDFuZXQuY29tL
m c
m h
n a-
v ue
v xmlns
y c
</ cc:wor
li qu
pa use
ta ct
le _
le st
on menu
ti l-
class_6 "/>
me r
<i e:menuitem
<h ome
</h ome
<s lider
target -
con den
</s lider
no te
se s
ng b
<meta data
val >
text/ liqu
</i e:menuitem
hid ea
ma x-image
id_3 80"
id_3 90"
id_4 17"
id_4 23"
id_4 29"
-sc ale
<t foot>
icon src
ce _
id_5 20">
id_5 30">
id_5 13">
id_5 23">
id_5 29">
<g f-relative-
<d c:type
<d c:format>
</d c:type
</d c:format>
foo t
ble -pro
class_65 4"
class_65 5"
class_59 9"
class_67 5"
line s
class_66 4">
co re
class_73 3
class_73 4
class_68 0">
class_101 "/>
class_102 "/>
class_85 7
xmlns: ms
mal lest
preconnect "
class_176 "/>
16 00"
16 7.
17 2"/>
17 0px"/>
17 3px"
menu- link
24 8"/>
36 0">
cou r
-b log
max i
nghost-sc 19
nghost-sc 21
quo te-
30 %"
28 125
</t foot>
sp m
23 .5"
pro file-
ser vi
27 4"
-ca r
26 8"/>
26 7"/>
lazy- strip
0. 0
0. 88
35 6"
du ate
__ panel-
go -
https :
39 px"
39 8"/>
yg- transition
is- international
46 .
id_38 2"
id_39 4"
56 2"/>
80 1"
pattern contentunits
sha red
64 .
<amp- sidebar
</amp- sidebar>
uk- tooltip
70 5"/>
config uration
amp- custom
id_50 5">
cid ad"
frag ment
air- entry-
59 9"
79 2"
ngcontent-serverapp-c 8
id_56 1">
</g f-relative-
id_54 6">
id_54 4">
id_54 7">
id_54 2">
flag s>
-on- media
17. 26"
LinkType. SH
vertical "
<transition -group
</transition -group>
hel p-
-pi ck
class_172"><dt></dt><dd></dd></dl> </a></li></ul>
anima te
application/x- shock
<cx- amplience
</cx- amplience
Fo llow
</n -content>
In fo
<r v-
</r v-
ST ATE
dap tive
compan y-
wave -flash
S_ VI
defini tion">
collap sed">
</video- js>
block-on-gdpr- vendor
aside -
PGEgaHJlZj0 iLy93d3cuMDFuZXQuY29tL
<video- js
forum id
openid .
OW S_VI
Publi cidad"
<igws- flags
nghost- serverapp-c
</igws- flags>
DEN "
SITE D_
<cc:wor k
HID DEN"
dbl click
</cc:wor k>
onmenu click
conden sed">
text/liqu id">
</ie:menuitem >
hidea ble-pro
max-image -preview
<gf-relative- time
</dc:type >
28125 em">
lazy-strip ">
0.88 28125em">
air-entry- type
</gf-relative- time>
LinkType.SH OWS_VI
application/x-shock wave-flash
STATE ">
block-on-gdpr-vendor -consent
SITED_ STATE">
hideable-pro mpt
LinkType.SHOWS_VI SITED_STATE">
- 19
- list
- tabpanel
- sponsored
. .
. de
0 1
1 12
4 D
4 48"
4 33"
4 12"/>
5 18"
5 1.
5 56"
5 99"/>
6 14"
6 %"
7 e
7 f
8 4
< caption
< module
< row
< content-modal>
A bout
O L
a link
a v-
a jax-
e p
e st
f s-
k an
l 0
m pa
p date
u complete
y an
la d
</ bol
</ module>
</ content-modal>
</ marker>
re -cms-
</div> <p></p>
ri ns
ri -content
me n
tion "
de sk
type ='
rg ra
no t
no loading
no te"
ng ucomplete
er vice
fi ne
ma nd
va nce
link s"
id_3 48"
ch ap
id_4 18"
id_4 27"
id_5 10">
id_5 19">
id_5 36">
class_42 "/>
ca demic
nofollow ,
class_62 7"
<d c:title>
</d c:title>
class_64 4"
class_64 5"
id_7 70">
class_76 5">
class_60 2"
class_73 6">
class_71 5
class_71 3">
32 2"
class_99 4
class_79 4
ver y
class_31"> </span><span
12 20"/>
class_145 "/>
error >
js -wea
defer -un
-a lias
18 2"/>
13 35"
13 0%"
to -
36 1"
og g"/>
field type
sta ge
acce pt
nghost-sc 55
30 8">
is load
show -image
27 0
27 1"/>
-image -accreditation
link- locale
37 5
ngcontent-sc8 7
-po int
0. 5">
35 8"/>
element -type
-ac cordi
id_36 4"
34 6"/>
su ccess
ler y-
50 %"/>
-sub scribe
40 6"/>
ngcontent-sc1 18
46 5">
id_38 7"
47 4
yg-server-content-sc 113
44 2"/>
56 8"
56 25em"
super nav"
-container "
one ti
76 .08"
sha re-
90 6"
select >
custom- class
55 2"/>
7. 9
-4 F
submenu- 6"
submenu- 7"
id_56 9">
id_56 4">
id_56 0">
copy right
copy right"
id_57 4">
id_54 5">
id_54 8">
separator "/>
<u i-
and ro
shelf data
boar d
nav-menu- engage
update val
ui text
ic size
<mark er
<ws- block
</ws- block>
-promo >
<pre> <span
mpe g
<kite- header-nav-
</kite- header-nav-
state- label
gtm-event- type
gtm-event- module
gtm-event- element-type
gtm-event- uitext
aria label
aria haspopup
require_ visible
Style Sheet"
gal lery-
sm- -1-
int rins
Search "
<ho me-
</ho me-
-base line
sur faces
navigation__ country-selector-
mi_ order
mi_ guid
simple- label-id
unde rgra
gu ide
Pos 1
fixed -
hk -image-accreditation
main-content- wrapper>
c-menu- panel
1,, 0.5">
componenttransf er>
Slider -image"
regis ter
js-find-a-pro-overlay -
-plug in
-tablist -tab
daptive -blog
application/x-shockwave-flash "
ngucomplete -alt
link-locale "/>
<kite-header-nav- item
</kite-header-nav- item>
intrins icsize
- table
/ se
/ today">
0 5">
1 d
1 12.
2 25
3 16
4 36"/>
5 23"
5 12">
8 3.
8 64"/>
9 c
9 e
< m
< val
< value>
< responsive-image
C B
C D
F A
L _
P a
R es
T LE
Y W
_ drop
a ni
a d-uni
b server
g h
i na
j -industry
k y
n ci
o ol
t Z
v b
y _
y a
la s
</ ui-
</ responsive-image>
</ val>
ref x
ref y
<a ha-
</a ha-
on select
ti p
src doc
class_13 0"/>
<h inetwor
</h inetwor
<s tream-
con tainer-id
</s tream-
content _
content links
<p s-piano
no _
no index
no t-
no spm
se n
tem a
fo cas
class_25 8"/>
in "
in de
tab -container
ter m-
ter m-name
vi ou
link name
link edin
</p s-piano
id_4 11"
id_4 25"
pre viou
id_5 26">
id_5 34">
id_5 38">
class_56 "/>
footer Item"
class_69 5">
class_69 1">
class_69 "/>
st ude
class_64 7"
of -
mi zed
mi ssion
transform contentlinks
date -text
mp org
ex clu
class_66 6"
10 7">
class_60 4"
class_73 8
class_73 8">
class_71 1
class_71 2">
class_80 5
class_75 9
class_87 0
class_84 8">
ont ouchend
by line
class_74 5
class_74 7
class_74 7">
class_95 "/>
class_86 5">
class_18"> </span><span
class_104 3
sub nav-
class_144 "/>
hol d
12 8px"
sh op-
class_148 "/>
class_143 "/>
comp -id
15 35
15 9.
class_158 "/>
<em> </em>
mark er-
-a t-
100 .
rou nd
search __
13 50"/>
v- b-
24 6"/>
key sp
article -id
article -title
30 2"/>
language s"
fa ct
28 0
28 4">
28 8">
28 9"
late st-
<phoenix- balloon-
</phoenix- balloon-
obj template
slide _
37 9"
go li
context -
34 4"
34 3"/>
49 1"
id_38 6"
id_39 7"
47 0">
mobile- navigation-
gtm- data
id_40 2"
id_40 3"
44 5"/>
nce /defer
65 px"
para me
90 %"
custom- icon
custom- icon>
70 4"
ne- state
id_47 7"
ori ent
id_50 2">
-o bserver
tifi cation
TI TLE
<de grees>
</de grees>
que nce/defer
id_58 6">
id_58 3">
id_58 1">
lt ur
id_55 5">
id_55 7">
id_54 9">
search- form"
auto- reload
logo >
togg ler>
sig nup
license "/>
AN NE
<rs- column
</rs- column>
-scroll bar
117 7"
submenu_ follow"
-play er>
-play er-
cl- lazy-load
image- caption
cache time
LinkType. CH
LinkType. UN
-collapse "
marker width
marker height
marker units
has- terms
block-on- dem
Ex amp
iti transformcontentlinks
-panel >
application/x- javascript">
<cx- custom-icon
</cx- custom-icon>
norefe rer
bt n
sor table
initi al-
125 px">
wt-cli -tab-
basi c
basi c-
publish-date- ap
publish-date- jss
strea m
-wi th
park- tab-container
schema.DC "/>
g: onload
drop- view-
rende ring
hand ler
yo /se
navbarNav Dropdown"
STYLE D">
collapseOne "
sc: linkname
til- event
ajax- url
defer-un til-event
oneti zed
fixed- visible
L_ TITLE
j-industry popup">
<hinetwor k
</hinetwor k>
focas able
term- url
</ps-piano >
mporg nav
marker- end
keysp lines
<phoenix-balloon- header
</phoenix-balloon- header>
quence/defer /
ANNE L_TITLE
LinkType.CH ANNEL_TITLE
LinkType.UN STYLED">
block-on-dem onetized
park-tab-container __panel-
yo/se quence/defer/
LinkType.CHANNEL_TITLE ">
- default
- slider
- panel-
. title
/ gg
/ this_year">
0 7">
1 p
1 15">
2 B
3 18"
3 11"/>
4 B
4 99
4 %"
5 b
5 39"
7 E
7 98"
8 00
8 83"
9 50"/>
9 37
< content
< citi-
> <em></em>
A pp
F or
I ns
N AM
R z
R et
S "/>
V i
a 0
a 3
a k
b ig
b is
d ont
e n-
f -swipe
g ita
k et
k ur
l j0
n di
p ing-
q l-
r ">
s I
s l-
s olution
t wo
x x
</ citi-
re c_
<a -collapse
</a -collapse>
id ea
data ci
ri c
</span> </a><a
script /gg
de l
ro scope
el .
no log
ll ment
text value
ou pdate
use rid
tab s>
<b ig
ol d
ge n-
str ation
id_4 16"
id_4 20"
id_4 12"
id_4 10"
id_4 13"
menu panel
-sc a
ca pt
id_6 17">
class_62 2"
<g lobal-
class_69 2">
id_7 21">
id_7 23">
date "
class_59 7"
class_67 2">
class_67 2"
class_66 4"
class_66 9"
10 40"/>
10 60"/>
co re-
class_61 2"
class_72 8">
class_72 2">
class_72 4"
class_70 4"
class_80 6">
class_78 0
class_75 9">
class_75 "/>
class_75 4"
class_87 8
class_84 6">
class_99 3
class_77 "/>
class_74 1"
class_82 5
class_105 1
class_105 2
touch- icon"/>
ng- submit
class_130 4
sub menu"
mal ler>
radi us
15 1px"/>
class_167 "/>
-a uthor
aut oupdate
class_183 "/>
17 60
class_237 "/>
mo st
none >
track ">
ac tivi
13 9.
tag ra
y- e
red ">
-b reak
icon- card-
60 px"/>
22 8
woff 2"/>
valign ment
left "/>
29 9"/>
filter able
tabpanel 1-
uni ver
um ni
m_ rec_
lazy- component>
section -renderer
live -
38 8"
component -id
result type
48 2"
48 7"
></a> </p><p><a
text/x- json">
49 00
46 2"
id_38 8"
yg-server-content-sc 64
45 9"
id_40 7"
k- ql-
-article -
56 8"/>
addthis: userid
block s
80 8"
para m_rec_
<client- info
</client- info
ngcontent-sc319 15
menu_ nav
id_44 9"
card s
8. 5"
dynamic -cta
6. 53"
mqn- dynamic-cta
id_58 5">
id_59 8">
-url -tracking
<w sp-main-nav-
id_56 3">
id_56 7">
id_57 3">
id_57 1">
</g lobal-
id_55 8">
</w sp-main-nav-
vid s-
<u ml
overlay >
por a
parent _name
secondary- menu"
sa _
dl- quote
dl- quote-
42 7"/>
-item- index
23. 36"
nav-menu- event
are a-
day s
free form
ui b
xs l
attr -on-media
v-on:key down.
item_ img_url
bind- macro
history ">
horizonta l
<ws- text
<ws- column
</ws- column>
perce nt
sidebar "
all "
nte s
insta llment
-cta s
feed back
bi_ param_rec_
bi_ parent_name
tive- story
sort disable
sort fields
md b-
<n- richtext>
</n- richtext>
toggle- attr-on-media
-image- cover
210 px"/>
nghost-sc12 3
<aafp- link
</aafp- link>
-tabs- content-
<date format
9999 9999
toolbar -target
pop over
mana ge
network s
fun ction
37. 42"
AR T"
dap tive-story
2.0 61"
Tab "
filterdisable message
mqn-inview-product-ribbon -item
mqn-inview-product-ribbon -item-index
yt "
-primary >
wish-button -id-
utility -top-
WA_ fs-
trg .
</banner >
</u ml
react- tabs-
ystem -region
</date format>
-popular- game
boot str
hero-banner -image-cover
Popup ">
Wid get
ctx num
pagespeed_ no_
nav_sidebar_list_ 0_
ICA g
duate __child-menu"
re-cms- edit
andro id-
nav-menu-engage __
Pos1 Contents
linkedin "
drop-view- 5215
NAM E"
Ret urn
lj0 sale
sl- href
dataci _
script/gg ">
menupanel ">
k-ql- drop
dl-quote- img
installment -loans"
WA_fs- tabpanel1-
pagespeed_no_ defer
- as
0 8">
0 1">
0 1"
1 %"
1 15.
2 c
2 20px"/>
3 11"
3 1px"
5 75"
5 34"
5 42"
6 2.
6 79"
6 px,,
7 12"/>
7 76"
7 74"/>
7 27"/>
8 3
8 12"/>
8 44"
8 8.
8 46"/>
9 px">
9 20">
< page-
< row>
< chr-
< k-drop
< elm-img
< mootools-core>
< scs-header
> </canvas>
E }"
I N/
O M
T op
T ogg
c 5
d 6
d c-
e ro
f c
i e
i ter
l j
l src
n et-
s w
s ter
s n-
u st
w av
x 4
{ B
la tit
</ page-
</ chr-
</ k-drop
</ elm-img
</ mootools-core>
pa ste
</a> <ul
on paste
/> <dl
</span> </span><span
class_5 0"/>
al goli
et o
class_14 "/>
<h p-
</h p-
na ry
class_20 0"/>
el -
se _
prop s.
<svg icon
ma il
ava tar
for -
image sizes
as pe
id_4 24"
id_4 15"
id_4 40"
id_4 28"
id_4 26"
id_4 35"
ce 07
ca te
id_6 20">
id_6 11">
id_6 26">
id_6 23">
class_62 1"
trans forme
class_55 "/>
class_63 2"
id_7 22">
class_66 3"
10 9"/>
co me
class_60 1"
class_70 9">
class_78 4
class_78 6
class_89 6
class_79 9">
class_79 3"
class_77 0
class_77 3">
class_74 0
class_105 5
class_118 "/>
class_104 7
top _nav
xmlns: ex
class_115 "/>
class_136 "/>
class_17"> </span><span
sub -
x- cloak
15 5">
char t
has -indicator
mark e
fe -navigation
20 %"
-a uthor>
16 .4"
17 92">
class_172"> <i></i>
mou nt
categ ories
v- lazyload
tag _
to _
-b tn
ngcontent-sc4 53
nghost-sc 27
30 1"
30 00"/>
group s
late src
-c 6b
23 7"/>
home >
nav- level
99 1"
header "
play er
reg ular
ly load
enable -collapse
banner >
<ea- tab
<ea- grid
</ea- grid>
cur re
hide -bra
hide -ctas
38 2"/>
1. 7"
1. 52"
ler ">
video/ ogg"/>
50 4"
50 8"
50 %"
it ude
49 .
47 aa
id_40 5"
para m-
<app- root
76 9"
75 px"
1- 94
64 7"/>
tile- type
tile- color
tile- align
tile- text-color
tile- media-
tile- text-align
id_45 2"
id_45 8"
dropdown -menu"
-pro file-
58 78"
70 0">
id_44 7"
cq notice
devi ce
8. 27"
53 1"/>
79 5"/>
79 8"/>
id_43 7"
id_58 9">
id_58 7">
id_58 2">
navbar Collapse"
id_59 4">
id_59 0">
id_59 5">
id_60 4">
<w sp-
<w x-widget
image_src "
id_56 6">
id_56 8">
nd- stroke
id_57 9">
id_57 0">
id_57 7">
id_57 2">
id_55 1">
header- navigation-
flag /
-v ue
</w sp-
</w x-widget
section- 1-
vid er
lob "
Link s"
ear lyload
long itude
delay -src
id_67 8">
<client -author
</client -author>
</div></div> </li><li>
id_68 1">
horizonta l-
<dt></dt><dd></dd></dl> <canvas
disc over
has- child
progress bar">
></a></li></ul> </div><div
</svg icon>
ee 4b
<n- button-group>
</n- button-group>
f8 1-94
sor ting
initi al
ngcontent-sc37 9
:plusone >
hide- byline
bm- market
bm- net-
uib-dropdown -toggle
tile-scrim- color
tile-scrim- opacity
70. 5878"
nsion s
divid er>
marque e
31- ea7
covid -19
rol ler">
break point
global-header__item-models- cta-
tota l-
f-4 f81-94
justi f
xmlns:ms xsl
onselect start
1535 4900
parame ter
park-tab-container__panel- 15354900
yo/sequence/defer/ 1">
ndi mage
gen- hover
1760 -c6b
<wsp-main-nav- item
</wsp-main-nav- item>
latit ude
</elm-img >
ce07 1760-c6b
class_172"><i></i> <dt></dt><dd></dd></dl><canvas
hide-bra nd-stroke
tile-media- shape
</wx-widget >
</div></div></li><li> <div
ee4b 47aa
bm-net- change
31-ea7 ee4b47aa
f-4f81-94 31-ea7ee4b47aa
park-tab-container__panel-15354900 2-
ce071760-c6b f-4f81-9431-ea7ee4b47aa
- ma
- web
- required
- list"
- wrapper>
- company-
0 6">
0 4">
1 10">
1 152"/>
1 rem"
4 26"
5 17"
5 35"
5 36"/>
5 28"/>
6 18"
6 48"
6 70
7 1
8 a
9 F
< date>
< ev-
< club-
< month>
< year>
C 1
C 8
D D
E 0
E B
S ervice
Z 6_
_ blank
a m-
a rance
b f
c m
c ce
e very
f ast
h s-
i frame>
i te-
n in
s up
s .w
t ren
v d
v or
w al
w all-
x l
</ ev-
</ club-
</ scs-header
</ month>
</ year>
di me
</a pp
ty "
te ri
th ree
th res
et op
et -on
tr y-
aria- bu
</s tri
width -
link tracking
siz set
image >
form control
ch -
click Event
id_4 21"
id_4 34"
id_4 42"
id_4 31"
id_4 39"
ca t-
id_6 24">
id_6 10">
id_6 15">
id_6 22">
id_6 80">
id_6 25">
id_6 13">
id_6 27">
class_62 9"
class_69 9"
class_59 6"
class_67 9">
class_67 9"
line .de
10 4"/>
class_90 1"
class_60 3"
class_73 4">
32 7"
class_68 3"
class_80 1">
class_80 5"
class_87 6">
class_84 4">
class_89 0">
class_79 8
errer "
class_81 1">
class_81 2">
class_112 "/>
class_88 9
class_85 "/>
class_105 6
application/ mustache">
class_104 9
class_104 8">
class_106 "/>
class_138 1
class_151 "/>
12 16"/>
class_155 "/>
class_157 "/>
fe rence
20 2
20 9"/>
-a bs
18 6.
16 9"/>
16 .0
class_174 "/>
14 0px"/>
14 8px"
auto comple
s- block>
teg na-
search Header
cal l
class_182"> <div
19 20"
menu- list
disable linktracking
36 4"/>
layout -
class_251"> <div
selected -
selected _
22 px">
key words
fiel d>
-con fir
url -data
at t
max page
nghost-sc 56
class_252"> </div><div
fa icon
28 6"/>
group ing
-c redit
pro mo
do follow">
focus -point
99 .
reg i
26 9"
slide s-
0. 8
35 9"
row ser
du ct
du sk
ngcontent-sc9 0
48 .
48 3"
48 8"
go to_
00 00">
34 9"/>
api -url
ler t>
57 377"
ms g
ms -attr
ad ver
45 .
mobile- nav"
tor ">
id_40 4"
id_40 8"
44 7"
44 px"
56 px"/>
80 1"/>
alert dialog">
js- tab-group
ha ve
min -
id_46 9"
id_47 3"
54 .
amp- tab
id_44 3"
air- settings
-4 -
id_58 8">
id_59 6">
id_59 1">
id_59 2">
id_60 6">
id_60 8">
id_60 7">
ngcontent-sc15 5
id_57 6">
id_57 5">
</g :plusone>
widget type
background-image -
5. 8"
wor k
wit cher
login >
secondary- level-2
<rt -icon
</rt -icon>
67 %">
<fl- heading
</fl- heading>
ug c
sensors_ index_
117 4"/>
id_67 7">
google- dfp-
-error -
data_ goto_
ngcontent-sc22 7
wrapper "
16. 6666666666
<ps- list-load
</ps- list-load
all stre
scroll -to-
Sub mit
appe arance
shared- client-
<kite- date>
bol d
attach ment"
113 1"
='" false"
1.5 22"
0000 0000
nghost-sc1 19
life style"
candyla nd
olu te
nghost-sc6 1
sizcache 0
ning "
dete ct
sci ence
9090 9090
query parameter
wave bottom
wish-button -id
40.8 24"
event-tracking- param-
dm le_
data: param
prerender _url
eu -color
translation s
></a></strong> <ul
asset s.w
3Rlc3 Rz
nb a-
vf- tray-
512 pt"
aside- level-2
PGEgaHJlZj0iLy93d3cuMDFuZXQuY29tL 3Rlc3Rz
yan dex
undergra duate__child-menu"
<stream- item
</stream- item>
mobile-navigation- drawer
f-swipe -content-
android- touch-icon"/>
<k-drop list-item
wav etop
</k-drop list-item>
se_ prerender_url
total- count
<club- tile
</club- tile>
thres hold
et-on line.de
aria-bu sy
formcontrol name
clickEvent :
sensors_index_ num
16.6666666666 67%">
<ps-list-load more
</ps-list-load more>
allstre et-online.de
queryparameter name
assets.w allstreet-online.de
assets.wallstreet-online.de /
- F
- field
- mobile
- footer-
0 9">
0 3">
0 2">
1 140"/>
1 199"/>
2 14
3 A
3 10
4 x
4 16"/>
4 37"
4 3px"
6 a
6 3.
7 B
7 c
7 75"/>
8 c
8 d
8 e
8 16"
8 3%">
9 u
9 80
9 13"/>
> <span
M S"/>
V u
_ media
_ css
a y
a nsw
b >
b m
c title
c nt
c ew
f 4
g ca
g tag">
i le-
i t-
j et
k o
l ul
l j-
m V
n Bl
s m
s ore
t u
t ld
v w
w p-
x :
{ 8
</ ui
id >
ti al
da rk-
ri pple
rc o
al ">
al th
th at
tion _
<s odipodi:named
tr un
ig n
aria- title
</s ub
</s odipodi:named
na tion-
ro pacity
no js
se e
se o
se o-
ng ed
class_23 4"/>
class_22 4"/>
xt cz
fi na
class_25 "/>
fill -mode
ck s
size _
image style
as -
nav __
ow er
id_4 "/>
id_4 32"
id_4 75"
id_4 19"
id_4 56"
<t t-com-www-google-dfp-v
ne cess
ne nBl
tra iler
ngcontent-sc 29
em bedding
id_5 80">
id_6 32">
id_6 72"
id_6 00">
id_6 21">
id_6 90">
id_6 48">
id_6 44">
id_6 53">
id_6 52">
class_62 8"
<g :plusone
<d omo
</d omo
footer ">
class_69 8"
class_69 7"
class_64 3"
-p od
mp type
ex plore
class_66 5"
10 5px"
class_73 8"
class_71 1"
class_68 7"
class_78 5
class_75 1"
class_84 3
class_89 9
class_77 0">
class_74 2
class_74 0">
class_103 8
class_96 9
class_105 0
application "
up -
class_104 4">
xmlns: m
class_109 "/>
class_120 1
js render
x- init
class_166 "/>
main -url
controls list
class_173 "/>
20 2.
-a b
book s
16 8">
16 2">
17 74"/>
class_175 "/>
class_193 "/>
rou gh
13 40"/>
class_223 "/>
categ orie
v- visibility
19 0">
19 7.
load -sca
be fo
html -block>
video -id
60 0px"/>
nghost-sc 100
nghost-sc 60
nghost-sc 57
nghost-sc 49
30 5"
ts "
show grid
</t t-com-www-google-dfp-v
-c nt
do follow"
27 4"/>
page color
header Navigation"
play er-
d- load-sca
</ea- tab>
33 1"
slide s"
un da
35 2"
// assets.wallstreet-online.de/
component -type
component -alias
00 1"
34 0
object tolerance
57 14
text/x- jsrender
it ba
com mand
49 .9
id_39 8"
47 6"/>
yg-server-content-sc 72
toolti p>
mobile- menu"
ngcontent-sc12 6
66 3"
-article -card
-article -card>
or- index
80 3"
-in ner
one -
75 6"
validation -width
validation -messages
ngcontent-sc319 11
flo or-index
image/svg +xml
58 .
inline- validation-messages
inkscape: cy
inkscape: cx
inkscape: current-
inkscape: zoom
lazy-image -for
lazy-image -as
ai t-
id_44 1"
id_50 2"
grid ">
amp -run
ms- if
6. 0
79 2"/>
submenu- 0"
submenu- 8"
submenu- 10"
id_59 9">
id_59 7">
id_60 1">
mat- ripple
<code> <span
site page
publisher ">
rela ted
ngcontent-sc15 8
id_57 8">
af ter-
-v 2
share Popup">
component- async
component- version
component- tech
component- uuid
component- stage
component- nojs
Link ">
-auto complete
pri ce
nghost-sc17 0
mqn 2-
id_67 6">
id_67 5">
id_67 1">
</div></div> </div><div
id_68 7">
geo >
borde ropacity
id_66 1">
id_66 7">
j- sharePopup">
17. 7"
image- try-
<mat- menu
<mat- list-item
</mat- menu>
</mat- list-item>
TER MS"/>
<pre> <code></code></pre>
element- groups
-pi cker
insta ll-
<v- lazy-image
close -button
</v- lazy-image>
anima te-
line- lul
nav-menu-study__ curtin-
></a></li></ul> </textarea>
<cx- page-
inkscape:window -width
yg-server-host-sc 109
120 8"/>
1.5 rem"
guid eto
29. 35"
inkscape:window- x
inkscape:window- y
inkscape:window- height
inkscape:window- maxi
<pro gress
<pro file-
</pro gress
</pro file-
editori al"
<yg -article-card
</yg -article-card>
-account -link
sidenav- 3-
th- element
th- element-groups
text-collapse- 60
image-auto size
7.0 6"
<dfl- editorial-teaser
</dfl- editorial-teaser
<o :p>
war d-load-sca
</o :p>
inkscape:page opacity
inkscape:page shadow
<dsg- media
</dsg- media>
lazy-image-google- image-try-
lazy-image-google- image-autosize
fle x-
noreff errer"
attr- tp
ins tagra
ii- inline-validation-messages
ep iso
ani zation
ad-uni t
Vi si
sorting fields
dime nsions
</stri ng>
-abs olute
data_goto_ en
clickEvent: itba
_media /
gca ia
jet -tabs-content-
<sodipodi:named view
</sodipodi:named view>
<tt-com-www-google-dfp-v 2
nenBl ok
embedding .">
v-visibility -observer
</tt-com-www-google-dfp-v 2>
//assets.wallstreet-online.de/ _media/
component-alias -name
text/x-jsrender ">
image/svg+xml "
inkscape:current- layer
lazy-image-for ward-load-sca
lazy-image-as -background
amp-run time
nav-menu-study__curtin- life
guideto lerance
inkscape:window-maxi mized
</dfl-editorial-teaser >
lazy-image-google-image-try- webp
clickEvent:itba nenBlok
lazy-image-forward-load-sca lar
' >
, ,
- 2
- 3"
- val
- cal
- page-
- location
- heading>
. png
. prevent
/ size_
3 48"/>
3 18"/>
4 18"
4 1.
4 64"
4 35"/>
5 90"
5 54"
5 .0
6 24"/>
6 8.
6 78"
6 3px"
7 15"
7 -4
8 91"
9 .5"
9 4.
: origin
< data-
< modal
< textarea>
< xs
< candyland-overview-tt-com-top-article
> <span>
> </pre>
B }"
C 5
N j
_ data
a ddress
a bbr
b readcrum
d 9
e os
f 6
f p-
f m-
h j
l sp
m m
m -id
o v
o ok
o cu
p q
p op-
s le
t v
t pe
t ory
t n>
w mode
x 9
{ 5
cla s
cla mp
</ data-
</ candyland-overview-tt-com-top-article
di a
re si
re ver
ta in
on dblclick
ti e
ri es"
class_8 10
th rough
op ic
tion >
pe quiv
<s dx-accordion
class_15 0"/>
rg u
ue st
</s dx-accordion
<p opup
<p rice
se en
class_24 "/>
label s
in forma
ns -
</i> <div
tab s
<b roadstreet-
class_30 "/>
index -
time -a
class_34 "/>
str ateg
ap -o
</p opup
</p rice
id_4 45"
id_4 44"
id_4 38"
class_38 5"/>
id_6 16">
id_6 14">
id_6 18">
id_6 30">
id_6 12">
id_6 54">
id_6 28">
id_6 40">
id_6 50">
id_6 36">
id_6 29">
id_6 34">
id_6 31">
id_6 42">
id_6 45">
id_6 59">
id_6 58">
id_6 49">
class_62 "/>
id_7 68"
id_7 11">
id_7 39">
id_7 51">
-p ix
class_65 "/>
class_65 7"
ex act
web gl
10 50"
10 1.
10 .5"
class_79"> </span><span
class_62"> </span><span
class_61 5"
class_72 0"
class_73 0">
class_73 2">
class_71 0">
class_71 1">
32 9"
32 3"/>
class_70 8">
class_68 2">
class_68 5"
class_80 0
class_80 1
class_80 5">
class_80 7">
</b roadstreet-
class_87 5
class_87 3">
class_89 2
class_79 5
class_77 0"
class_74 "/>
class_82 0
class_86 1
class_86 3
class_86 8
class_85 8
class_85 1">
class_83 1
class_105 7">
class_139 "/>
xmlns: v-
xmlns: bx
class_133 "/>
qui z
12 -
12 1.
place ment
side nav>
comp ile-
15 80
htt pequiv
has _c
class_156 "/>
mark eting
s- header-nav-panel
class_191"> </div><div
class_195"> </div><p></p>
comple te>
class_192"> <i
sk roll
v- line-
tag 4>
be ta
24 4"/>
level _
rea tor">
-b a
class_253"> </div></div></li><li><div
article -alt
ed box
30 00">
br id
iner t
-ca ncel
-type ahea
<f emorpholog
</f emorpholog
right -
i-amphtml- version
-ac ce
v-on: befo
v-on: after-
tile s-
https:// www.
display mode
57 3"
us iness
50 5"/>
-sub menu-
is- external
49 7"
49 2"/>
ms ">
so dipodi
47 2"
47 7"
45 7"
id_40 6"
node id
video/mp 4
tree ">
80 7"
<app- home-
<app- nav-item
</app- home-
</app- nav-item>
carousel ">
ki ng-
ass oci
-s a-
-s upport
1- level-2-item-
wi ll
log out
2. 75"
id_45 3"
container "
custom- template
ne- repeat
id_46 1"
id_46 3"
id_46 7"
id_47 6"
id_50 1"
disable- controls
grid -
grid tolerance
7. 7
nghost-sc7 9
59 5"
59 5"/>
ngcontent-sc13 4
68 2"
68 4"
submenu- menu
id_58 4">
id_60 9">
id_60 3">
id_60 2">
id_55 1"
section- title>
-card s
id_70 5">
ngcontent-sc19 2
person a-
<fl- button
</fl- button>
footer- col-
nghost-sc17 5
responsive -link
os ter
id_67 9">
id_68 6">
id_68 9">
id_68 3">
day num
graph y">
id_66 9">
id_66 5">
study -nav
c: has_c
-pop out
id_77 3">
</mat- sidenav>
sio c:has_c
<nmo- section-title
</nmo- section-title>
id_69 3">
id_69 7">
height- as-
</x s>
burgermenu 1_
burgermenu 3_
burgermenu 5_
id_79 9">
-about "
='" 1024"
<n rkno
</n rkno
110 4"/>
default- languages"
<pro duct-
</pro duct-
lan g>
Li st"
lea g
level-1-item- 1-level-2-item-
quick -
<r fs2
</r fs2
New s">
preserve _css
logge d-
x-transition: enter-
uk-scrollsp y
-back drop
-animation >
mvl- src
text-collapse- 1"
twit ter
content-type -name
content-type -val
bx :origin
40.8 42"
ZS 1
lick >
prerender "/>
<dsg- media-homr-ass
</dsg- media-homr-ass
dz-image-fid -cal
custom-mute-button -position
article-url-or-link -absolute
Share ">
land scape
Sugge stion
spacer y
bcn brand-
franchise -card
152. 8"
<ea-local -link
</ea-local -link>
x-transition:leave -
Photo graphy">
<ui -promo
target- tag
servi cew
inde nt-
139. 7%"
area- labelledby
Widget "
IN/ Share">
sn- skroll
algoli a-
transforme d
justif y">
ce071760-c6bf-4f81-9431-ea7ee4b47aa 5-
am- time-a
regi stration
x: include
</ui -promo>
trun cate
necess ary"
49.9 %">
install- servicew
gcaia gcaia
<candyland-overview-tt-com-top-article s
><span> <i></i>
tpe -plugin
</candyland-overview-tt-com-top-article s>
<broadstreet- zone
-pix el
</broadstreet- zone>
compile- request
v-line- clamp
<femorpholog y
</femorpholog y>
v-on:befo re-
study-nav -popout
sioc:has_c reator">
height-as- percent
<dsg-media-homr-ass et
</dsg-media-homr-ass et>
dz-image-fid-cal ler
sn-skroll r
am-time-a go
install-servicew ork
+ ">
- app
- hide
- has-
. category
. 40.
/ bo
0 3
2 a
2 d
2 30
2 %">
2 .4"
2 10">
2 }"
3 B
4 F
4 e
4 25"/>
4 -4
5 32"
5 64"
5 1-
5 35"/>
6 33"
6 21"
6 3636
7 30"
8 f
8 27"
8 30"/>
8 17"/>
8 92"
9 x
9 70"/>
9 .0
9 82"
: layout
< zone
< local
< md-
< page_card>
C 6
C }"
E D
E E
E H
E books
E +">
F F
L mh
M ar
P DF
T em
T OM
U t
W wi
W 9u
a ng
b d
b n
b il
c 1.
e ight
f loa
g s
g na
g ive
h te
i te
i 18
m ig
m fg
m ce_
n al
o t-
q q
s upport
t w
t ut
t n-
v bi
v ue-
w ea
x 0
x _
 ">
 ÃÂ
¤ Ã
¥ ÃÂ
¦ Ã
´ ÃÂ
la st-
</ local
</ md-
</ car
</ zone>
</ description>
</ page_card>
re place
pan e
id -sa-
le r-
le gal
ti va
da il
</span> </div></td></tr><tr><td
te sti
me s
class_7 0"/>
class_9 0"/>
class_11 "/>
<h ype-count
</h ype-count
de vel
<s ite_specific_data_schema>
type -
target :
</s ite_specific_data_schema>
na nt
he r
content -position
<p ost_image_
ro om
no "
se "
se cu
class_22 1"/>
item ">
fo ur
class_25 2"/>
set -
ma th
<b sp-
<b mw-modal-group>
vi -
class_29 "/>
ge ne
</p ost_image_
as h
nav -accordi
class_39 "/>
id_4 14"
id_4 30"
id_4 64"
menu bar"
tra vel
em -
loading -indicator
class_50 3"/>
class_44 "/>
id_6 19">
id_6 70">
id_6 33">
id_6 60">
id_6 64">
id_6 38">
id_6 46">
id_6 41">
id_6 56">
id_6 47">
id_6 51">
id_6 57">
<g cse:search
class_69 0"
class_63 8"
id_7 32">
id_7 15">
id_7 30">
id_7 17">
id_7 35">
id_7 50">
id_7 38">
id_7 42">
id_7 53">
id_7 59">
id_7 58">
class_65 5">
mp 4a
ex clude
10 5">
pla te">
class_61 "/>
class_90 5
class_76 9">
class_76 4"
class_71 8">
32 0
class_70 2">
expan d-
class_68 0"
class_80 9
class_80 8">
class_78 3">
</b sp-
</b mw-modal-group>
class_87 6
class_87 5"
class_79 7
class_77 2"
class_81 7
class_76"> </div></td></tr><tr><td
class_88 8
class_88 9"
class_94 "/>
class_103 3
class_86 5
class_83 5
lication s&lt;/strong&gt
xmlns: addthis
xmlns: inkscape
xmlns: sodipodi
class_117 "/>
class_132"> </div><div
class_133"> <div
class_135"> </div></div>
12 0px"/>
class_146 "/>
class_147 "/>
15 2">
class_184 "/>
16 %">
17 00"/>
14 px"/>
14 16"
14 50"/>
14 37"/>
class_189 "/>
class_195 "/>
ve rimage
search -bar
13 7
load -page
tag ret
to routerlink
25 px">
be ne
24 2px"
rea k>
22 px"/>
over view
listi ng
radio ">
at ch
ngcontent-sc4 07
is -active
show -account-link
module -fid
track- target
sp inner
do follow
do cname
_c opy
page -s
99 4"
ly >
d- color
33 6">
section s-menu"
row "
i-amphtml- no-
ez oi
1. 2"
1. 75"
ing "
score -template">
element ">
48 3"/>
48 L2
v-on: submit
34 7">
57 2"
57 4"
text/x- under
50 2"
50 px">
50 8px"
40 1"
40 00"/>
40 4"/>
40 %">
40 0px"
ngcontent-c 37
ngcontent-c 56
ngcontent-c 58
49 3"/>
micro Tem
47 1"
47 62"
tab- section-1-
45 8
gtm- label
v-bind: title
74 60
map "
js- state-
<nmo -small-teaser
</nmo -small-teaser
-nav- small
1- text/javascript">
64 2"
<amp- geo
</amp- geo>
2. 2"
2. 83"
ngcontent-sc319 22
-pro -
uk- drop
uk- parallax
58 3.
58 0.0
inkscape: version
id_46 2"
3. 2"
3. 1"
id_47 2"
lazy-image "
54 1"
id_50 5"
id_48 6"
fr on
fb :li
7. 5"
59 1"
av c1.
ms- text
53 7"
ngcontent-serverapp-c 7
id_59 3">
id_60 5">
ke :layout
input "
-block _
mat -card-
search- overlay
search- results"
story >
ÃÂ ¦Ã
aria-value text
id_70 8">
id_70 3">
id_70 1">
id_70 7">
id_70 2">
par sle
28. 67"
id_67 3">
id_68 4">
id_68 5">
id_68 8">
forma nce
id_66 2">
id_76 3">
id_76 7">
<ps- toggler
</ps- toggler>
id_77 7">
98 %">
<mat- sidenav-
</mat- sidenav-
</mat- sidenav
tele port
dition al-
id_69 9">
id_69 4">
id_69 5">
gridcell ">
iti shared
sugge s
application/x- microTem
custom -id
trig ger>
&lt;strong&gt; App
&lt;strong&gt; Ebooks
<cfc -content
</cfc -content
amp-access -hide
sap-modid 2
<n -content>
sodipodi: docname
sort id
brand -nav-
olu tion-
-search >
In dex
lr- custom-class
lr- show-account-link
lr- gtm-label
lr- custom-id
hare -button
youtub e>
mana ger
36. 679"
paralla x-
0b Wwi
language- selector>
px; "
px; "/>
data: command
<stri ng
<mat-sidenav -container
LT H
eBook s
106. 699
</ps-promo >
dropdown-menu- dc-
snipp et
pagi nation
wt-cli-tab -link-
art -id
Mobi le
Le vel
167. 883"
-pick er>
av- tab-section-1-
type=' video/mp4
js-wea ther-
sa_ referrer
lj0sale 0
k-ql-drop list
xmlns:ex sl
-ma p-
186. 105px"
searchHeader -nav-small
scroll-to- refresh
xmlns:m ml
202. 18px"
197. 508px"
<profile- icon
</profile- icon>
pop- time
<rfs2 -icon
</rfs2 -icon>
.40. 2"
Lmh 0bWwi
PDF s&lt;/strong&gt
mce_ href
ÃÂ ´ÃÂ
¤Ã ">
¥ÃÂ ¤Ã">
</local >
id-sa- header-
</hype-count >
<post_image_ settings
secu rity
</post_image_ settings>
mp4a .40.2"
verimage url
i-amphtml-no- boilerplate
ezoi c
text/x-under score-template">
</nmo-small-teaser >
583. 242px"
580.0 54px"
fb:li ke:layout
mat-card- avatar
ÃÂ¦Ã ÃÂ´ÃÂ
parsle y-
<mat-sidenav- content
</mat-sidenav- content>
</mat-sidenav -container>
itishared torouterlink
application/x-microTem plate">
&lt;strong&gt;App lications&lt;/strong&gt
106.699 px"
searchHeader-nav-small -results"
Lmh0bWwi IG
ÃÂ¦ÃÃÂ´ÃÂ ¥ÃÂ¤Ã">
( )"
- h
- href
- fill
- aria-label
- click
- cha
- spon
. as
. to
/ mustache">
1 f
1 x1
1 10px"
1 10.
2 x1
2 11">
3 D
3 12
3 x2
3 x1
3 x4
4 1
4 px">
4 31"
4 }"
5 1
5 22"
5 29"
6 C
6 96"
6 74"
7 3
7 F
7 a
7 14"
7 28
7 90"
7 33"
7 19"
7 30">
7 35"/>
7 11"/>
8 >
8 51"
9 80"
9 %"
9 56"
: id
: 80
< modal-
< car
< foundation-component-r
< cxl-
< elm-dynamic-media>
A rticle
A }"
B j
B OT
H R
H au
I nput
L "
N z
P ar
S tri
S oci
T ea
T ext
_ color
_ image_
a uthored
b str
c type
d th
e sta
f 1b
h it
i x-
i c-
j w
j a-
k y-
l ue
l one
m z
m mg
p p>
p s-
s on
u late
u ssion
v p
x "
</ modal-
</ cxl-
</ elm-dynamic-media>
re ce
re nd
re -base
</div> <ul
href f
</a> <div
ta g>
ti l
ti s
sc h
sc -submenu-
class_5 "/>
pt -ad
pt -ad>
pt men
th ook
class_9 "/>
class_13 "/>
style tag
ul -class
de tails
<s b
<s hare-button
tr as
</s b
</s lick>
content -scale
<p opper
ro ck
se >
class_21 4"/>
ng ()"
bo unce
name >
in fini
tab Panel
der >
ck -
image path
</p opper
class_37 "/>
as ">
as -popover
id_4 48"
id_4 36"
id_4 33"
menu anchor
<t ogg
id_5 13"
id_5 60"
id_5 77"
follow -subscribe
class_52 "/>
id_6 55"
id_6 96">
id_6 39">
id_6 92">
<g pt-ad
class_69 8">
st o
class_64 2"
class_64 9"
id_7 24">
id_7 28"
id_7 54">
id_7 40">
id_7 26">
id_7 13">
id_7 36">
id_7 29">
id_7 64">
id_7 31">
id_7 44">
id_7 41">
id_7 43">
id_7 47">
id_7 49">
id_7 57">
mp -accordion
ex change
10 8">
10 8.
10 67"/>
class_61 1"
class_76 2
class_76 3">
class_73 3">
class_73 1">
32 0px"/>
class_68 8"
class_80 2
class_80 7
class_80 0"
class_80 4"
class_78 8">
class_75 6">
class_75 3">
class_87 3
class_87 4">
class_89 7
nc y-
font "/>
class_81 6
class_87"> </span><span
class_25"> <a
class_82 7"
ub ble
ub cms-
class_85 5
class_85 6
class_85 9"
<nav igation
application/ vnd.
application/ font"/>
top -review
class_135 "/>
ng- required
ng- pattern
class_130 2
class_130 3
class_130 5
class_131"> <li><a
po t-
class_141 "/>
side -nav"
js -image
off er-
15 4">
15 0px"/>
lo y
lo ss
lo ut
16 x9
14 56"/>
class_197 "/>
search -bar>
search Visi
an ce
cal lout
class_219"> </em><span
v- truncate
19 2">
load -
25 px"/>
be d-
24 9"/>
36 1"/>
list -fid
down loa
template /mustache">
field "/>
30 1"/>
ct- ratio
29 0">
fil m
group -id
</fe componenttransfer>
is _
show -content
23 9"/>
do -
99 5"/>
description -field
conten timage
d- mw
region -
33 7"/>
scree ns
un selectable
35 0
35 8"
38 0">
component id
component "/>
__ tab-
result s>
collapse -accordion-
v-on: change
org anization
39 2"
39 7460
57 5"/>
57 2"/>
scrol la
40 5"/>
40 %"/>
ngcontent-c 1
ngcontent-c 35
49 6.8
ngcontent-sc20 95
47 px"
47 8"/>
47 1"/>
yg-server-content-sc 63
45 1"
45 6"
45 2"/>
65 9"/>
65 57377"
74 2"
74 5"/>
80 6"
75 5"/>
-s ource
validation -error-
64 px"/>
2. 283"
ngcontent-sc319 07
ha red
90 0">
id_45 1"
select ">
58 1"/>
menu-item-link-primary-level- 1
ngcontent-sc18 8
55 5"
3. 38"
id_47 1"
post -id
id_48 3"
-o -footer
8. 0
69 3"
<de vsite
</de vsite
59 3"
59 4"/>
id_58 4"
ngcontent-serverapp-c 9
id_60 5"
Nav bar"
input -class
media- container
media- container>
media- group-id
</g cse:search
</g pt-ad>
widget >
widget name
header- search"
header- list-
social- icon
-v 2>
tracking- data-
secondary- menu-list
id_70 4">
67 2"/>
_id "
-carousel -item
-carousel -slide
.9 78"
location -id
nghost-c 25
panel- 1"
top- list>
tick y-
id_67 4">
<client -post-preview
</client -post-preview
id_68 2">
-dropdown >
-feature d-
ext src
show- heading
show- disclaimer-
10. 375
id_66 6">
id_66 8">
id_66 3">
cta- list
cta- list>
menu-item- 13
<ws- button
<ws- media-container
</ws- button>
</ws- media-container>
16. 81"
id_76 1">
id_76 2">
match -class
nat ural
burg er-
id_77 1">
id_77 2">
x-on: mouseover
id_69 1">
close ">
id_79 7">
fl m
yg-server-host-sc 63
fir st-
</search -input>
default- 1-
elementor-tab-content- 20
life "
picture -fill
exte nsion
entr y
entr y>
-auto- suggest-
sy stem
dropdown- section
serif :id
<yg -image-resizer
bal l">
dG Et
</yg -image-resizer
<dxp- cta-list
</dxp- cta-list>
-widget "/>
d3 -o-footer
fix edin
</ho oper-slide>
title- style
title- field
cookie -consent
au -widget"/>
targeting -pos
detail s-
ski p
engage -
car- class
car- model
2.0 6557377"
thing- 23
-flyout >
ÃÃÂ¼ "
4.0 1"
ngcontent-sc39 3
jp g"
ec p
202103 18
display- location-id
enter- select-
tes thook
ev -profile-
<ps-promo -sponsored
</ps-promo -spon
subscribe "
</feature -
dropdown-menu- dc
header-search -auto-suggest-
href-loggedin- resi
href-loggedin- ecp
1.500 em"
sa- header
105"/><span></span> </a><ul
Rh dGEt
universal- header-search-auto-suggest-
<x- rating
</x- rating>
-bu il
283. 46
__sect 0"
65. 174"
bol-bloc- exclu
tact "
foot note
64. 293"
-table au-widget"/>
slide_ 397460
activi ty-
bootstr ap
ICAg ICAg
<scs-header -link
aspe ct-ratio
fe-navigation -item>
regular ">
bm-market -indicator
-web >
</scs-header -link>
selected- object
candyland -announcement
yandex -tableau-widget"/>
4x 3
sore d>
categorie s>
<popup -link
</popup -link>
-typeahea d
><span><i></i> </span></a><a
9x 16
</car -image>
<cfc-content -card
</cfc-content -card>
mp4a.40.2" '/>
.to Stri
<car -image
<foundation-component-r te
BOT TOM
Hau ptmen
Soci al
bstr act
mmg uid
infini te
</popper >
js-image -credit
searchVisi ble
v-truncate :80
d-mw -position
collapse-accordion- 25
496.8 25px"
validation-error- display-location-id
secondary-menu-list __
</client-post-preview >
show-disclaimer- as-popover
</yg-image-resizer >
d3-o-footer __tab-
fixedin viewport
enter-select- button
</ps-promo-spon sored>
bol-bloc-exclu -web>
.toStri ng()"
Hauptmen ÃÃÂ¼"
, 48px"
, 48px">
- style
- height
- action
- video
- modal>
/ defer">
5 f
5 19"
5 2.
6 16"
6 26
6 17"
6 98"
7 >
7 15"/>
7 44
7 56
8 36"
8 90"/>
8 7.
8 52"
8 73"
9 B
9 20"
9 15"/>
9 66"
< carousel
< router-outlet>
< discernible-content>
= bi
> <a
A ccordion
B B
B w
C -
C ust
D ata
E R
F 8
G 1
I de
O ut
T ">
T ra
\ n
] "
] ">
_ A
_ P
_ size
_ bar
_ default
a did
b "
c .
c p
c "/>
c ht
c le-
c 76
d ri
d search
f fi
f ull-
i ss
i el
i ot
j ect-
k "
m 0
m n-
n ">
o pt-
r us
s af
s upported
t "
t xt
t oke
u al
u cation
w r
x /template">
z z
{ F
</ discernible-content>
re ci
re nta
re start
li nea
ref e
pa ger
</a d
ta a
le g
on line
sc r
sc type
al leng
me "/>
me r-
class_12 0"/>
style name
tion s
ul "
<s wiper
<s hared-
tr u
targ e
path way
class_17 "/>
</s hare
</s wiper
</s hared-
</s ly>
he re
class_20 "/>
no va
se c
se ed
meta data
value s-
fo rg
fo cal
ou ter
hid ead
class_26 "/>
<b -collapse
ter s
size -map-
sizes -at-
<br/> <br/>
image link
ch alleng
class_37 1"/>
image/ icon"/>
as t-
as ket
nav drop
id_4 90"
noopener ,
id_5 10"
id_5 19"
id_5 23"
ra w
ra il
ca re
id_6 28"
id_6 35"
id_6 19"
id_6 85"
id_6 56"
id_6 37"
id_6 35">
id_6 43"
id_6 37">
id_6 43">
class_69 4">
id_7 00"
id_7 10"
id_7 16">
id_7 14">
id_7 12">
id_7 25">
id_7 00">
id_7 19">
id_7 27">
id_7 48">
id_7 33">
id_7 60">
id_7 34">
id_7 37">
id_7 46">
id_7 45">
id_7 52">
of fi
class_67 1"
class_67 3"
ex p-
10 7
10 8
10 40"
10 %"
10 43"
class_61 6"
class_90 3
class_90 0"
class_72 9">
class_73 7">
class_68 2"
id_8 21">
id_8 43">
class_80 3
class_80 3">
class_78 8"
class_75 8"
</b -collapse>
class_89 1
class_81 5
class_100 7
class_74 2">
class_88 7">
class_82 4">
class_82 8">
class_103 5
class_103 "/>
class_86 9
class_85 3
class_85 4
class_85 9
class_85 0">
class_83 3
class_83 6
class_83 8">
class_83 7">
class_83 "/>
xmlns: sketch
ng- view
class_116 9
12 .5"
12 5px"
ho tel
off er
15 20
15 58
submit -
charset =bi
control "
main _
class_168 "/>
image/png ">
20 5
20 8">
20 2">
-a lert>
14 40">
s- panel"
rou te-
search Suggestion
class_196 "/>
an d-
19 9">
shortcut "
24 4">
rea king-
list _
dd 156
-b ad
icon- type
22 2">
over write
-con version
url "
sta ts
woff "/>
ry ">
30 5">
30 3"/>
30 %"/>
29 7"/>
allow remove
<fe funca
</fe funca
image/x- icon
pro vider
27 3"/>
99 9"/>
99 99"
l- path
26 c76
d- widget
d- params
<ea- social
</ea- social
-type -
cur rency
37 9">
37 1"
-item s
0. 0"
0. 7"
transition -
un load
server "/>
1. 0
new title
new s">
ga-event- value
48 1"
collapse Examp
cor pora
go me
v-on: enter
rep ort
org -src
is- open
40 1E
46 1"
poli te">
47 7">
44 4"/>
56 7"
text- field"/>
65 3"
65 %">
74 5">
map id
the section
<app- root>
76 px"
tracking label
tracking params
site- search"
75 .
75 1"
75 px"/>
-s mallest
1- 2"
1- 1"
64 3"
64 .978"
router-link -active
gtm trackingparams
2. 7"
90 f1b
-primary- menu"
id_45 5"
id_45 7"
id_45 9"
-pro cess
-pro ject
uk- svg
uk- toggle
accordion "
accordion -
accordion -content-
58 6"
ngcontent-sc18 6
55 4"/>
post -has-
54 9"
amp- boilerplate
id_44 6"
id_50 3"
enter pri
id_48 1"
id_48 7"
id_48 9"
vision -and-
spon sive
-active -class
ms- class
text/x-handlebar -template">
navbar Nav"
id_59 3"
light box>
st- se
id_56 7"
imp ort
copy ">
id_57 9"
header- height
story keywords
5. 5"
component- data
</rt -
id_70 6">
id_70 9"
license "
mobile Menu"
-price >
<fl- icon
</fl- icon>
-carousel -item>
.9 1"
bc b6
inter val
id_67 3"
text/javascript /defer">
10. 8"
id_80 9">
attr val
resource s"
95 2"/>
ÃÂ¢ÃÃ "/>
cache -
id_76 6">
id_77 9">
98 9"
custo mi
id_78 3">
id_78 7">
11. 5"
id_69 8">
<slide >
mega- menu
mega- nav-section-
more "
id_79 8">
id_79 1">
<mgm- movie-poster
</cx- page-s
</mgm- movie-poster
sl ope
-cta >
scribe -button>
views_slideshow_cycle_div_ feature
-l g
nghost-sc12 7
<accordion -container
Ope n"
nav-menu-about__ campus-
nav-menu-about__ values-
<ho oper-slide>
7d 1-text/javascript">
Pro motion
Re sponsive
a_ 6
backgrou ndimage
zoom level
<ti ffany-
</ti ffany-
nav-menu-study__applying__ pathway
<dfl- icon
</dfl- icon>
unde fine
gallery ">
member id
univers al
38. 801"
secondary ">
tech nolog
hu ge
hp- img
ngcontent-sc45 1
cn n
kee p-
<stri ke
Ti tle
open-in-new -tab
1.500 em">
rel='" nofollow"
async-url -small
research __child-menu"
transparent -button
</slider >
core "
openid. server"/>
chap ter"
cademic s"
Res ource
159. 8"
a3 dd156
<uml -icon
</uml -icon>
nary "/>
-confir ma
cnt opic
player- data
<cx-page- slot
nav-menu-study__curtin-life __
strateg y
exact -active-class
xmlns:v- bind
gna vi-
mig ra
wea ther
class_135"></div></div> </div></a></li><li><a
bene fi
v-on:submit .prevent
sugges tion-
Ide as">
renta l-path
linea r">
</share -button>
focal point
exp- body
charset=bi nary"/>
overwrite height
</fefunca >
26c76 bcb6
collapseExamp le"
90f1b 7d1-text/javascript">
post-has- video
vision-and- strategy
</cx-page-s lot>
</mgm-movie-poster >
nav-menu-about__campus- location
nav-menu-about__values- vision-and-strategy
Responsive "
a3dd156 26c76bcb6
a3dd15626c76bcb6 90f1b7d1-text/javascript">
) .toString()"
- 4"
- sizes
- 45
- mobile"
- helper
/ update
/ ajax
/ 214
0 tbG
1 e
1 14
1 174"
1 }"
2 D
2 24
2 px">
3 32"/>
3 .4"
4 32"/>
4 -8
5 F
5 25
5 14"/>
6 B
6 c
6 22"
6 15"/>
6 86"
7 16
7 80"
7 .4"
7 21"
7 72"
7 7.
7 }"
7 83"
7 38"/>
8 33
8 99"
9 _
9 29
9 61"
9 8.9
: header>
< box
< use>
< canvas>
< ti-
< cloud
< buttom
< cxl-accordion
< ptl:if
> </span>
A D
B h
B ar
C E
C o
C an
D "
G O
I tc
L og
P R
S ci
T r
Y 2
_ search
_ experience
_ core"
a 5
a rc
b 3
c >
c count
c tivi
d m_
e parator
e ot
f d
g r
g ea
g nav_
i pt
i wp-
l ua
n y
n opener
n l-
p f
r a-
r ms">
s ymbol
t rea
u .
u s>
w rap>
w hy
x /bo
y hte
z 48L2
{ 7
{ D
ss _experience
</ ti-
</ e>
</ cloud
</ buttom
</ cxl-accordion
</ ptl:if
</ divider>
di f
di gita
<div id
pa d
<a d-wx-
</a d-wx-
</a> </h3>
pan _Dropout
ta i
on line-
da rk
ty /ajax
te red
sc ho
al umni
al Tea
de cor
de bounce
<s lick
tr us
class_15 "/>
target -id-
con tr
ig n-
</p> </div><div
na W9u
option s"
content s
content ">
<p ulse
no index"
ng -pl
bo s-
item .
fi nd
rop down
ou s
in ">
text/ rms">
fig ure
va s
si ty
aria-hidden ='"false"
vi ng
link s_
size flag
time type
oa ctivi
image -accreditation
</p icture
</p ulse
proper ties
form novalidate
id_4 80"
id_4 60"
menu Item"
-sc he
ne ss
em ber
id_5 80"
id_5 3"/>
id_5 75"
id_5 78"
id_5 55"
ca 8
<h3> <a
app le
class_47 "/>
id_6 16"
id_6 12"
id_6 18"
id_6 14"
id_6 60"
id_6 64"
id_6 98"
id_6 39"
id_6 46"
id_6 68"
id_6 92"
id_6 66"
id_6 63"
id_6 91"
id_6 55">
<g pt-sizeset
class_53 9"/>
footer nav_
dy -w
class_69 3"
st or
id_7 20">
id_7 19"
id_7 18">
id_7 80">
id_7 96">
id_7 55">
body "
date -count
class_67 0"
class_67 7"
ex sp
ex pi
class_66 "/>
10 60"
10 78"
10 83"/>
class_76 0">
class_72 1">
32 3"
id_8 20">
id_8 32">
id_8 18">
id_8 30">
id_8 17">
id_8 11">
id_8 19">
id_8 35">
id_8 27">
id_8 79"
id_8 34">
id_8 39">
id_8 76">
class_80 4
class_80 3"
class_78 7">
class_78 0"
class_75 5">
class_75 8">
class_84 1
class_84 6
class_89 0
class_79 9
class_79 2">
class_79 5"
class_79 9"
<picture -component
class_77 6">
class_77 7">
class_77 1"
class_81 7">
class_74 6">
class_95 7
class_82 3
class_82 8
class_83 7
class_118 6
class_16"> </span><span
class_138 "/>
orig n
cross orign
12 68"
12 47"/>
side -
js -link-
off canva
table values
defer red">
radi oactivi
15 7">
15 28"/>
char t-
popup rel
class_152 "/>
20 5">
20 7">
18 66"
18 198"
100 vw
16 1520
class_168"> <ul
s- content"
s- submenu"
out view-
class_178"> <h3><a
mo >
13 9">
13 4">
13 7.
13 5px"/>
class_182"> </div><ul
ted state
19 7">
class_209 "/>
be _image_
36 9"/>
36 8px">
og :
-b lue
key board
font/ eot
manifest "
sta tion
sta nd
age -
tri be_image_
m- type
nghost-sc 15
nghost-sc 58
nghost-sc 11
ed ucation
29 8">
29 3"/>
uni tedstate
lot tie
<fe func
</fe func
-c or
pro ject-
ngcontent-sc17 9
ng-reflect- ng-style
ng-reflect- image-accreditation
_c mn-
ser ">
page ">
page s-
99 2">
sli ck
-item -4-
ngcontent-sc8 8
0. 6
0. 54
0. 18198"
35 1"
35 3"
row header"
1. 69"
mentary ">
ngcontent-sc9 1
press ion
00 0
39 0
su dy-w
57 9"/>
scrol lable
50 9"
40 3"
40 1"/>
ngcontent-c 0
49 2"
46 4"/>
46 px">
-w indow
yg-server-content-sc 116
yg-server-content-sc 115
ad sen
45 4"/>
45 3"/>
mobile- hide
ngcontent-sc12 8
44 0">
56 3"/>
65 0">
65 6"
65 9"
74 .
74 4"
block s-block
js- page-
js- pager
_title "
176 4"/>
site- nav
-s mart
product- labelledby
<amp- iframe
</amp- iframe>
90 2"
dropdown >
invali d-error-message
uk- slideshow
accordion -item-
70 1"
id_46 6"
id_46 8"
55 8"
55 %">
3. 5"
-ad s
-ad vance
id_49 4"
id_49 1"
next -
mega menu
default "
tt l
69 9"
-4 b
en vi
68 8"/>
6. 5"
submenu- 9"
ngcontent-serverapp-c 4
sponso rimage
navbar Responsive"
id_59 1"
id_59 7"
id_60 2"
id_60 9"
13. 1"
site Navigation
id_56 3"
id_56 6"
media- id
id_57 1"
main- navigation"
</g pt-sizeset
widget -top-
id_55 8"
id_55 7"
social- network
5. 666"
login -url
id_70 9">
-content- set
mobile _
42 1"/>
42 3"/>
42 /"
Menu ">
video/webm ">
21 %">
-card- offer-
pri sm
4. 222"
2_ 2"
2_ ul_DropoutMenu2"
nghost-c 15
9. 599"
97 %">
market -
current- video
small h
small w
domi nant
peri od
gra nd
5- level-2-item-
1_ ul_DropoutMenu2"
88 2"/>
modal- menu"
standa lone
<client -animated-
<client -pink-arrow
</client -animated-
</client -pink-arrow
submenu_ unitedstate
-0 6
id_80 1">
</phoenix-accordion >
id_66 9"
cl- module
cl- via
cl- module-id
<ws- columns>
</ws- columns>
id_76 5">
id_76 8">
96 1"/>
id_77 4">
id_77 5">
primary- nav-
hero -
disc ussion
id_78 9">
id_78 4">
id_78 8">
id_78 1">
11. 3"
pi cks
07 75
<pre> <code
pl us-
pay wall-
schema. ipt
schema. prism
rep_Navigation 2_ctl00_
sugge st
burgermenu 4_
18. 81"
id_79 3">
switch -
level-1 -item-4-
game s
whi le
ome r
</ea-local-nav-shelf-sub-nav-section >
110 9">
ng-attr -
nitro-lazy- bg
LW l0
with -
mqn-autotrack- action
mqn-autotrack- outview-
Colla psi
_re write
sm- 161520
sy s/
dG Itc
<dxp- banner
level-1-item- 5-level-2-item-
normal h
normal w
89 1"/>
<accordion content>
<accordion -group>
</accordion content>
</accordion -group>
desktop- right
network ing
nav-menu-study__applying __child-menu"
graphi que
class_181"></i> </p><p><a
list-load -
-top- offset
<i></i> <span></span>
rel_22 2">
WA _cmn-
heading- level
ctl00_ucc_HeaderV2_ctl00_rep_Navigation_ctl0 3_
-overlay >
nghost-sc14 5
btn- url
mod_ save
ue- leader
viewport -size
70. 182"
-wi th-
202103 19
ZW 0tbG
ura lize
39. 71"
348 px"/>
348 .3"
schema.DC TERMS"/>
288px, 368px">
static -
document .
rep_Navigation2_ctl0 2_ul_DropoutMenu2"
rep_Navigation2_ctl0 1_ul_DropoutMenu2"
content-item -title
1.875 em"
1.875 em">
mobilemenu-/ about
Ho roscope
ng-key up
ng-key down
Di rection
rel='" noopener"
view_ blocks-block
views_slideshow_cycle_div_homepage_ view_blocks-block
<mq -programmatic
</mq -programmatic
45454545 4545
reposition- element
reposition- element-
predict ">
ulture "
add- bootstrap
profile- image
class_172"><dt></dt><dd></dd></dl></a></li></ul> </div></div></textarea>
nghost-serverapp-c 12
4D 401E
mpa ign
gallery- tribe_image_
_drop _
ky /
previou s-
stude nts
v-b- toggle
signup method
btn -content
dont _rewrite
kur -news
-article- tile
<client-info -block
</client-info -block>
uib -typeahead
88. 209"
top_nav _drop_
marke ting-
header-navigation- desktop-right
202 _copy
16.0 77"
tegna- variant
selected_ index
adver t">
Submit "
nba- leag
mV naW9u
<domo -button
</domo -button>
unda ry">
</progress >
flex- layout
jet-tabs-content- 22
rever sed
class_195"></div><p></p> </div></a></li><li><a
7.7 28"
landscape ">
floa ting
target: _blank
four -article
avc1. 4D401E
teleport -location
id-sa-header- section-
Lmh0bWwiIG RhdGEt
Par sys/
dth 1
organization >
natural sizeflag
20210318 PD
283.46 4px"
slide_397460 202_copy
activity- stream-
Cust omer
_default _
supported -sizes
refe rence
cache- ttl
Promotion alTea
gnavi- don
/update /214
98.9 22"
<cloud -image
<cxl-accordion -card
dm_ dont_rewrite
iwp- gallery-tribe_image_
lua z48L2
x/bo undary">
ss_experience _core"
</cloud -image>
</buttom >
</cxl-accordion -card>
</ptl:if >
</a></h3> <p><a
pan_Dropout Menu"
ty/ajax /update/214
<pulse -loader
ng-pl uralize
bos- media-id
</picture -component>
</pulse -loader>
radioactivi ty/ajax/update/214
100vw ">
font/eot "/>
0.54 375"
sudy-w p-
js-pager ">
</gpt-sizeset >
-card-offer- home>
dominant -baseline
<client-animated- line
<client-pink-arrow -link
</client-animated- line>
</client-pink-arrow -link>
submenu_unitedstate s"
schema.ipt c"/>
schema.prism "/>
rep_Navigation2_ctl00_ ul_DropoutMenu2"
level-1-item-4- level-2-item-
LWl0 ZW0tbG
sm-161520 0775
dGItc mVnaW9u
WA_cmn- gnavi-don
Horoscope Widget"
views_slideshow_cycle_div_homepage_view_blocks-block _1_
<mq-programmatic -ad
</mq-programmatic -ad>
add-bootstrap -classes
nba-leag ue-leader
Lmh0bWwiIGRhdGEt dGItcmVnaW9u
PromotionalTea ser">
dm_dont_rewrite _url
iwp-gallery-tribe_image_ plus-
luaz48L2 E+">
LWl0ZW0tbG luaz48L2E+">
Lmh0bWwiIGRhdGEtdGItcmVnaW9u LWl0ZW0tbGluaz48L2E+">
# load
- defer
- collapse-
- header>
- view>
- enabled
- outer
. mpeg
0 4
0 d
0 4"
1 18
1 13.
2 A
3 E
3 15
3 36
4 20px"
5 d
5 60
5 26"
5 44"
5 31"
6 de
6 25
6 29
6 13"
6 45
7 px"/>
7 13"
7 20">
7 c-
7 34"
7 38"
7 80">
7 86"
7 -8
7 2px"
8 F
8 b
8 60
8 10"
8 75"
8 2.
8 52"/>
9 35
9 70"
9 75
9 3.
9 -4
9 63"
: size
< e>
< error>
> <i
> <iframe
> </div><div
D 5
F -4
F }"
I m
K o
L "/>
O ur
O bject
P I
P C9
S 1
S O
S c
T wo
[ object
_ slider
a na
b li
b et
b p-
b 25
b um
c 66
c er>
e sc
e 46
f 5a
g d
g ss
g :plusone
h m
h ar
h g-
h one
k ork
l s
m n
n op
n ding
n yt
o "
o od
p j
q y
s op
s uppor
s .com/
s mart
t si
u ri
u 47
w hat
x n
z b
{ 9
</ data
</ tr
</ time
</ error>
re ge
re view-
<a daptive-blog
</a daptive-blog
ta fter
on _
on page
on scroll
ti tel
ti es"
ri es
<i hk-image-accreditation
class_7 "/>
src -defer
th i
class_10 32
title -link
<s ly
tr y
con o
ari es
ue "
na ps
he alth
content -item>
</script> </textarea>
el p-
class_24 0"/>
bo tag
er s"
xt >
tic s"
fi ref
class_25 6"/>
in di
in d>
</i mage
</i hk-image-accreditation
use -
tab 2"
tab 1"
va cy
va ult
id_2 2"/>
ava i
vi s
vi rus
view por
id_3 "/>
nu p>
id_4 85"
id_4 65"
or l
menu 1"
-sc ore
id_5 20"
id_5 70"
id_5 17"
id_5 26"
id_5 36"
id_5 34"
id_5 96"
id_5 72"
id_5 29"
id_6 00"
id_6 40"
id_6 50"
id_6 30"
id_6 13"
id_6 70"
id_6 36"
id_6 65"
id_6 54"
id_6 96"
id_6 31"
id_6 38"
id_6 74"
id_6 84"
id_6 93"
id_6 95"
id_6 71"
id_6 83"
id_6 79"
id_6 99"
id_6 94"
id_6 97"
id_6 62"
id_6 82"
id_6 57"
</d l-b
class_69 6">
st udio
class_63 5"
id_7 "/>
id_7 15"
id_7 34"
id_7 28">
id_7 29"
id_7 37"
id_7 90">
id_7 56">
class_65 9"
mi ss
class_67 4"
img map
10 50"/>
class_61 7"
class_90 4
class_90 7
class_90 9
class_90 7">
class_76 4">
class_76 0"
class_72 0">
class_72 9"
class_73 9">
class_71 4"
32 4">
32 0px"
class_70 2"
class_68 9"
id_8 24">
id_8 14">
id_8 10">
id_8 15">
id_8 12">
id_8 28">
id_8 00">
id_8 26">
id_8 33">
id_8 36">
id_8 29">
id_8 38">
id_8 44">
id_8 45">
id_8 55">
id_8 47">
class_75 4">
class_75 0">
class_75 7">
class_84 2
class_84 9"
class_89 5
class_79 0">
class_79 7">
class_97 0
class_40"> </span><span
class_81 4">
class_81 8"
class_74 3">
class_92 4">
class_86 3">
class_85 1
class_83 9">
color scheme
class_115 5
class_130 6">
class_124 "/>
ar y-
orig width
orig height
po si
od G1
12 6
12 50"
ho ve
x- if
lo ve
class_171 "/>
20 6
20 48"
20 .0
20 %"/>
-a cademics"
18 1">
16 0px"/>
17 6">
17 5">
17 45"/>
17 mm"
14 .9
class_182 "/>
s- slider>
search box"
ac c
</iframe> </textarea>
sk y
sk in
v- pre
v- lazy-
25 8">
be s
be fore
menu- search__
html for
24 3"/>
spa cer>
36 9"
dd 9
-b ind
22 1">
class_249 "/>
sta tis
ngcontent-sc4 0
application/rss +xml">
nghost-sc 47
quo te_
30 00"
<dl -bind
fa ke
-c f
23 7">
23 .0
ngcontent-sc17 228
ng-reflect- query-
ser tafter
27 7">
per formance
99 6"
lazy- img
enable link
banner -container
33 8
<f lyout
</f lyout
mode l-
-po d>
0. 5625em"
35 9">
38 1"
38 7"
38 px">
__ 0"
48 -
48 0
48 7"/>
collapse F
collapse S
v-on: leave
context >
scro ll-
34 0px"/>
34 .5"
57 .
57 6">
attribute s
com mon
49 6"/>
46 0">
46 2"/>
so "
UR L"/>
47 4"
47 6"
47 0px"/>
ad s
45 4"
66 98"
44 3"/>
v-bind: data-
v-bind: transition-
addthis: description
65 5"
modal "
modal -backdrop
-in valid-
-re direct
-re view>
-when- invalid
<client- list-item
</client- list-item
ngcontent-sc14 6
validation -for
opin ion
64 1"
background -type
background _color
wi id
<amp- lightbox
</amp- lightbox>
ha m
58 px"
inline- message
-position -tracking
ngcontent-sc18 4
55 1"
id_47 8"
id_50 8"
id_49 3"
id_49 8"
id_49 9"
stat us-
stat us>
id_48 2"
id_48 4"
-title -tracking
position ing
ng-reflect -ad-
69 6
59 9">
59 0">
en /
ngcontent-sc13 6
id_58 2"
id_58 8"
id_58 7"
id_58 9"
ngcontent-serverapp-c 10
id_59 2"
id_59 9"
id_60 1"
id_60 3"
product s
oper -
o- header-
copy >
-block -picker
-block -picker>
media- huge
id_57 6"
rdf s:
importa nt
widget id
id_54 9"
search- menu"
logo "
id_70 1"
id_70 3"
id_70 6"
id_70 7"
nghost-sc8 6
spm- c
-auto complete>
<data list
class_466"> <strong><a
67 px"
footer- list-
visible -when-invalid
<rs- row
</rs- row>
cx- replace
responsive type
top- menu-search__
boar d>
boar d-
nav-menu- research__child-menu"
5- 95
modal- keyboard
<client -advertisement
</client -advertisement
id_68 9"
ot ball">
14. 7"
history -and-
image- tooltip
mobile-nav-left_menu-child- 2"
mobile-nav-left_menu-child- 4"
-pop ular
id_77 6">
id_77 8">
id_78 2">
ng-mouse down
hel p
toggle state-label
Sub Menu
appe nd
1616 44
rel_ 211">
insta nce
170 6"/>
anima tion-
nghost-sc5 1
bol detect
id_79 5">
<cfc -image
</cfc -image>
game s-
Fo otball">
aria hidden
sl -process
ee p
s/ today">
ad- size
service -name
lh >
dropdown- menu
dG U
gener al-
Stylesheet "/>
20. 67"
-scrol ling-
nav-menu-about__ history-and-
Pro duct
bea u
ev- modal
teaser-list-item -tracking
teaser-list-item -url-tracking
teaser-list-item -position-tracking
teaser-list-item -title-tracking
zoom dsearch
nghost-sc13 9
btn- type
nav-menu-study__applying__ undergraduate__child-menu"
-placeholder ">
shi p
secondary >
<cfc- nav-item
</cfc- nav-item>
campus- experience
<iti-shared- dialog
<hy- main-content-wrapper>
</hy- main-content-wrapper>
</iti-shared- dialog>
defini tion
collap sed
ae ri
divid er
marque e>
widgetBlock 8
widgetBlock 18
Art ">
translation s-
shop ping-
></a></strong> <a
snipp et>
Al so"
Sugge st
force -
subsection "
<tabs-container -tabpanel
<tabs-container -tablist-tab
ten try
hou se
</tabs-container -tabpanel
</tabs-container -tablist-tab
navigation__country-selector- language-
noindex ">
tema x
mission s"
latest- version
basic- nav-section-
><em></em> </a></h3><p><a
sI i
univer se>
ntes quote_
<chr- icon
></canvas> </a></li><li><a
iter ation
</chr- icon>
initial state-label
autocomple temax
answ er
ko ul
see Also"
informa tion
logged- in
gs region
gene ric
search-bar "
application/vnd. apple
menu-item-13 68
flm nt-
dropdown-menu-dc -pro-
d-mw-position -
cp mid
opt- in">
toke n
nova tion"
nav-menu-study__curtin-life__ campus-experience
benefi ts"
nav-menu-about__campus-location s__child-menu"
gnav_ links_
nopener "
contr ast
og: image
ng-reflect-image-accreditation -text
0.6 5625em"
envi ron
discussion "
20210319 PD
kur-news feed
dth1 s_
#load me
Object ]">
Two "
gss naps
g:plusone :size
kork ea
nop ush
sop ho
</data list>
<adaptive-blog -card
</adaptive-blog -card>
</ihk-image-accreditation >
viewpor tentry
</dl-b ind>
imgmap width
odG1 sIi
v-lazy- container
ng-reflect-query- params
</flyout >
v-bind:transition- props
<client-list-item -review
</client-list-item -review>
ng-reflect-ad- definition
rdfs: seeAlso"
cx-replace -outer
top-menu-search__ form"
</client-advertisement >
boldetect viewportentry
sl-process ed
nav-menu-about__history-and- fact
</tabs-container-tabpanel >
</tabs-container-tablist-tab >
application/vnd.apple .mpeg
gnav_links_ content_
gssnaps hot
- e
- 48
- tab"
- modal
- frag
- list>
- service
- detail
- live-
- do-
. p
/ en/
0 i
1 12">
2 em
2 16">
2 250"
3 19">
3 rem"
4 E
4 24
4 28"/>
4 23.
4 38"/>
5 29
5 1px"
5 }"
5 000">
5 odG1sIi
6 /
6 A
6 e
6 15"
6 12"
6 32"
6 27"
6 30px"/>
7 60"
7 99
8 32"/>
8 57
8 18"/>
8 29"
8 5.
8 59"
8 2-
8 98"/>
8 1a
9 88"
9 45"/>
9 37"/>
9 Pos
< card
< scroll
< tab>
< review
< card-
< foundation-component-rte>
< description>
< citi
< fragment
< none>
< mdb-
< k-ql-droplist
> </iframe></textarea>
B -
B Item
C -4
C -B
E l"
F z
H G
I N
L O
N vb
P S
P g
P op
P -A
Q tZ
R T
S pa
T 4
T he
U LT
W 5
W P-A
X Bh
Z G
\ "
\ t
_ column
_ news
_ primary
a rgu
b 0
c 6
c lo
c mod
d Sub
d C1
e 0
e 4
e rge
f -id
f b-
f db
g ">
g ni
g over
g -ad-
i id
j b
j v
j g-
j eep
k ci
l d-
l LW
n l
n ni
o o
o la
o de
p &gt;
p ower
r >
r ide
r picks
s f
s ou
s wiper
s wipe
s mallest
u "
u na
v o-
v -accordion
x ar
x -po
x -placeholder">
z -s
z audio
{ 0
~ 20
la ss
la tin-
</ line
</ main-
</ modal>
</ scroll
</ card-
</ citi
</ fragment
</ none>
</ mdb-
re st
re m">
href >
<a daptive-story
</a daptive-story
</a pp>
ta bo
on pref
on -close
on f-id
ti tem
da ble-
data href
ty e
te rc
te n-
al bum
me d
me ntation
class_8 32
th ing
class_10 0"/>
style _sub
pe rc
de part
<s maller>
<s ystem-region
type -section
con ference
ut o
class_18 "/>
class_18 0"/>
</s maller>
</s ystem-region
na r
na il
he ar
content /
ro use
fo to
tic ation
fi nder
ou c
in dicator
text/ x-po
<svg -icon
tab content-
<b tn
<b y-e
<b re-cms-edit
ea se
ea sing
class_30 4"/>
index ">
ge n
ge nd
ge tele
form -type
ch ool
as p
nav type
ow n
id_4 70"
id_4 49
id_4 66
id_4 76
id_4 75
or din
menu 2"
icon type
icon -id
ne y
id_5 "/>
id_5 16"
id_5 00"
id_5 30"
id_5 48"
id_5 90"
id_5 49
id_5 85"
id_5 66
id_5 45"
id_5 76
id_5 75
id_5 31"
id_5 38"
id_5 58
id_5 55
id_5 54
id_5 69
id_5 68"
id_5 79
ra h
ca t
ca rouse
app bar
ci erge
class_46 9"/>
class_49 "/>
id_6 24"
id_6 32"
id_6 10"
id_6 48"
id_6 33"
id_6 27"
id_6 21"
id_6 34"
id_6 42"
id_6 29"
id_6 77"
id_6 88"
id_6 52"
id_6 41"
id_6 49"
id_6 51"
id_6 67"
id_6 58"
id_6 87"
id_6 81"
id_6 59"
id_6 47"
<d vids-
</d vids-
footer -link
ble ed
class_63 0"
id_7 16"
id_7 20"
id_7 32"
id_7 18"
id_7 14"
id_7 30"
id_7 13"
id_7 11"
id_7 25"
id_7 26"
id_7 33"
id_7 27"
id_7 10">
id_7 45"
id_7 49"
id_7 92">
class_65 6"
of -image
mp 3"/>
<time r-
ex tern
ex pression
class_66 7"
10 6">
10 px"/>
co verimageurl
co gni
class_90 2
class_76 8">
class_76 2"
class_76 7"
class_72 3">
class_72 7">
class_71 7"
expan dable-
class_68 1"
id_8 13">
id_8 50">
id_8 23">
id_8 48">
id_8 42">
id_8 41">
id_8 61">
class_80 8"
class_80 9"
class_78 9">
class_78 5"
class_75 7"
</b y-e
</b re-cms-edit
</b tn>
class_84 0
class_84 5
class_84 2">
by id
class_89 4">
class_89 8"
class_99 1
class_79 3">
class_79 1">
class_97 8
presentation al">
class_77 4">
class_81 9
class_81 0"
class_87"> </span></span>
class_102 5
class_102 9
class_98 6
class_74 4">
class_74 5">
class_74 8">
class_85"> </span></span><span
class_95 4
class_88 2
class_88 8"
class_92 7">
class_82 1
class_85 2
class_83 9
class_83 4">
class_83 3">
application/ p
class_104 0
top bar
xmlns: f
xmlns: ouc
class_10"> </ul>
class_127 3
ar vo-
sub ject
class_144 4
12 40"
12 55"
12 66"
side panel"
nts lide
comp u
js v
defer js">
15 6">
15 20"/>
lo c
cy 1
class_162 "/>
class_169 "/>
ele c
18 5">
18 8">
18 00"
18 17"/>
100 4"
17 7">
class_192 "/>
14 1">
14 7">
14 35"/>
class_179 "/>
s- url
s- slider
ve -
ve ri
comple tions
13 1">
13 12"/>
13 66"/>
an "
class_206 3
class_205 9
class_213 "/>
ell ow
category -06
v- layout
v- lazy-image
v- resize
v- swiper
load onscroll
25 6">
25 00"
25 0px"/>
menu- sub-
24 -ad-
video -type
36 5">
36 7"/>
cou pon
rea d-
-b g
-b rowser
-b reak>
icon- card
60 7
60 1"
60 8"/>
sti tial
22 8-
down -arrow
font/ arvo-
event s-
<no tification
nghost-sc 48
nghost-sc 50
nghost-sc 62
nghost-sc 68
nghost-sc 67
30 6">
30 4">
30 9.
29 4">
29 2">
fa de
28 5714
ackgrou nd>
-c opy
module -
<line -break
23 4">
pro ject
ng-reflect- page
ng-reflect- section
ng-reflect- header-height
page -scroll-
event- value
nav- topic
99 5"
99 7"/>
ment __child-menu"
ment byid
-image -card
n- the
enable background
banner id
banner -type
banner -size
<ea- local-nav-shelf-sub
<ea- spacer
</ea- local-nav-shelf-sub
</ea- spacer>
section -name
link- class
embed -id
38 3"/>
inline "
component -smart
__ container"
1. 7
1. 2em"
1. 2em
new RT
v-on: input
te- section-id
39 2
39 7"
39 1"/>
39 px">
34 2"/>
34 17mm"
hot "
lid ">
57 9"
text/x- math
file name
50 3"
50 6"/>
50 9"/>
is- logged-in
ngcontent-sc1 14
pass through
ngcontent-c 20
ngcontent-c 47
ngcontent-c 53
ngcontent-c 43
49 8"
46 6"
ms .title
so lid">
ad brid
45 a
45 5">
66 .
66 7"/>
44 .
44 2"
v-bind: aria-expanded
remo te-
65 7"
74 px">
80 %"/>
alert dialog"
<app- client-
<app- section-renderer
</app- client-
</app- section-renderer
one _column
75 4"
-link- text
-nav- section-
1- 0"
ngcontent-sc10 1
</no tification
<amp- list
<amp- bind-macro
</amp- list>
</amp- bind-macro
<image -pod
poster url
box- component>
90 1"
90 7"
uk- slider
58 5"/>
70 7"/>
3. 88
page- url
post Footer
54 3"
id_50 4"
id_50 7"
-ad s>
-ad ditional-
62 8"/>
analytics- link
id_49 2"
id_49 5"
id_49 7"
enter tain
default -0-
-o ther-
-track er
8. 8
8. 3417mm"
es pot
59 2"/>
59 8"/>
en tication
-f ull-
6. 3"
id_58 1"
id_58 3"
navbar -collapse"
id_59 5"
product s/
light box"
13. 614"
id_56 1"
.0 1"
rela xar
ngcontent-sc15 9
id_57 3"
re- every
id_54 1"
social- key
social- media-
-pri o
story id
moz -do-
and _
overlay -position
logo -
logo -image
dele gate
-card s-
webpartid 2
ll- element">
login item">
<rt -tabs-
</rt -tabs-
id_70 2"
id_70 4"
router- view>
sig nin
respon se
-8 j
-tab s
23. 292"
panel- 3"
top- list
personali zation
non- necessary"
modal- size
nitro- exclude
id_67 2">
-dropdown "
collapse- 2"
collapse- 3"
-count ries"
14. 6"
14. 9"
id_80 6">
id_80 8">
id_80 7">
id_80 2">
id_80 4"
95 6">
cl- freeform
image- overlay
mobile-nav-left_menu-child- 7"
yg-server-content-sc14 3
c: if
modifi ed
all _default_
LinkType. DE
custo mer-
disc ">
id_78 5">
170 7"
application/x- mpeg
cycle ">
audio/ mp3"/>
id_79 4">
></a></li></ul> </div></textarea>
mega__markets__ 3
ject content>
</svg -icon>
teaser- tile
<n -primary>
ee n-the
</n -primary>
timesta mp
0000 00
default- 3-
thumb nail
service s"
-search box"
toggle- text
st_ via
lan ding
31. 8"
31. 129"
sm- -0
</header- utility-top-
Com munity
tp l">
request id>
cre dit
<header- utility-top-
</dxp- banner>
child -links
-widget _
uib- dropdown-menu
</accordion -container
pop ular-
New s
whe re>
stid >
extended -nav-section-
Mo da
title- slot
<m- tooltip
sur ve
sur round
</m- tooltip>
130 78
rel_22 5">
<vaadin- context-
</vaadin- context-
prev "
sport s-
heading- 500"
ctl00_ucc_HeaderV2_ctl00_rep_Navigation_ctl0 5_
thing- 24
56. 209"
<dfl- top-list
</dfl- top-list>
gallery -scrol
-section "
position- of-image
gram mar
fit-margin- top
fit-margin- left
fit-margin- right
fit-margin- bottom
0_ middle
scription -widget_
-primary __
936 8
ajax news
top-nav 0_middle
nghost-sc18 4
how -
x-webkit- grammar
kee p
g: onpref
widgetBlock 9Pos
jax- config">
compa re
bcn- title
bcn- url
bcn- summary
menu-item-child- 5
global-header__item-models- cta
booking- component>
82 px"/>
Ho me"
Sta te"
tbG Vz
pagi nation-
lightbox [
<mgm -brand
</mgm -brand
bcn -images
pfe -content-set
<app -popular-game
add- circle
bol-bloc- universe>
yc go-
ngb dropdown
nghost-sc19 1
<cx-amplience -links
</cx-amplience -links>
openid. delegate
nofollow, noopener"
copyright "/>
112. 6"
83. 628"
FA ULT
not- send
subnav- drawer-
en- us
el. text
el. defer
dl-quote -additional-
dl-quote -prio
99999999 9999
trg. innerhtml
trg. append
-popular-game -card>
nav_sidebar_list_0_ 2_
dataci_ toolbar
dataci_ espot
dl-quote-img 2
Top "
props. active
curre ntslide
vor bis
</app -popular-game-card>
ms-attr -href
google-dfp- ad>
dmle_ extension
f-swipe-content- page>
seo _section_
clickEvent:itbanenBlok "
/size_ 300
68. 001"
</price >
-cancel led
-acce ssi
<product- slider
</product- slider>
i18 n
testi mon
devel op
nav-accordi an-
js-state- name
fron ter
esta do
show-content -sm
screens hot"
scrolla ctive
footnote -id
Social Menu"
bstract >
Bw EF
iel d
sizes-at- 0
<ea-social -link
</ea-social -link>
gome -src
enterpri se
nav-menu-study__applying__pathway s__child-menu"
universal passthrough
cnn -carousel
Sci ence
target-id- 58
station s_
pages- css
uk-slideshow -item
widget-top- ten-
document. getele
454545454545 47"
slide_397460202_copy _
Ko bo
hg- booking-component>
nyt ta
</time r-
rege xp
firef o
</image -pod>
statis tic
widgetBlock8 Pos1Contents
widgetBlock18 Pos1Contents
autocompletemax completions
kur-newsfeed __container"
korkea koul
application/vnd.apple.mpeg url"/>
<mdb- icon
Nvb XBh
WP-A PI
_primary >
argu ments
dSub Nav"
g-ad- class
jg- chrome-
kci te-section-id
z-s ave
</line -break>
</mdb- icon>
<adaptive-story -card
</adaptive-story -card>
tabo ola
album ">
style_sub scription-widget_
</system-region >
text/x-po ll-element">
<by-e -icon
<bre-cms-edit -button
ordin al
appbar -searchbox"
extern ">
</by-e -icon>
</bre-cms-edit -button>
category-06 13078
v-swiper -product
font/arvo- latin-
page-scroll- down-arrow
nav-topic _
<ea-local-nav-shelf-sub -nav
</ea-local-nav-shelf-sub -nav>
1.2em "/>
newRT BItem
text/x-math jax-config">
adbrid g-ad-class
</app-section-renderer >
one_column ">
</amp-bind-macro >
postFooter SocialMenu"
re-every where>
moz-do- not-send
personalization -placement
cl-freeform -name
LinkType.DE FAULT
application/x-mpeg URL"/>
een-the re-everywhere>
</header-utility-top- menu-item>
<header-utility-top- menu-item
g:onpref modified
widgetBlock9Pos 4
pfe-content-set --
<app-popular-game -card
openid.delegate "/>
dl-quote-additional- duration
trg.append child
widget-top-ten- desktop"
document.getele mentbyid
LinkType.DEFAULT ">
# pane-
' ">
- 7
- pre
- top
- footer>
- ar
- text"
- logo
- category"
- media>
- video-
. use
/ auto
/ mas
/ content/
/ products/
0 6"
0 32
0 26
1 150"/>
1 14">
1 17">
1 198"/>
1 152"
2 300"/>
2 36
2 100"/>
2 lw
2 -4
2 14.
2 aa
3 P
3 f
3 17"/>
3 -8
4 d
4 35
4 24"/>
4 40
5 c
5 px">
5 30"
5 48
5 15"/>
5 40
5 58
5 21"/>
6 24"
6 px"/>
6 10"
6 1.
6 20">
6 39
6 19"
6 39"
6 -8
6 11"/>
6 jsv
7 24"
7 8.
7 22"/>
7 88"
7 35">
7 qq
8 33"
8 25"/>
8 95"
8 4.
8 f8
9 a
9 ri
9 24"
9 ed
9 75"/>
9 5.
9 62"
< v
< rc
< ch
< mobile-
< multi
< locale-
< focus-
< newsletter-
< newsletter
< core-
< focus-point
< vf-tray-
A ">
A lt
B a
D AF
D ak
E A
G ov
H M
H V
H e
H ome
J o
L ear
L 3Rlc3
L ang
O ption
P o
P age
P 3P
R ead
S ite
S chool
T M
T ool
U tc
V y
W Y
Z m
_ display
_ widget
a ma
a mi
a ted
a tive
a Dak
a WY
b re
b s-
c 9
d od
d 06
e rc
e ne
e ditable
e 31
f ri
f light
g v
g loss
h d
h Pg
i i
i class
j d
j mm
k k
k t
k er-
k mv
l u
m m-
m 607
o c
o cation
p g
r "
s day
s -and-
s witcher
s olution-
t ty
t tle
t pl
u ss
v 2
v 1"/>
v lj
w ho
w all
x z
z index-
{ 4
</ v
</ rc
</ ch
</ top
</ nav-
</ mobile-
</ multi
</ footer-
</ locale-
</ user-
</ review
</ focus-
</ newsletter-
</ newsletter
</ core-
</ focus-point
</ vf-tray-
</ router-view>
re s-
re posi
re cogni
li h
li ge
li ce
li br
<a lert
</a -
</a> </div><div
ta l
le ">
on ing
on -toggle
on unload
ti nput
</span> <a
sc tag
al teaser
me -name
script -src
<i n
<i ti-
src :
tion ie
<h l-
pe g"/>
</h l-
de 82-
<s to
<s witch
<s how
<s ite-
tr odu
rg uid
con versation
con tribu
ari al
ari ng
nk tionie
aria- has
</s to
</s ite-
na ck
he ig
ro kee
class_20 5"/>
no Follow
se as
se arc
meta "
bo lz
class_23 "/>
class_23 2"/>
class_23 1"/>
er "/>
class_22 "/>
class_22 5"/>
label -tracking
item s"
fi re
ou r-
in _
in ternal
in stru
in it-
text/ tooltip">
text/ cycle">
</i con
</i ti-
set >
media ">
tab s">
tab call
true '"
id_2 60
id_2 99
si x-
ter no"
link target
link -confirma
ck et
id_3 60
id_3 99
id_3 26
id_3 38
id_3 48
stroke width
</p fe-navigation-item>
<use r-
nu p-
nav name
nav Gov
id_4 60
id_4 50"
id_4 3"/>
id_4 99
id_4 26
id_4 38
id_4 48
id_4 39
id_4 57
id_4 50
id_4 56
id_4 65
id_4 74
id_4 80
id_4 54"
id_4 64
id_4 96"
id_4 90
id_4 70
menu 3"
menu -product-
menu -product
pre con
pre tty
tra y
ce le
id_5 3
id_5 15"
id_5 60
id_5 18"
id_5 14"
id_5 99
id_5 25"
id_5 26
id_5 38
id_5 48
id_5 39
id_5 57
id_5 50
id_5 35"
id_5 27"
id_5 56
id_5 65
id_5 74
id_5 80
id_5 64
id_5 56"
id_5 90
id_5 44"
id_5 70
id_5 39"
id_5 46"
id_5 68
ca ted-
loading -
app li
app fit
app le"
id_6 3
id_6 20"
id_6 15"
id_6 11"
id_6 75"
id_6 25"
id_6 26
id_6 22"
id_6 38
id_6 39
id_6 26"
id_6 45"
id_6 44"
id_6 86"
id_6 61"
<d m-
</d m-
class_69 5"
class_69 1"
st orie
class_64 6"
id_7 24"
id_7 12"
id_7 40"
id_7 17"
id_7 36"
id_7 85"
id_7 21"
id_7 56"
id_7 31"
id_7 38"
id_7 86"
id_7 46"
id_7 53"
id_7 55"
id_7 66"
id_7 41"
-p la
-p ubli
eb 98
date "/>
class_67 8"
ex tra
ex pos
10 40
10 -4
co .
class_90 1
class_90 6
class_90 8
class_76 1">
class_72 6">
class_73 2"
class_73 4"
class_71 7">
class_71 6"
32 %">
id_8 "/>
id_8 16">
id_8 22">
id_8 25">
id_8 40">
id_8 60">
id_8 64">
id_8 37">
id_8 46">
id_8 59">
id_8 63">
class_80 8
class_84 4
class_84 0">
by pass
class_79 5">
class_79 8"
class_97 5
class_97 9
class_77 5">
class_81 1
class_81 2
class_81 3
class_81 8
class_81 2"
class_81 3"
class_76"> </span><span
class_102 6
class_74 0"
class_93 2">
class_88 0"
class_88 2"
class_92 2
class_92 9
class_82 9
class_82 9">
class_103 1
class_85 4"
class_83 7"
color :
up "
apple- icon"
xmlns: d
xmlns: w
class_119 6
class_127 4
lig h
class_132"> </div></div>
class_129"> <h4><a
class_116 6
sub -nav-
sub _nav
sub scription
po dc
class_130"> <strong><a
12 2">
12 50"/>
class_148 4
class_148 6
ni ng-
ga mb
15 3">
15 16
15 c66
submit -error
lo dash
char t>
class_164 "/>
main Parsys/
che rokee
fe ssion
-a ir
-a 696
18 6">
18 9">
100 5"
100 1"
ation _id"
16 6">
16 4">
16 5">
16 7">
17 9
17 8">
17 2">
14 9">
14 5">
mouse down
class_181 0">
class_181 "/>
class_198 "/>
13 6">
13 2">
13 dd
class_207 "/>
jo type
<tr -company-
v- validate
v- latest-version
19 0.
25 7">
25 1"/>
25 0px"
24 9">
24 0.
24 7qq
desc r
dow ns
36 4">
36 px"/>
-b el
-b usiness
-b 6de
icon- menu-item
icon- menu-item-
60 0
60 2"
60 49
over ride
template -redirect
event name
left -0
nghost-sc 24
nghost-sc 66
nghost-sc 70
nghost-sc 59
nghost-sc 160
nghost-sc 156
ed ge
30 f5a
29 9">
language "
language -s
tabpanel -
28 5">
28 px"/>
28 5.
late st
sp y
23 8
pro -type
pro fession
tainer "
do jotype
27 0">
-ca le
99 7"
99 6"/>
header _nav
sli m
enable -
region >
<ea- network-
</ea- network-
33 4"/>
33 .5"
<f lash
</f lash
section s"
slide -
slide props.
cur page
37 0">
37 5">
37 0px"
right panel-
38 9"
38 -3
du i-
server -src
1. 45"
1. 77"
bu nd
r- nav
new s>
48 9"
48 px"/>
collapse Two"
v-on: mousedown
display "
57 7"
moda tion
text/x- lodash
file s/
ale s
50 8
com mit
com muni
40 2"/>
40 7"/>
40 1px"
ngcontent-c 38
46 8">
46 6"/>
46 7"/>
profile "
47 3"
tab- 1"
45 2"
45 5"/>
45 6.
45 82"
-at tribute
56 6"
56 9"
video/mp 4"
65 4"
65 -8j
ments /auto
the -
<app- footer
<app- horizontal-
<app- shared-client-
</app- footer>
</app- horizontal-
</app- shared-client-
176 2"/>
75 4"/>
-s amp
1- 3"
cc 1d
wi ki
2. 8
2. 44"
2. 98"
2. 41"
90 1"/>
accordion _
58 9">
58 132
inline- style
menu_ 12-
menu_ 65-8j
ne- click
55 .
55 8"/>
3. 57"
analytics- category
stat -block
stat us"
id_48 8"
port uni
fb 3a
ping er-
8. 2"
69 5">
69 2"
69 1"
-on -scroll
-4 e31
es terno"
59 7"
59 px"
59 6"/>
59 7"/>
en v
68 8"
68 5"/>
68 jmm
-f 4f
79 .
submenu- 11"
ngcontent-serverapp-c 2
id_59 4"
id_60 6"
id_60 8"
id_60 7"
news- events
site -id
id_56 9"
stri ct-
id_54 3"
id_54 7"
af ter
Con tainer"
roo ts
search- sta
search- box>
section- nav__
lob al
5. 3"
hide_ box
login ">
id_70 5"
nghost-sc8 4
hover -
mobile >
67 4"/>
21 /
feature d-
pri nce
<rs- zone
</rs- zone>
4. 65"
-scroll bar>
97 2"/>
97 6"/>
97 474
panel- 2"
inter section
nav-menu- news-events
117 .
gog- menu-
88 7"/>
88 9"/>
ondra gend
user onpage
_content s"
desig ner
collapse- 1"
emp loy
show- modal-
ic ast
id_80 5"
78 6"/>
j- mm-
channel type
95 %"/>
ÃÂ¢ÃÃ ">
image- display"
mobile-nav-left_menu-child- 3"
mobile-nav-left_menu-child- 6"
yg-server-content-sc14 0
param -project
</ps- google-dfp-ad>
109 px"
draw er>
all y-
alignment -baseline
<mat- icon
</mat- icon>
primary- nav"
id_78 6">
Sub Nav
Ex plore
close "
more -button
application/x- tg
938 37
></a></li></ul> <strong><a
06 -
on- select
stick er"/>
large Title
selector "
aria _
25. 66"
_1_ 1_
120 1"/>
hook ">
110 px"/>
<search -input
default- 2-
rota te"
guid ance
elementor-tab-content- 29
ad- type
fu nktionie
collapsi ble
-togg ler
7b 7c-
<span></span> <span></span>
editori alteaser
gif t
lan val
tray- open
car t>
notification >
more- categories>
global >
-widget >
ther s
open- on
scrim- color
scrim- opacity
sing _
initi ali
cookie -policy
x-transition: enter
menu-item-link- secondary-level-2
menu-item-link- aside-level-2
26. 875"
sport s"
nghost-sc13 7
nghost-sc14 2
contact "
expo _data
my -account
strea m>
head line
mod_ address
experience -frag
32. 26"
0c dd9
shi ps
nipp et
-block_1_ 0"
-block_1_ 1"
-info >
2f -4e31
2b 6jsv
macro _
event-tracking- expos
event-tracking- param-project
suggestion s
suggestion s>
202103 17
bk gd
F0 aWY
hp- lazy-srcset
hp- lazy-src
park- section-nav__
disclos ure>
clu sion
lear n-
rol le
compa ct
compa re-
toast -alert
mas th
50. 9
<z m-
L2 NvbXBh
</z m-
3.8 4582"
<mgm -block-picker
tg b-
</mgm -block-picker>
noreff er">
mobile-menu-item-link- secondary-level-2
mobile-menu-item-link- aside-level-2
YX Nz
auth -sche
ame ri
<ihk- teaser-tile
nghost-sc30 8
//////////////// ////////////////
Mobi le"
St ude
vue >
<home page-
</home page-
cour se
class_172"><dt></dt><dd></dd></dl></a></li></ul> <ul
112 .5"
kan nni
desk /en/
to- show
<home- story
nci al
<aha- youtube
</aha- youtube>
v-b- modal
280 9"
For sk
solution -bg
capt cha
-break point
v-on:keydown. up
popover -
curre ncy-
-vue >
-company- card>
cm F0aWY
sup press
tren ding
tren ding-
three -
width- full
wavebottom color
event-tracking-param- city
event-tracking-param- eventname
PGEgaHJlZj0iLy93d3cuMDFuZXQuY29tL3Rlc3Rz L3Rlc3
PGEgaHJlZj0iLy93d3cuMDFuZXQuY29tL3Rlc3Rz L2NvbXBh
wavetop color
-cnt "
sitepage moduleid
instagra m
episo de
94. 6px"
<textarea> <div
101. 45454545454547"
https://www. sopho
associ ation_id"
-support "
63636 3636
tut ki
vbi 1
.as px">
Article ">
Text "
hared -article-tile
burger- exp-body
_bar rah
cht funktionie
saf ari
sec ti
forg ot-
offi ce
submit- success
st-se q
Can vas
Tr ue"
scho ol
offcanva s-
grand _
Collapsi ng
nba-league-leader s
PC9 hPg
qy m607
suppor titem
s.com/ en-us
u47 fo
xn 2b6jsv
</tr -company-card>
hove rcolor
-cf 2f-4e31
performance "
5-95 38-3
81a 8f8
<scroll -button
<review -card
fdb 97474
application/p df
elec tron
309. 375"
285714 28
45a 5-9538-3
3.88 636"
relaxar _barrah
mega__markets__3 __
<mgm-brand -card
</mgm-brand -card>
category-0613078 228-
widgetBlock9Pos4 Contents
.use rguid
/mas ter"
/content/ experience-frag
2lw vlj
2aa 0cdd9
9ri u47fo
<focus-point -image
<vf-tray- trigger
Lang uage
P3P v1"/>
aDak sha
d06 -cf2f-4e31
kmv 9riu47fo
solution- descr
zindex- high
</review -card>
</focus-point -image>
</vf-tray- trigger>
reposi tory
recogni zed
oning block
de82- 45a5-9538-3
seas on
bolz oningblock
link-confirma tion">
menu-product- repository
appfit text
eb98 f"
1040 fdb97474
sub_nav _contents"
gamb ling-
15c66 59"
-a696 -f4f
13dd 15c6659"
<tr-company- card
v-latest-version :
247qq jv
-b6de 7b7c-
icon-menu-item -url-tracking
icon-menu-item- label-tracking
30f5a eb98f"
header_nav _section_
text/x-lodash -template">
ments/auto desk/en/
<app-horizontal- tile
</app-horizontal- tile>
cc1d 247qqjv
58132 d06-cf2f-4e31
menu_12- 68jmm
menu_65-8j 2lwvlj
fb3a 81a8f8
pinger- seen
nav-menu-news-events __child-menu"
useronpage .userguid
application/x-tg sticker"/>
largeTitle ">
editorialteaser secti
mod_address _
event-tracking-expos ure
bkgd color
park-section-nav__ navigation-
auth-sche me-name
kannni chtfunktionie
cmF0aWY tbGVz
PGEgaHJlZj0iLy93d3cuMDFuZXQuY29tL3Rlc3RzL3Rlc3 QtZ
PGEgaHJlZj0iLy93d3cuMDFuZXQuY29tL3Rlc3RzL2NvbXBh cmF0aWYtbGVz
https://www.sopho s.com/en-us
PC9hPg =
qym607 kmv9riu47fo
xn2b6jsv cc1d247qqjv
relaxar_barrah p_
/content/experience-frag ments/autodesk/en/
2aa0cdd9 a"
de82-45a5-9538-3 13dd15c6659"
1040fdb97474 30f5aeb98f"
-a696-f4f 2aa0cdd9a"
-b6de7b7c- de82-45a5-9538-313dd15c6659"
58132d06-cf2f-4e31 -a696-f4f2aa0cdd9a"
menu_12-68jmm xn2b6jsvcc1d247qqjv
menu_65-8j2lwvlj qym607kmv9riu47fo
fb3a81a8f8 1040fdb9747430f5aeb98f"
kannnichtfunktionie ren
https://www.sophos.com/en-us /products/
# ra
# nav-
- data-
- te
- path
- 0"
- by
- origin
- -a
- layout
- is
- 49
- list-
- box>
- header-nav-panel
- give
- ul-class
- mega-nav-section-
. transition
/ mo
0 3"
0 8"
1 D
1 110"/>
1 128"/>
1 16.
1 126"
2 12
2 16
2 15">
2 188"
2 125"/>
2 -block_
3 d
3 a-
3 17
4 20
4 27
4 22"/>
4 33"/>
4 .5"
5 B
5 16
5 11"
5 48"
5 99
5 38"
5 _1_
5 f0
6 16"/>
6 40
6 75"/>
6 77"
6 -A
6 Ly93d3cuMDFuZXQuY29tL
7 a-
7 10
7 16"
7 35"
7 2.
7 71"
7 78"/>
8 1
8 H
8 20"
8 %"
8 54"
8 56"
8 -4
8 54"/>
8 40">
8 45"/>
8 5%"
8 21"/>
9 0.
9 23"
9 38"
9 65"/>
9 fb
9 67"
9 59"
: 300"
< e
< y
< k-
< router-
< md
< episode
> </data-
A 2
A d
A -4
B 0
C "
C ou
C 1-
C redit
E 9
E -8
F B
F a
F lyout
F -A
F ellow
K en
K 8H
M i
O ver
P i
P ">
P jw
R IG
S ine
T wit
V t
Y S
Z _
[ [
] ]"
_ value
_ remove
_ helper
_ level_
a 4
a a-
a udi
a way
a games
b ri
b t-
b iden
c a-
c s-
c -id
c intent
d :
d ule
e 5
e 6
e et
f y-
g name
g ar
g ing
g uest
h g
i z
j ab
j query
k now
l 1
l _
l k
l n
m di
m cd
n 0
n ue
o a-
p z
r j
s ol
s ync
s hoe
s 1-
s xs
t ref
t b-
t mc
u da
u ns
u nd
v em
v cy
w el
w ed
w d-error-message
w ait-
w dGU
x -scroll
z 8
{ 3
</ y
</ footer
</ t>
</ go
</ k-
</ carousel>
</ episo
</ engage-
</ marquee>
li cated-
href "
<a ngucomplete-alt
</a ngucomplete-alt
</a em-
pan e"
ta tic
ta l>
le >
ti nt
te t-
al pha
me jo
et -secondary-
op ti
op y-
title color
ul k
<h tag4>
<h x:include
pe d
pe nd
alt xz
</h ead
</h tag4>
</h x:include
</h 7>
<s m
type ='"
rel -count
con su
a- ra
a- ico
a- rate
ari ca
ut ure
</s m>
</s how-
content feed
width ='"1024"
<p lay
<p hoenix
<p oster
no -s
se ">
se rt
meta _
height ='
height ='"1024"
<link />
val -
tic a
fi ca
fi ers
rop -te
</i> <p
ml -accessi
ma y
ma pa
tab focus
id_2 32
ea ger
class_30 5"/>
vi ve
ol -date
link _
link url
time _
for _
ge red
id_3 32
id_3 33
id_3 35
oa st
ap ry
image size
image -title
image _class
</p lay
</p oster
ch i
ch a-
ch in
click -event
click outside
image/ pj
as -o
nav Links"
id_4 32
id_4 33
id_4 35
id_4 00
id_4 34
id_4 40
id_4 47
id_4 45
id_4 44
she ll
loa der
menu 1
<t >
ne ue
tra de-
em bed-
id_5 32
id_5 24"
id_5 12"
id_5 50"
id_5 11"
id_5 33
id_5 22"
id_5 28"
id_5 35
id_5 00
id_5 34
id_5 64"
id_5 40
id_5 47
id_5 45
id_5 44
id_5 21"
id_5 54"
id_5 42"
id_5 98"
id_5 86"
id_5 59
id_5 53"
id_5 53
id_5 52"
id_5 37"
ra ng
ca ncel
app slide
nofollow er"
id_6 "/>
id_6 32
id_6 33
id_6 35
id_6 90"
id_6 17"
id_6 00
id_6 34
id_6 40
id_6 23"
id_6 53"
id_6 76"
<g f-
<g ood
class_39"> </span><span
footer link
footer -nav-
class_69 4"
id_7 75"
id_7 48"
id_7 22"
id_7 35"
id_7 23"
id_7 65"
id_7 39"
id_7 78"
id_7 52"
id_7 95"
id_7 43"
id_7 47"
id_7 61"
id_7 82"
id_7 57"
id_7 91"
class_58 "/>
mi na
mp ct
ex pla
class_29"> <span
img safari
line ">
10 c
10 9">
10 3">
10 15"
10 10"
10 30"
10 7.
10 67"
10 5.
10 4.
co c-id
class_60 8"
class_72 4">
class_72 5">
class_73 3"
class_71 0"
class_71 3"
class_71 8"
ded up
class_70 7"
class_70 9"
class_68 6"
id_8 54">
id_8 49"
id_8 31">
id_8 53">
id_8 58">
id_8 51">
id_8 75">
id_8 89">
id_8 83">
class_80 6
class_84 7
class_89 6">
class_89 3"
class_37"> </span><span
class_97 4
class_97 6
class_97 7
class_91 8">
class_91 "/>
class_101 1
class_77 9">
class_12"> <code></code></pre>
class_81 4
class_81 5"
class_100 9
class_98 3
class_74 9">
class_85"> </span><span
class_93 1
class_93 3
class_93 1">
class_34"> </span><span
class_88 9">
class_88 4">
class_88 5">
class_92 3
class_92 6
class_103 7
class_86 4
class_85 0
class_85 2">
class_85 6"
class_83 0
class_83 4
class_83 8
id_9 63">
class_118 3
class_118 4
class_118 5
class_118 8
application/ oc
up s-
up perc
class_104 1
class_119 0
class_119 1
class_119 8
action -type
ng- strict-
class_124 0
class_106 4
class_108 8
class_127 5
class_120 0
sub tab
sub Menu
sub nav"
sub -menu"
qui z-
po -
class_122"> </i>
class_135"> </p>
12 9
12 7">
12 30"
12 60"/>
12 7.
12 46"/>
holder "
class_145 6
js -close
x- text
15 8">
15 px"/>
15 7.
15 .08"
cy cle-
20 3">
20 40"/>
20 68"/>
-a ssi
18 9
18 3">
18 7">
18 60"/>
18 7.
18 54"/>
18 84"/>
button" '>
100 8"/>
16 9.
class_172 "/>
17 58"/>
17 94"/>
class_178 "/>
14 9
14 6">
mou nts
auto bu
auto -pop
auto -init
out -
mo st-
mo -di
ve _
ve tica
search -input>
class_199 "/>
ac ul
13 8">
13 7">
13 65"
13 3.
13 49"
13 5.
13 %"/>
13 62"/>
short -
jo b-
sk -
v- toggle
19 6">
19 18"/>
class_217 "/>
load -type
shortcut s-
class_229 "/>
menu- -
24 4
24 6">
24 .01"
video s"
video -item-
36 8">
hea d">
-link "
lock -teaser
60 4"/>
60 57
60 /"
template -url
listi ng>
-con cierge
font/ svg
at tribu
event s"
ngcontent-sc4 00
ry .
class_263 "/>
il ">
il led
m- copy
nghost-sc 35
nghost-sc 80
ed ">
30 8
30 4"
29 5">
fa ncy
filter .category
lazy >
<fe mergenode>
<fe componenttransfer>
<fe edbox
</fe edbox
show n-
-c tr
track- modal-
23 5">
iner -button
pro bes
ng-reflect- slim
do ts
code c
ema n
blur -is
27 3">
27 1">
page _id
per fect
nav- gov-
-image -card>
lazy- wrapper
lazy- wrapper>
d- src
d- time
banner -
region s-
33 37
active -src
section "
section -link
link- box-
slide count
slide Direction
37 8"/>
37 3"/>
right margin
0. 1"
un ting-
pref illed
35 3"/>
// www.
38 9
component ">
__ stations_
1. 78"
new ">
48 8
go -scrolling-
39 3"
34 6
></a> </p>
docu ment-
.w indow
display type
com a-
com modation
49 5"/>
49 %"
rousel -progress
-w all-
47 9"/>
tab- panel_
ad x
ad words
ad vance
45 8"/>
45 7"/>
45 3337
ngcontent-sc12 5
gtm- json
66 9"
66 px"
44 6"
44 .2"
-src -error
56 1"
56 5"/>
56 6"/>
v-bind: value
ase >
65 6"/>
65 .5"
svg -icon>
74 9"
74 1"/>
drop "
80 2"
the src
-in tent
js- header__
76 .
76 2"
76 7"
<client- review
<client- disclosure
</client- review
</client- disclosure>
75 2"
-s up
validation -list
validation -invalid-
ting "
ting _
64 4"
64 22
<amp- script
<amp- install-servicework
</amp- script>
</amp- install-servicework
ha vem
ze "
dropdown __stations_
cta -full-
-pro vid
58 8"
58 6"/>
58 9"/>
70 8"/>
55 9
55 9"
55 1"/>
page- homepage_
id_47 4"
id_47 9"
54 0">
54 2"/>
zone index
next page
7. 1">
card -accordion-
Ã 
69 4"
timing fn
59 2"
spon sor
68 7"
68 9"
tion- dropdown__stations_
ms- mouseover
mess eng
que sta
que stion
6. 71"
6. 508"
79 4"
navbar s
mat- expla
<w fm-
yg-server-content-sc15 9
lt d
13. 608"
site id
content- direction
JUSTIFY "
id_56 2"
input -name
-block -
secon d_
main- menu
main- menu-
</g f-
id_55 9"
social- nav>
</w fm-
11 y
11 %">
slider -icon-
share type
share lang
share cid
-- 19
5. 6"
5. 27
-card s>
cen tr
sideb lock-teaser
login "
togg list_
<rt -
id_70 8"
scale "
sa ns-
mobile Menu
2- 2"
2- level-2-item-
arial-label ledby
67 3"
news /
<fl -container
video/webm "
21 px">
21 vbi1
21 wdGU
.9 %"
mobile-nav- side
-item- body>
-item- header>
4. 616"
location -content-
[...]
