{"\u0012":0," ":1,"!":2,"\"":3,"#":4,"$":5,"%":6,"&":7,"'":8,"(":9,")":10,"*":11,"+":12,",":13,"-":14,".":15,"/":16,"0":17,"1":18,"2":19,"3":20,"4":21,"5":22,"6":23,"7":24,"8":25,"9":26,":":27,";":28,"<":29,"=":30,">":31,"?":32,"@":33,"A":34,"B":35,"C":36,"D":37,"E":38,"F":39,"G":40,"H":41,"I":42,"J":43,"K":44,"L":45,"M":46,"N":47,"O":48,"P":49,"Q":50,"R":51,"S":52,"T":53,"U":54,"V":55,"W":56,"X":57,"Y":58,"Z":59,"[":60,"\\":61,"]":62,"_":63,"a":64,"b":65,"c":66,"d":67,"e":68,"f":69,"g":70,"h":71,"i":72,"j":73,"k":74,"l":75,"m":76,"n":77,"o":78,"p":79,"q":80,"r":81,"s":82,"t":83,"u":84,"v":85,"w":86,"x":87,"y":88,"z":89,"{":90,"|":91,"}":92,"~":93,"":94,"":95,"":96,"":97,"":98,"":99,"":100,"":101,"":102,"":103,"":104,"":105,"":106," ":107,"¡":108,"¢":109,"¤":110,"¥":111,"¦":112,"©":113,"¬":114,"­":115,"®":116,"±":117,"³":118,"´":119,"¶":120,"º":121,"¼":122,"Â":123,"Ã":124,"la":125,"ss":126,"cla":127,"class":128,"=\"":129,"class_":130,"</":131,"=\"\"":132,"di":133,"div":134,"\">":135,"class_1":136,"re":137,"div>":138,"</div>":139,"<div":140,"li":141,"ref":142,"href":143,"pa":144,"<a":145,"</a":146,"</a>":147,"class_2":148,"pan":149,"span":150,"ta":151,"id":152,"li>":153,"le":154,"on":155,"ti":156,"da":157,"</li>":158,"data":159,"data-":160,"class_3":161,"span>":162,"/>":163,"ri":164,"</span>":165,"ty":166,"<li":167,"class_4":168,"te":169,"<span":170,"rc":171,"sc":172,"class_5":173,"class_6":174,"scri":175,"pt":176,"al":177,"me":178,"script":179,"id_":180,"<i":181,"class_7":182,"src":183,"class_8":184,"th":185,"class_9":186,"class_10":187,"et":188,"class_11":189,"op":190,"class_12":191,"<li>":192,"class_13":193,"p>":194,"tle":195,"title":196,"sty":197,"style":198,"mg":199,"tion":200,"6\">":201,"9\">":202,"<img":203,"4\">":204,"ul":205,"0\">":206,"5\">":207,"8\">":208,"3\">":209,"1\">":210,"7\">":211,"2\">":212,"class_14":213,"<h":214,"pe":215,"alt":216,"</h":217,"de":218,"script>":219,"\"/>":220,"<s":221,"tr":222,"type":223,"class_15":224,"rg":225,"targ":226,"target":227,"path":228,"rel":229,"class_16":230,"con":231,"ig":232,"</p>":233,"a-":234,"0\"":235,"ari":236,"nk":237,"aria-":238,"nt":239,"class_17":240,"ue":241,"ut":242,"class_18":243,"</s":244,"na":245,"he":246,"ul>":247,"2\"":248,"4\"":249,"5\"":250,"g>":251,"option":252,"1\"":253,"class_19":254,"3\"":255,"conte":256,"6\"":257,"8\"":258,"content":259,"</script>":260,"7\"":261,"wid":262,"width":263,"<p":264,"9\"":265,"ht":266,"ro":267,"</ul>":268,"class_20":269,"el":270,"no":271,"se":272,"class_21":273,"ng":274,"class_24":275,"ight":276,"meta":277,"height":278,"<meta":279,"bo":280,"<link":281,"ure":282,"class_23":283,"tem":284,"er":285,"class_22":286,"id_1":287,"lab":288,"label":289,"ll":290,"item":291,"<script":292,"ton":293,"but":294,"button":295,"name":296,"val":297,"value":298,"path>":299,"</path>":300,"<path":301,"fo":302,"3>":303,"role":304,"<ul":305,"<span>":306,"xt":307,"tic":308,"rtic":309,"rticle":310,"text":311,"fi":312,"rop":313,"<p>":314,"prop":315,"class_25":316,"ct":317,"ou":318,"in":319,"d>":320,"fill":321,"2>":322,"option>":323,"text/":324,"</i":325,"ction":326,"set":327,"ure>":328,"ns":329,"</h3>":330,"hid":331,"</i>":332,"den":333,"hidden":334,"</option>":335,"vg>":336,"aria-label":337,"</svg>":338,"ml":339,"vg":340,"class_26":341,"<svg":342,"ma":343,"<option":344,"use":345,"class_27":346,"fig":347,"medi":348,"ection":349,"media":350,"tab":351,"rce":352,"ource":353,"<source":354,"class_28":355,"</h2>":356,"true":357,"srcset":358,"va":359,"true\"":360,"id_2":361,"si":362,"<b":363,"box":364,"ict":365,"aria-hidden":366,"ea":367,"ava":368,"java":369,"javascript":370,"javascript\">":371,"class_30":372,"der":373,"ter":374,"text/javascript\">":375,"vi":376,"ew":377,"tron":378,"itemprop":379,"view":380,"td>":381,"noscript>":382,"<h3":383,"class_29":384,"dex":385,"index":386,"viewbox":387,"xml":388,"ol":389,"link":390,"ck":391,"tabindex":392,"siz":393,"size":394,"class_32":395,"class_33":396,"time":397,"trong>":398,"r/>":399,"<div>":400,"rticle>":401,"for":402,"ok":403,"class_31":404,"</article>":405,"ope":406,"class_34":407,"xmlns":408,"sizes":409,"<br/>":410,"<h2":411,"icture>":412,"class_35":413,"xlink":414,"<article":415,"ge":416,"cli":417,"put":418,"id_3":419,"nput":420,"<input":421,"oa":422,"str":423,"oke":424,"stroke":425,"button>":426,"ap":427,"</td>":428,"class_36":429,"</button>":430,"4>":431,"<button":432,"ima":433,"style>":434,"0\"/>":435,"image":436,"</p":437,"proper":438,"property":439,"lang":440,"form":441,"eader":442,"ch":443,"click":444,"ection>":445,"<script>":446,"figure>":447,"class_37":448,"image/":449,"use>":450,"</section>":451,"</use>":452,"<use":453,"onclick":454,"xlink:":455,"xlink:href":456,"<section":457,"as":458,"nu":459,"nav":460,"ow":461,"class_39":462,"id_4":463,"class_38":464,"ding":465,"<ul>":466,"she":467,"or":468,"loa":469,"ner":470,"sheet":471,"stylesheet":472,"</figure>":473,"menu":474,"title>":475,"-sc":476,"</h4>":477,"class_40":478,"<fig":479,"opener":480,"noopener":481,"</picture>":482,"</noscript>":483,"<t":484,"icon":485,"</strong>":486,"pre":487,"ngcontent":488,"l>":489,"</style>":490,"ne":491,"class_41":492,"tra":493,"<td":494,"ngcontent-sc":495,"<noscript>":496,"stroke-":497,"tr>":498,"em":499,"ce":500,"id_5":501,"mbo":502,"class_42":503,"ra":504,"ymbo":505,"ca":506,"loading":507,"<figure":508,"</g>":509,"class_43":510,"class_45":511,"<h3>":512,"llow":513,"app":514,"class_50":515,"follow":516,"ci":517,"eader>":518,"class_47":519,"nofollow":520,"ule":521,"class_44":522,"css":523,"class_46":524,"text/css":525,"class_51":526,"class_48":527,"px":528,"hreflang":529,"<strong>":530,"terna":531,"alterna":532,"alternate":533,"-r":534,"<h2>":535,"-rule":536,"button\">":537,"class_49":538,"class_52":539,"id_6":540,"class_62":541,"class_56":542,"trans":543,"menuitem":544,"<g":545,"<h4":546,"class_39\">":547,"fal":548,"<d":549,"</d":550,"class_53":551,"foo":552,"footer":553,"label>":554,"em>":555,"false":556,"</header>":557,"false\"":558,"class_57":559,"time>":560,"class_36\">":561,"class_55":562,"dy":563,"class_69":564,"st":565,"fill-rule":566,"class_64":567,"ble":568,"class_63":569,"id_7":570,"</time>":571,"class_54":572,"5>":573,"1>":574,"class_26\">":575,"class_41\">":576,"-p":577,"icon\"":578,"body":579,"class_65":580,"text/css\"/>":581,"alternate\"/>":582,"hidden\"":583,"of":584,"class_58":585,"def":586,"mi":587,"transform":588,"eb":589,"class_38\">":590,"scope":591,"stylesheet\"":592,"date":593,"noopener\"":594,"col":595,"mp":596,"</label>":597,"class_59":598,"class_67":599,"<time":600,"</title>":601,"ex":602,"web":603,"class_29\">":604,"class_57\">":605,"img":606,"class_33\">":607,"line":608,"<picture>":609,"class_49\">":610,"class_58\">":611,"class_42\">":612,"itemtype":613,"class_66":614,"itemscope":615,"class_81\">":616,"class_45\">":617,"class_77\">":618,"class_63\">":619,"10":620,"prese":621,"rect":622,"class_79\">":623,"class_46\">":624,"class_83\">":625,"co":626,"pla":627,"</tr>":628,"able":629,"<style":630,"class_56\">":631,"webp":632,"image/webp":633,"class_62\">":634,"datetime":635,"ead>":636,"class_61":637,"class_43\">":638,"class_35\">":639,"image/webp\"/>":640,"class_90":641,"tml":642,"cap":643,"class_65\">":644,"class_24\">":645,"class_68\">":646,"nta":647,"class_48\">":648,"class_76":649,"class_60":650,"class_72":651,"class_73":652,"class_71":653,"32":654,"<td>":655,"class_30\">":656,"ded":657,"class_66\">":658,"class_50\">":659,"class_70":660,"expan":661,"etch":662,"class_107":663,"expanded":664,"<label":665,"class_88\">":666,"class_68":667,"refetch":668,"class_44\">":669,"id_8":670,"class_64\">":671,"class_80":672,"class_69\">":673,"class_71\">":674,"<title>":675,"class_60\">":676,"nav>":677,"class_78":678,"class_75":679,"</b":680,"circ":681,"aria-expanded":682,"circle":683,"oly":684,"class_8\">":685,"refetch\"/>":686,"class_87":687,"class_84":688,"class_82\">":689,"class_89\">":690,"ont":691,"stylesheet\"/>":692,"class_54\">":693,"class_61\">":694,"px\"":695,"class_73\">":696,"class_59\">":697,"by":698,"class_113":699,"class_28\">":700,"class_106\">":701,"class_89":702,"class_99":703,"class_52\">":704,"class_79":705,"class_67\">":706,"class_74\">":707,"class_110\">":708,"class_37\">":709,"class_97":710,"class_40\">":711,"icture":712,"class_75\">":713,"rer":714,"class_90\">":715,"dby":716,"nc":717,"class_80\">":718,"ntation":719,"class_70\">":720,"le-":721,"noref":722,"class_91":723,"class_96\">":724,"class_111\">":725,"errer":726,"presentation":727,"class_99\">":728,"class_72\">":729,"class_114":730,"noreferrer":731,"<picture":732,"class_101":733,"class_77":734,"class_12\">":735,"cu":736,"class_98\">":737,"font":738,"class_97\">":739,"class_81":740,"class_22\">":741,"class_87\">":742,"class_55\">":743,"class_94\">":744,"stroke-width":745,"class_76\">":746,"class_23\">":747,"</nav>":748,"class_92\">":749,"ync":750,"class_100":751,"async":752,"class_51\">":753,"class_95\">":754,"class_78\">":755,"class_25\">":756,"class_112":757,"class_102":758,"class_98":759,"class_86\">":760,"class_93\">":761,"class_91\">":762,"ide":763,"class_100\">":764,"class_74":765,"menuitem\">":766,"qu":767,"ymbol":768,"class_8\"":769,"class_85\">":770,"ymbol>":771,"</symbol>":772,"<symbol":773,"class_93":774,"class_34\">":775,"class_95":776,"class_13\">":777,"class_84\">":778,"class_88":779,"class_53\">":780,"ver":781,"body>":782,"dns":783,"dns-p":784,"class_47\">":785,"class_27\">":786,"class_92":787,"class_94":788,"<header":789,"dns-prefetch\"/>":790,"sable":791,"class_82":792,"class_113\">":793,"ouch":794,"ub":795,"class_20\">":796,"class_103":797,"class_103\">":798,"class_86":799,"</h1>":800,"class_101\">":801,"class_37\"":802,"class_96":803,"</b>":804,"<style>":805,"class_105\">":806,"class_21\">":807,"cation":808,"class_85":809,"class_108\">":810,"class_102\">":811,"<nav":812,"class_83":813,"class_31\">":814,"color":815,"id_9":816,"class_105":817,"nofollow\"":818,"class_107\">":819,"lication":820,"application":821,"</h5>":822,"class_115\">":823,"class_118":824,"application/":825,"up":826,"class_18\">":827,"class_104":828,"touch":829,"class_19\">":830,"touch-":831,"class_61\"":832,"apple-":833,"apple-touch-":834,"class_112\">":835,"top":836,"class_14\">":837,"class_135":838,"class_9\">":839,"class_139":840,"xmlns:":841,"class_129":842,"reloa":843,"reload":844,"class_109":845,"preload":846,"class_119":847,"class_125":848,"class_120\">":849,"class_110":850,"action":851,"ledby":852,"fra":853,"ng-":854,"class_6\">":855,"00\"/>":856,"aria-labelledby":857,"class_16\"":858,"class_115":859,"rig":860,"class_111":861,"class_10\">":862,"gon":863,"olygon":864,"</em>":865,"class_114\">":866,"class_117\">":867,"class_130":868,"class_11\">":869,"class_109\">":870,"class_104\">":871,"class_136":872,"mit":873,"frame":874,"class_124":875,"class_4\">":876,"class_124\">":877,"class_106":878,"class_108":879,"class_116\">":880,"class_118\">":881,"class_43\"":882,"class_121":883,"class_127":884,"noreferrer\"":885,"class_16\">":886,"class_117":887,"<tr>":888,"class_133":889,"class_119\">":890,"class_134":891,"lig":892,"non":893,"class_128":894,"footer>":895,"class_126\">":896,"class_142\">":897,"focu":898,"class_120":899,"cro":900,"class_132\">":901,"lign":902,"class_17\">":903,"class_129\">":904,"class_116":905,"class_32\">":906,"class_25\"":907,"class_128\">":908,"class_133\">":909,"class_131":910,"class_138":911,"class_15\">":912,"<h4>":913,"class_132":914,"class_5\">":915,"class_32\"":916,"ent":917,"ar":918,"class_123":919,"<b>":920,"orig":921,"class_53\"":922,"class_44\"":923,"sub":924,"class_123\">":925,"origin":926,"class_13\"":927,"form>":928,"xmlns:xlink":929,"class_141\">":930,"qui":931,"class_125\">":932,"class_63\"":933,"class_131\">":934,"class_134\">":935,"mal":936,"stroke-line":937,"id_10":938,"class_140":939,"po":940,"</form>":941,"class_41\"":942,"class_122\">":943,"class_126":944,"cross":945,"crossorigin":946,"class_143\">":947,"class_19\"":948,"class_122":949,"class_137":950,"<form":951,"class_121\">":952,"s>":953,"</dd>":954,"class_141":955,"class_144":956,"class_127\">":957,"image/j":958,"class_65\"":959,"class_135\">":960,"class_151":961,"class_140\">":962,"class_7\">":963,"class_130\">":964,"od":965,"hol":966,"class_3\">":967,"12":968,"class_139\">":969,"holder":970,"place":971,"class_136\">":972,"side":973,"placeholder":974,"class_145":975,"p-":976,"class_12\"":977,"class_138\">":978,"class_51\"":979,"ho":980,"class_146":981,"g\"/>":982,"class_150":983,"class_28\"":984,"class_42\"":985,"class_142":986,"class_36\"":987,"class_40\"":988,"class_147":989,"ror":990,"error":991,"</footer>":992,"class_50\"":993,"focusable":994,"class_147\">":995,"sh":996,"class_148":997,"nts":998,"class_49\"":999,"class_149":1000,"class_74\"":1001,"onerror":1002,"t>":1003,"nect":1004,"class_30\"":1005,"connect":1006,"class_137\">":1007,"class_14\"":1008,"class_35\"":1009,"class_34\"":1010,"class_75\"":1011,"class_143":1012,"class_66\"":1013,"class_38\"":1014,"class_160":1015,"id_11":1016,"class_48\"":1017,"class_145\">":1018,"24\"":1019,"ni":1020,"class_146\">":1021,"nofollow\">":1022,"class_144\">":1023,"comp":1024,"preconnect":1025,"js":1026,"class_26\"":1027,"off":1028,"table":1029,"caption":1030,"class_18\"":1031,"class_11\"":1032,"bor":1033,"class_155":1034,"class_15\"":1035,"defer":1036,"presentation\">":1037,"preconnect\"/>":1038,"radi":1039,"class_55\"":1040,"tml>":1041,"border":1042,"class_47\"":1043,"x-":1044,"class_62\"":1045,"class_161":1046,"class_33\"":1047,"class_58\"":1048,"ga":1049,"class_153":1050,"class_154":1051,"class_20\"":1052,"15":1053,"class_148\">":1054,"class_52\"":1055,"image/jpe":1056,"submit":1057,"class_152\">":1058,"lo":1059,"class_9\"":1060,"class_45\"":1061,"class_54\"":1062,"image/jpeg\"/>":1063,"class_69\"":1064,"char":1065,"class_23\"":1066,"charset":1067,"class_153\">":1068,"class_27\"":1069,"class_165":1070,"class_56\"":1071,"class_39\"":1072,"class_46\"":1073,"class_157":1074,"mar":1075,"class_87\"":1076,"cy":1077,"class_72\"":1078,"class_166":1079,"align":1080,"trol":1081,"mall>":1082,"htt":1083,"preload\"/>":1084,"class_164":1085,"class_68\"":1086,"class_59\"":1087,"class_29\"":1088,"class_57\"":1089,"class_150\">":1090,"has":1091,"<h1":1092,"class_71\"":1093,"class_17\"":1094,"cx":1095,"paci":1096,"opup":1097,"class_158":1098,"defs>":1099,"class_154\">":1100,"class_78\"":1101,"6>":1102,"img\"":1103,"<option>":1104,"class_24\"":1105,"apple-touch-icon\"":1106,"popup":1107,"class_152":1108,"control":1109,"class_162":1110,"class_159":1111,"class_31\"":1112,"class_91\"":1113,"rect>":1114,"</rect>":1115,"<rect":1116,"<footer":1117,"haspopup":1118,"id_12":1119,"class_70\"":1120,"aria-haspopup":1121,"class_88\"":1122,"class_156":1123,"main":1124,"class_76\"":1125,"class_169":1126,"class_96\"":1127,"class_156\">":1128,"class_163":1129,"<i>":1130,"class_89\"":1131,"class_167":1132,"</html>":1133,"typeof":1134,"class_159\">":1135,"meth":1136,"</body>":1137,"class_73\"":1138,"method":1139,"class_64\"":1140,"class_149\">":1141,"controls":1142,"</head>":1143,"class_162\">":1144,"class_21\"":1145,"class_151\">":1146,"che":1147,"class_82\"":1148,"class_163\">":1149,"class_107\"":1150,"class_160\">":1151,"class_67\"":1152,"<em>":1153,"class_86\"":1154,"menuitem\"":1155,"class_164\">":1156,"class_80\"":1157,"class_2\">":1158,"class_10\"":1159,"<dd>":1160,"class_79\"":1161,"quiv":1162,"class_95\"":1163,"equiv":1164,"poi":1165,"class_155\">":1166,"aria-controls":1167,"class_1\"":1168,"p-equiv":1169,"http-equiv":1170,"json":1171,"sion":1172,"class_161\">":1173,"points":1174,"class_100\"":1175,"circle>":1176,"<circle":1177,"</circle>":1178,"mark":1179,"class_171":1180,"check":1181,"class_85\"":1182,"class_170":1183,"class_22\"":1184,"class_90\"":1185,"class_60\"":1186,"ele":1187,"class_168":1188,"class_173":1189,"class_157\">":1190,"<head>":1191,"class_101\"":1192,"class_176":1193,"fe":1194,"<h5":1195,"png":1196,"id_13":1197,"class_81\"":1198,"image/png":1199,"image/png\"/>":1200,"class_184":1201,"class_190":1202,"class_97\"":1203,"version":1204,"20":1205,"class_93\"":1206,"nter":1207,"class_94\"":1208,"-a":1209,"class_158\">":1210,"18":1211,"icon\"/>":1212,"button\"":1213,"class_77\"":1214,"trong":1215,"class_108\"":1216,"book":1217,"class_186":1218,"class_188":1219,"class_83\"":1220,"class_104\"":1221,"class_166\">":1222,"class_102\"":1223,"100":1224,"ation":1225,"16":1226,"class_84\"":1227,"ur":1228,"bookmark":1229,"class_98\"":1230,"aut":1231,"class_172":1232,"<strong":1233,"class_99\"":1234,"class_122\"":1235,"caption>":1236,"class_112\"":1237,"class_183":1238,"class_187\">":1239,"17":1240,"<html":1241,"class_170\">":1242,"center":1243,"class_165\">":1244,"class_174\">":1245,"class_192":1246,"class_118\"":1247,"class_178":1248,"class_105\"":1249,"class_175":1250,"class_191":1251,"class_174":1252,"class_92\"":1253,"14":1254,"class_189":1255,"class_168\">":1256,"text/css\">":1257,"offset":1258,"class_177":1259,"<header>":1260,"id_14":1261,"class_179":1262,"class_103\"":1263,"class_172\">":1264,"class_195":1265,"class_177\">":1266,"json\">":1267,"clip":1268,"px\"/>":1269,"100%":1270,"</h6>":1271,"class_182":1272,"class_128\"":1273,"class_185":1274,"mou":1275,"class_241":1276,"stroke-linecap":1277,"mouse":1278,"auto":1279,"<polygon":1280,"</polygon":1281,"</polygon>":1282,"class_215":1283,"class_193":1284,"class_111\"":1285,"s-":1286,"rch":1287,"16\"":1288,"class_181":1289,"class_167\">":1290,"op-":1291,"class_6\"":1292,"class_237":1293,"class_119\"":1294,"stop-":1295,"class_212":1296,"class_187":1297,"class_5\"":1298,"class_171\">":1299,"class_117\"":1300,"class_210":1301,"arch":1302,"class_7\"":1303,"top>":1304,"class_113\"":1305,"<stop":1306,"</stop>":1307,"class_173\">":1308,"class_130\"":1309,"<g>":1310,"class_216":1311,"class_179\">":1312,"<figure>":1313,"radient":1314,"onmouse":1315,"class_4\"":1316,"out":1317,"4\"/>":1318,"class_106\"":1319,"class_125\"":1320,"class_180":1321,"class_190\">":1322,"class_185\">":1323,"5\"/>":1324,"class_109\"":1325,"class_178\">":1326,"class_169\">":1327,"class_191\">":1328,"class_137\"":1329,"class_186\">":1330,"class_175\">":1331,"teg":1332,"mo":1333,"ve":1334,"ort":1335,"class_240":1336,"class_115\"":1337,"class_123\"":1338,"<h5>":1339,"class_124\"":1340,"class_176\">":1341,"2\"/>":1342,"rou":1343,"pacity":1344,"opacity":1345,"class_204":1346,"class_114\"":1347,"class_127\"":1348,"class_181\">":1349,"checkbox":1350,"class_126\"":1351,"class_189\">":1352,"none":1353,"class_110\"":1354,"class_116\"":1355,"class_195\">":1356,"class_129\"":1357,"comple":1358,"class_180\">":1359,"class_184\">":1360,"class_198":1361,"class_136\"":1362,"track":1363,"class_194":1364,"class_197":1365,"search":1366,"class_141\"":1367,"id_15":1368,"side>":1369,"class_196":1370,"class_199":1371,"class_214\">":1372,"class_238\">":1373,"class_209\">":1374,"class_243":1375,"ac":1376,"13":1377,"te>":1378,"</small>":1379,"class_143\"":1380,"class_194\">":1381,"class_2\"":1382,"an":1383,"frame>":1384,"class_196\">":1385,"<iframe":1386,"class_140\"":1387,"</iframe>":1388,"class_208":1389,"class_203":1390,"class_245":1391,"32px\"":1392,"class_224":1393,"</dt>":1394,"class_242":1395,"short":1396,"class_201":1397,"class_207":1398,"class_246\">":1399,"cal":1400,"class_192\">":1401,"alternate\"":1402,"none\">":1403,"class_182\">":1404,"d+":1405,"class_211":1406,"class_146\"":1407,"lay":1408,"class_1\">":1409,"class_134\"":1410,"-id":1411,"class_200":1412,"class_197\">":1413,"class_242\">":1414,"font>":1415,"class_120\"":1416,"class_138\"":1417,"</aside>":1418,"class_183\">":1419,"class_241\">":1420,"class_211\">":1421,"xml\"/>":1422,"text\"/>":1423,"id_16":1424,"32px\"/>":1425,"class_156\"":1426,"class_131\"":1427,"class_139\"":1428,"class_206":1429,"class_205":1430,"class_132\"":1431,"jo":1432,"<h1>":1433,"class_121\"":1434,"class_234":1435,"class_202":1436,"class_135\"":1437,"class_244\">":1438,"8\"/>":1439,"table>":1440,"join":1441,"<hr/>":1442,"class_230":1443,"elect":1444,"</font>":1445,"igation":1446,"sk":1447,"class_223":1448,"class_208\">":1449,"ory":1450,"20\"":1451,"class_218\">":1452,"class_213":1453,"class_239":1454,"class_154\"":1455,"class_243\">":1456,"stroke-linejoin":1457,"class_199\">":1458,"class_219\">":1459,"class_240\">":1460,"ical":1461,"stop-color":1462,"nonical":1463,"canonical":1464,"class_238":1465,"ell":1466,"<tr":1467,"<body":1468,"class_147\"":1469,"cell":1470,"navigation":1471,"class_157\"":1472,"class_193\">":1473,"id_10\">":1474,"class_142\"":1475,"<aside":1476,"class_3\"":1477,"class_158\"":1478,"class_225\">":1479,"class_145\"":1480,"class_188\">":1481,"canonical\"/>":1482,"<em":1483,"<font":1484,"00\"":1485,"1\"/>":1486,"class_198\">":1487,"class_220":1488,"categ":1489,"</fig":1490,"</figcaption>":1491,"class_236":1492,"category":1493,"class_223\">":1494,"class_153\"":1495,"class_152\"":1496,"class_239\">":1497,"class_219":1498,"class_220\">":1499,"v-":1500,"ted":1501,"class_232":1502,"th>":1503,"complete":1504,"</table>":1505,"class_205\">":1506,"class_151\"":1507,"class_252":1508,"19":1509,"ld+":1510,"ld+json\">":1511,"img\">":1512,"autocomplete":1513,"application/ld+json\">":1514,"text\"":1515,"class_149\"":1516,"class_209":1517,"class_226\">":1518,"</defs>":1519,"class_231":1520,"class_217":1521,"class_227":1522,"nd":1523,"class_217\">":1524,"clip-rule":1525,"class_226":1526,"id_2\">":1527,"class_165\"":1528,"load":1529,"id_4\">":1530,"class_133\"":1531,"class_214":1532,"class_227\">":1533,"ngcontent-sc5":1534,"</dl>":1535,"class_234\">":1536,"class_144\"":1537,"class_222":1538,"id_1\">":1539,"class_150\"":1540,"id_3\">":1541,"id_6\">":1542,"class_213\">":1543,"class_225":1544,"+xml\"/>":1545,"submit\">":1546,"<h6":1547,"class_233":1548,"ngcontent-sc7":1549,"class_221":1550,"class_202\">":1551,"id_5\">":1552,"templa":1553,"class_235\">":1554,"navigation\">":1555,"class_200\">":1556,"class_206\">":1557,"class_231\">":1558,"<defs>":1559,"<hr":1560,"presentation\"":1561,"tag":1562,"class_201\">":1563,"to":1564,"cut":1565,"25":1566,"id_17":1567,"mask":1568,"class_236\">":1569,"class_235":1570,"<table":1571,"id_8\">":1572,"shortcut":1573,"class_229":1574,"class_148\"":1575,"submit\"":1576,"be":1577,"id_7\">":1578,"300\"/>":1579,"y-":1580,"class_218":1581,"uth":1582,"class_228":1583,"menu-":1584,"id_9\">":1585,"sele":1586,"nea":1587,"id_11\">":1588,"class_244\"":1589,"rgradient":1590,"neargradient":1591,"class_237\">":1592,"mp-":1593,"class_246":1594,"html":1595,"uthor":1596,"class_254\">":1597,"class_216\">":1598,"id_4\"":1599,"class_162\"":1600,"class_247\">":1601,"24":1602,"class_161\"":1603,"class_245\">":1604,"desc":1605,"class_203\">":1606,"class_253":1607,"class_159\"":1608,"class_230\">":1609,"class_182\"":1610,"id_13\">":1611,"hoe":1612,"hoeni":1613,"id_14\">":1614,"class_247":1615,"menu\">":1616,"red":1617,"id_12\">":1618,"class_207\">":1619,"class_163\"":1620,"class_160\"":1621,"class_204\">":1622,"class_249\">":1623,"disable":1624,"80\"/>":1625,"class_212\">":1626,"id_3\"":1627,"dow":1628,"id_5\"":1629,"class_155\"":1630,"<svg>":1631,"id_2\"":1632,"spa":1633,"laz":1634,"descri":1635,"xml:":1636,"<dt>":1637,"class_215\">":1638,"author":1639,"vel":1640,"id_15\">":1641,"preload\"":1642,"vide":1643,"id_18":1644,"video":1645,"bookmark\">":1646,"id_17\">":1647,"36":1648,"class_250":1649,"id_16\">":1650,"x2":1651,"level":1652,"cou":1653,"space":1654,"selec":1655,"class_228\">":1656,"layout":1657,"x1":1658,"id_1\"":1659,"class_172\"":1660,"class_229\">":1661,"class_222\">":1662,"rea":1663,"y2":1664,"class_210\">":1665,"15\"":1666,"y1":1667,"class_166\"":1668,"id_19\">":1669,"application/r":1670,"ey":1671,"checkbox\"":1672,"class_251\">":1673,"hea":1674,"ol>":1675,"id_18\">":1676,"selected":1677,"</th>":1678,"class_164\"":1679,"og":1680,"id_6\"":1681,"class_232\">":1682,"dir":1683,"12\"":1684,"id_7\"":1685,"id_20\">":1686,"list":1687,"<body>":1688,"class_260":1689,"main>":1690,"line>":1691,"class_167\"":1692,"-link":1693,"class_189\"":1694,"up>":1695,"<small>":1696,"gg":1697,"dra":1698,"dd":1699,"class_233\">":1700,"class_169\"":1701,"class_255\">":1702,"-b":1703,"rx":1704,"icon-":1705,"lock":1706,"class_170\"":1707,"hoenix-":1708,"rt":1709,"requi":1710,"class_250\">":1711,"60":1712,"sti":1713,"id_9\"":1714,"22":1715,"class_253\">":1716,"id_19":1717,"down":1718,"class_221\">":1719,"class_251":1720,"id_21\">":1721,"key":1722,"class_248":1723,"over":1724,"template":1725,"id_23\">":1726,"required":1727,"limit":1728,"class_221\"":1729,"terlimit":1730,"miterlimit":1731,"stroke-miterlimit":1732,"class_256\">":1733,"if":1734,"class_248\">":1735,"center>":1736,"id_8\"":1737,"class_174\"":1738,"true\">":1739,"40\"":1740,"id_25\">":1741,"fiel":1742,"class_224\">":1743,"listi":1744,"field":1745,"-con":1746,"id_22\">":1747,"class_175\"":1748,"listitem":1749,"class_249":1750,"50\"":1751,"id_10\"":1752,"radio":1753,"class_244":1754,"id_24\">":1755,"grou":1756,"class_183\"":1757,"80\"":1758,"class_257":1759,"ggable":1760,"draggable":1761,"vent":1762,"class_173\"":1763,"url":1764,"class_171\"":1765,"bookmark\"":1766,"font/":1767,"class_181\"":1768,"class_168\"":1769,"at":1770,"32\"":1771,"id_27\">":1772,"listitem\">":1773,"nife":1774,"manife":1775,"manifest":1776,"class_177\"":1777,"id_29\">":1778,"event":1779,"class_180\"":1780,"class_185\"":1781,"id_20":1782,"<article>":1783,"spaci":1784,"id_26\">":1785,"class_188\"":1786,"sta":1787,"ngcontent-sc4":1788,"class_213\"":1789,"disabled":1790,"class_242\"":1791,"<dd":1792,"class_210\"":1793,"article":1794,"18\"":1795,"class_254":1796,"coding":1797,"decoding":1798,"woff":1799,"</main>":1800,"class_187\"":1801,"tag\">":1802,"6\"/>":1803,"<no":1804,"class_259":1805,"valign":1806,"class_262":1807,"bout":1808,"font/woff":1809,"ack":1810,"id_11\"":1811,"<th":1812,"host":1813,"ft":1814,"id_28\">":1815,"class_284\"":1816,"xml:space":1817,"left":1818,"class_232\"":1819,"compo":1820,"ea-":1821,"application/rss":1822,"</ol>":1823,"application/rss+xml\"/>":1824,"alog":1825,"px\">":1826,"class_256":1827,"id_13\"":1828,"about":1829,"class_255":1830,"panel":1831,"nghost":1832,"class_176\"":1833,"sed":1834,"spe":1835,"class_193\"":1836,"class_184\"":1837,"class_280":1838,"id_12\"":1839,"class_222\"":1840,"id_30\">":1841,"age":1842,"ry":1843,"acce":1844,"10\"":1845,"ngcontent-sc6":1846,"class_263":1847,"id_31\">":1848,"class_268":1849,"class_275":1850,"class_258":1851,"id_14\"":1852,"class_178\"":1853,"colspan":1854,"spacing":1855,"tri":1856,"id_32\">":1857,"precompo":1858,"icon-precompo":1859,"icon-precomposed":1860,"apple-touch-icon-precomposed":1861,"il":1862,"count":1863,"class_264":1864,"mp-img":1865,"ngcontent-sc0":1866,"class_241\"":1867,"eleme":1868,"class_266":1869,"20\"/>":1870,"low":1871,"class_259\">":1872,"class_277":1873,"class_257\">":1874,"id_15\"":1875,"class_274":1876,"max":1877,"class_265":1878,"class_195\"":1879,"m-":1880,"3\"/>":1881,"nghost-sc":1882,"class_258\">":1883,"ed":1884,"quo":1885,"30":1886,"100%\">":1887,"ct-":1888,"class_261":1889,"class_276":1890,"id_33\">":1891,"pse":1892,"class_273":1893,"class_226\"":1894,"class_252\">":1895,"leng":1896,"mphtml":1897,"desc>":1898,"length":1899,"class_270":1900,"14\"":1901,"class_202\"":1902,"class_194\"":1903,"class_304":1904,"<title":1905,"class_198\"":1906,"class_223\"":1907,"class_190\"":1908,"elect>":1909,"<label>":1910,"class_302":1911,"class_204\"":1912,"<dl":1913,"class_278":1914,"class_272":1915,"29":1916,"class_196\"":1917,"class_205\"":1918,"class_281":1919,"br":1920,"</select>":1921,"id_16\"":1922,"320\"/>":1923,"id_34\">":1924,"class_269":1925,"class_197\"":1926,"-amphtml":1927,"-amphtml-":1928,"30\"":1929,"<figcaption":1930,"class_191\"":1931,"class_192\"":1932,"13\"":1933,"tive":1934,"class_364":1935,"class_331":1936,"<select":1937,"class_212\"":1938,"<main":1939,"class_179\"":1940,"lockquo":1941,"class_267":1942,"dding":1943,"<noscript":1944,"class_271\">":1945,"maxlength":1946,"id_35\">":1947,"class_208\"":1948,"fieldset":1949,"vf":1950,"id_36\">":1951,"padding":1952,"cellspacing":1953,"radio\"":1954,"class_264\">":1955,"uage":1956,"class_260\">":1957,"class_282":1958,"100\"":1959,"fil":1960,"class_225\"":1961,"class_239\"":1962,"vf-con":1963,"language":1964,"100%\"":1965,"fa":1966,"class_271":1967,"filter":1968,"onmousedown":1969,"class_328":1970,"mall":1971,"font/woff2\"/>":1972,"onload":1973,"cellpadding":1974,"id_22":1975,"ress":1976,"class_263\">":1977,"tabpanel":1978,"class_243\"":1979,"180\"":1980,"class_262\">":1981,"tio":1982,"id_17\"":1983,"class_279":1984,"class_203\"":1985,"id_37\">":1986,"preser":1987,"class_186\"":1988,"aria-selected":1989,"class_269\">":1990,"spec":1991,"id_38\">":1992,"class_200\"":1993,"class_261\">":1994,"lazy":1995,"class_268\">":1996,"28":1997,"class_199\"":1998,"vea":1999,"ts":2000,"class_305\">":2001,"tratio":2002,"class_206\"":2003,"preservea":2004,"spectratio":2005,"preserveaspectratio":2006,"class_365\">":2007,"id_39\">":2008,"aria-descri":2009,"roup":2010,"class_251\"":2011,"<figcaption>":2012,"aria-describe":2013,"60\"":2014,"elli":2015,"-opacity":2016,"aria-describedby":2017,"uni":2018,"onmouseover":2019,"ree":2020,"article\">":2021,"class_272\">":2022,"id_23":2023,"40\"/>":2024,"class_228\"":2025,"lot":2026,"allow":2027,"<h6>":2028,"dialog":2029,"class_224\"":2030,"class_285":2031,"class_245\"":2032,"group":2033,"tab\">":2034,"tern":2035,"50\"/>":2036,"class_214\"":2037,"id_18\"":2038,"11\"":2039,"res":2040,"<ol":2041,"checkbox\"/>":2042,"class_293":2043,"class_207\"":2044,"ddress":2045,"id_40\">":2046,"<fe":2047,"</fe":2048,"late":2049,"class_265\">":2050,"ng-ref":2051,"ng-refle":2052,"class_240\"":2053,"class_233\"":2054,"id_19\"":2055,"apple-touch-icon-precomposed\"":2056,"is":2057,"class_288":2058,"class_267\">":2059,"class_291":2060,"class_266\">":2061,"<small":2062,"id_24":2063,"75\"":2064,"id_20\"":2065,"class_276\">":2066,"class_209\"":2067,"<a>":2068,"translate":2069,"class_292":2070,"fill-opacity":2071,"galabel":2072,"gaaction":2073,"gacategory":2074,"id_41\">":2075,"class_211\"":2076,"ape":2077,"id_42\">":2078,"gradient":2079,"id_43\">":2080,"image/x-":2081,"class_201\"":2082,"id_23\"":2083,"</li":2084,"7\"/>":2085,"image/x-icon\"/>":2086,"class_284":2087,"neargradient>":2088,"</lineargradient>":2089,"<lineargradient":2090,"id_21":2091,"show":2092,"mod":2093,"class_303":2094,"class_270\">":2095,"1em":2096,"id_25":2097,"id_22\"":2098,"class_289":2099,"id_44\">":2100,"class_274\">":2101,"</t":2102,"class_283":2103,"center\"":2104,"tabpanel\">":2105,"class_238\"":2106,"class_231\"":2107,"class_281\">":2108,"units":2109,"id_21\"":2110,"class_336\">":2111,"ackgrou":2112,"application/json\">":2113,"60\"/>":2114,"class_282\">":2115,"</sup>":2116,"class_295":2117,"-c":2118,"module":2119,"class_278\">":2120,"<line":2121,"slot":2122,"gavalue":2123,"ng-if":2124,"</line>":2125,"id_26":2126,"id_45\">":2127,"<br":2128,"class_237\"":2129,"<dl>":2130,"class_217\"":2131,"class_279\">":2132,"track-":2133,"ackground":2134,"<section>":2135,"class_283\">":2136,"class_287":2137,"class_215\"":2138,"class_290":2139,"um":2140,"bl":2141,"sp":2142,"class_306":2143,"id_48\">":2144,"ord":2145,"bbr":2146,"class_300":2147,"id_46\">":2148,"23":2149,"iner":2150,"pro":2151,"class_275\">":2152,"150\"":2153,"class_287\">":2154,"id_47\">":2155,"class_298":2156,"class_220\"":2157,"class_218\"":2158,"class_230\"":2159,"class_392":2160,"100\"/>":2161,"</desc>":2162,"tainer":2163,"id_49\">":2164,"aria-level":2165,"<footer>":2166,"class_248\"":2167,"class_277\">":2168,"m_":2169,"class_297":2170,"class_273\">":2171,"class_294":2172,"id_27":2173,"router":2174,"id_50\">":2175,"ngcontent-sc17":2176,"ng-reflect-":2177,"author\">":2178,"48\"":2179,"template\">":2180,"home":2181,"class_293\">":2182,"class_219\"":2183,"fieldset>":2184,"font-":2185,"do":2186,"class_289\">":2187,"class_296":2188,"class_286":2189,"ngcontent-sc2":2190,"class_299":2191,"focus":2192,"class_309":2193,"id_54\">":2194,"code":2195,"ema":2196,"class_285\">":2197,"_c":2198,"author\"":2199,"lockquote>":2200,"ser":2201,"id_52\">":2202,"16\">":2203,"class_286\">":2204,"blur":2205,"27":2206,"page":2207,"email":2208,"class_229\"":2209,"ga-":2210,"id_53\">":2211,"class_394":2212,"id_51\">":2213,"frameborder":2214,"class_330\">":2215,"manu":2216,"id_25\"":2217,"class_330":2218,"center\">":2219,"manual":2220,"_cm_":2221,"manual_cm_":2222,"200\"":2223,"heading":2224,"id_28\"":2225,"id_24\"":2226,"class_280\">":2227,"id_29\"":2228,"150\"/>":2229,"class_305":2230,"cite>":2231,"class_329":2232,"class_327":2233,"prefetch\"/>":2234,"left\"":2235,"<phoenix-":2236,"</phoenix-":2237,"class_216\"":2238,"class_247\"":2239,"class_255\"":2240,"bj":2241,"class_332":2242,"class_311":2243,"search\">":2244,"event-":2245,"ion":2246,"id_28":2247,"vali":2248,"class_307":2249,"class_234\"":2250,"<dt":2251,"class_236\"":2252,"id_26\"":2253,"-ca":2254,"nima":2255,"per":2256,"class_292\">":2257,"</center>":2258,"class_290\">":2259,"manifest\"/>":2260,"matri":2261,"id_32\"":2262,"class_294\">":2263,"id_33\"":2264,"nav-":2265,"hidden\"/>":2266,"vers":2267,"class_301":2268,"99":2269,"class_246\"":2270,"id_55\">":2271,"anner":2272,"25\"":2273,"id_56\">":2274,"id_58\">":2275,"id_27\"":2276,"elements":2277,"class_254\"":2278,"matrix":2279,"class_325":2280,"id_29":2281,"header":2282,"<center>":2283,"s-count":2284,"versation":2285,"face":2286,"obj":2287,"class_310":2288,"sli":2289,"id_57\">":2290,"vf-conversation":2291,"ternal":2292,"vf-conversations-count":2293,"ment":2294,"100%\"/>":2295,"class_288\">":2296,"nable":2297,"external":2298,"id_59\">":2299,"-content":2300,"class_291\">":2301,"apple-touch-icon\"/>":2302,"ption":2303,"class_334":2304,"class_301\">":2305,"class_339\">":2306,"-image":2307,"pt-":2308,"class_303\"":2309,"play":2310,"class_356":2311,"ellipse":2312,"l-":2313,"image/jp":2314,"id_31\"":2315,"class_337":2316,"search\"":2317,"class_358":2318,"ddress>":2319,"class_304\">":2320,"16\"/>":2321,"description":2322,"24\">":2323,"class_350":2324,"id_60\">":2325,"bg":2326,"shape":2327,"id_61\">":2328,"u>":2329,"class_320":2330,"class_307\">":2331,"200\"/>":2332,"reg":2333,"class_284\">":2334,"menu-item":2335,"ult":2336,"class_362":2337,"n-":2338,"conten":2339,"class_360":2340,"s\"":2341,"class_303\">":2342,"class_308":2343,"id_30\"":2344,"300\"":2345,"class_333":2346,"26":2347,"class_339":2348,"9\"/>":2349,"ly":2350,"id_34\"":2351,"class_261\"":2352,"lazy-":2353,"d-":2354,"class_351":2355,"nonce":2356,"class_312":2357,"enable":2358,"class_324":2359,"class_335":2360,"<poly":2361,"id_30":2362,"</poly":2363,"<polyline":2364,"</polyline>":2365,"class_250\"":2366,"class_235\"":2367,"main\">":2368,"banner":2369,"region":2370,"class_314":2371,"-background":2372,"class_323":2373,"<ea-":2374,"</ea-":2375,"id_63\">":2376,"stop-opacity":2377,"id_64\">":2378,"id_66\">":2379,"class_342":2380,"class_349":2381,"<sup>":2382,"id_62\">":2383,"access":2384,"bgcolor":2385,"class_306\">":2386,"class_313":2387,"class_265\"":2388,"class_257\"":2389,"ull":2390,"class_227\"":2391,"class_258\"":2392,"class_344":2393,"ngcontent-sc76":2394,"33":2395,"id_35\"":2396,"class_302\">":2397,"lw":2398,"class_393\">":2399,"bar":2400,"class_299\">":2401,"scree":2402,"id_65\">":2403,"class_270\"":2404,"class_298\">":2405,"checked":2406,"ng-class":2407,"wlw":2408,"wlwmanifest":2409,"10\"/>":2410,"gt":2411,"class_252\"":2412,"class_315":2413,"enable-background":2414,"-type":2415,"onfocus":2416,"client":2417,"class_329\">":2418,"class_262\"":2419,"active":2420,"heading\">":2421,"class_253\"":2422,"class_311\">":2423,"rap":2424,"values":2425,"sizer":2426,"<f":2427,"</f":2428,"nore":2429,"section":2430,"class_269\"":2431,"1em\"":2432,"class_322":2433,"class_314\">":2434,"<amp-img":2435,"</amp-img":2436,"</amp-img>":2437,"link-":2438,"class_341":2439,"id_37\"":2440,"slide":2441,"class_312\">":2442,"class_346":2443,"class_328\">":2444,"group\">":2445,"22\"":2446,"-amphtml-sizer":2447,"class_321":2448,"id_67\">":2449,"400\"/>":2450,"class_295\">":2451,"</tbody>":2452,"28\"":2453,"bed":2454,"list\">":2455,"full":2456,"class_259\"":2457,"class_249\"":2458,"class_326\">":2459,"nmo":2460,"cur":2461,"screen":2462,"tin":2463,"class_260\"":2464,"500\"/>":2465,"class_327\">":2466,"class_309\">":2467,"37":2468,"start":2469,"id_36\"":2470,"fullscreen":2471,"class_277\"":2472,"class_343":2473,"class_338\">":2474,"class_340":2475,"id_68\">":2476,"class_263\"":2477,"class_297\">":2478,"class_347":2479,"banner\">":2480,"class_310\">":2481,"url>":2482,"class_316":2483,"bin":2484,"id_42\"":2485,"id_39\"":2486,"tig":2487,"-item":2488,"class_318":2489,"gradientunits":2490,"jtig":2491,"<html>":2492,"presentation\"/>":2493,"accesskey":2494,"jtignore":2495,"%\">":2496,"ngcontent-sc8":2497,"60px\"":2498,"jtignoreurl>":2499,"class_296\">":2500,"id_69\">":2501,"rity":2502,"class_336":2503,"class_332\">":2504,"ph":2505,"dialog\"":2506,"class_345":2507,"id_40\"":2508,"mode":2509,"class_355":2510,"noopener\">":2511,"-po":2512,"id_70\">":2513,"class_337\">":2514,"colormatrix":2515,"id_71\">":2516,"accept-":2517,"accept-charset":2518,"class_357":2519,"application/json":2520,"60px\">":2521,"class_323\">":2522,"120\"/>":2523,"id_72\">":2524,"class_338":2525,"id_74\">":2526,"option\"":2527,"ore":2528,"class_256\"":2529,"</blockquote>":2530,"right":2531,"class_361\">":2532,"class_365":2533,"0.":2534,"ix":2535,"rent":2536,"ps":2537,"live":2538,"class_308\">":2539,"id_73\">":2540,"ition":2541,"</fieldset>":2542,"id_44\"":2543,"transition":2544,"ng-show":2545,"embed":2546,"class_373":2547,"class_324\">":2548,"id_41\"":2549,"class_363":2550,"test":2551,"id_38\"":2552,"class_354":2553,"class_335\">":2554,"un":2555,"class_316\">":2556,"id_43\"":2557,"wrap":2558,"onmouseout":2559,"class_320\">":2560,"115\"":2561,"link\"":2562,"phx-":2563,"dit":2564,"group>":2565,"pref":2566,"class_321\">":2567,"track-id":2568,"phx-track-id":2569,"class_333\"":2570,"aria-live":2571,"35":2572,"bi":2573,"integ":2574,"class_363\">":2575,"<tbody>":2576,"id_75\">":2577,"row":2578,"class_352":2579,"//":2580,"-loa":2581,"class_359":2582,"prefix":2583,"integrity":2584,"i-amphtml-":2585,"class_366":2586,"70\"":2587,"link\"/>":2588,"shortlink\"/>":2589,"hide":2590,"38":2591,"class_453":2592,"routerlink":2593,"video>":2594,"class_302\"":2595,"<desc":2596,"ez":2597,"g-":2598,"onent":2599,"du":2600,"pp-":2601,"server":2602,"image/jpg\"/>":2603,"pos":2604,"800\"/>":2605,"allowfullscreen":2606,"id_76\">":2607,"90\"":2608,"inline":2609,"component":2610,"i-amphtml-layout":2611,"__":2612,"+o":2613,"embed\"/>":2614,"+oembed\"/>":2615,"class_300\">":2616,"class_315\">":2617,"bind":2618,"1.":2619,"t-":2620,"class_395\"":2621,"154\"/>":2622,"bu":2623,"contentin":2624,"contentinfo":2625,"-loader":2626,"class_322\"":2627,"20\">":2628,"32\"/>":2629,"id_45\"":2630,"class_372":2631,"class_317":2632,"class_374":2633,"colla":2634,"id_46\"":2635,"client-":2636,"result":2637,"contentinfo\">":2638,"<th>":2639,"20px\"":2640,"class_266\"":2641,"class_326":2642,"class_340\">":2643,"0px\"":2644,"ords":2645,"menta":2646,"email\"/>":2647,"class_361":2648,"class_376":2649,"menu\"":2650,"id_80\">":2651,"class_331\">":2652,"id_77\">":2653,"read":2654,"clippath":2655,"region\">":2656,"<video":2657,"manual_cm_sp":2658,"mentary":2659,"class_280\"":2660,"id_78\">":2661,"ing":2662,"class_313\">":2663,"v-if":2664,"class_369":2665,"search\"/>":2666,"nd.":2667,"<time>":2668,"vnd.":2669,"</address>":2670,"score":2671,"<area":2672,"element":2673,"complementary":2674,"coords":2675,"class_310\"":2676,"<nav>":2677,"text/html":2678,"id_47\"":2679,"template>":2680,"image/vnd.":2681,"ngcontent-sc47":2682,"on:":2683,"class_267\"":2684,"id_79\">":2685,"id_81\">":2686,"r-":2687,"</video>":2688,"elements-loader":2689,"new":2690,"text/template\">":2691,"</cite>":2692,"class_375":2693,"id_82\">":2694,"class_279\"":2695,"class_322\">":2696,"al-":2697,"24px\"":2698,"ngcontent-sc9":2699,"mu":2700,"clippath>":2701,"48\"/>":2702,"class_308\"":2703,"ngcontent-sc51":2704,"repe":2705,"repeat":2706,"ect":2707,"class_282\"":2708,"class_348":2709,"class_344\">":2710,"id_49\"":2711,"class_268\"":2712,"360\"/>":2713,"lege":2714,"class_332\"":2715,"</clippath>":2716,"class_297\"":2717,"class_319":2718,"class_367\">":2719,"press":2720,"ga-event-":2721,"class_318\">":2722,"48":2723,"17\"":2724,"collapse":2725,"class_379\">":2726,"nd>":2727,"cor":2728,"noreferrer\">":2729,"class_274\"":2730,"current":2731,"-ac":2732,"routerlinkactive":2733,"class_353":2734,"<clippath":2735,"go":2736,"class_371":2737,"class_285\"":2738,"id_83\">":2739,"id_51\"":2740,"onblur":2741,"id_50\"":2742,"class_333\">":2743,"class_326\"":2744,"class_386":2745,"id_34":2746,"class_264\"":2747,"id_33":2748,"600\"/>":2749,"id_84\">":2750,"class_368":2751,"id_98\">":2752,"bbr>":2753,"class_295\"":2754,"v-on:":2755,"id_89\">":2756,"mask>":2757,"00":2758,"</mask>":2759,"<mask":2760,"class_334\">":2761,"class_359\">":2762,"id_90\">":2763,"id_85\">":2764,"lz":2765,"class_294\"":2766,"tex":2767,"can":2768,"rep":2769,"context":2770,"class_275\"":2771,"tarea":2772,"id_35":2773,"textarea":2774,"id_48\"":2775,"class_325\">":2776,"</template>":2777,"class_367":2778,"class_287\"":2779,"class_426":2780,"test-id":2781,"dis":2782,"</abbr>":2783,"class_323\"":2784,"640\"/>":2785,"scro":2786,"ng-transition":2787,"://":2788,"rd":2789,"ng-click":2790,"text>":2791,"id_37":2792,"tile":2793,"te-":2794,"org":2795,"class_380":2796,"class_378":2797,"id_86\">":2798,"id_87\">":2799,"id_36":2800,"290\"/>":2801,"class_288\"":2802,"https":2803,"39":2804,"34":2805,"class_304\"":2806,"id_53\"":2807,"class_379":2808,"lazyload":2809,"<abbr":2810,"su":2811,"id_88\">":2812,"></a>":2813,"class_342\">":2814,"b-":2815,"class_319\">":2816,"mask-":2817,"class_377":2818,"https://":2819,"id_91\">":2820,"360\"":2821,"64\"":2822,"class_291\"":2823,"tool":2824,"class_381":2825,"class_329\"":2826,"c-":2827,"opt":2828,"api":2829,"id_58\"":2830,"class_272\"":2831,"class_375\">":2832,"id_52\"":2833,"docu":2834,"dialog\">":2835,"id_57\"":2836,"back":2837,"class_292\"":2838,"class_271\"":2839,"class_358\">":2840,"id_55\"":2841,"xml:lang":2842,"class_376\">":2843,"hot":2844,"class_281\"":2845,"class_319\"":2846,"mask-icon\"/>":2847,"ler":2848,"/\"/>":2849,"object":2850,".org":2851,"class_388":2852,"lid":2853,"id_59\"":2854,"class_353\">":2855,"tribu":2856,"ngcontent-sc3":2857,"id_92\">":2858,"147\"":2859,".w":2860,"mobi":2861,"24\"/>":2862,"display":2863,"class_384":2864,"onkey":2865,"tainer-id":2866,"class_278\"":2867,"tribute":2868,"57":2869,"id_93\">":2870,"nimate":2871,"ment\">":2872,"canva":2873,"hotrep":2874,"yg-":2875,"<template":2876,"moda":2877,"15\"/>":2878,"400\"":2879,"class_317\">":2880,"text/x-":2881,"class_404":2882,"api.w":2883,".org/\"/>":2884,"api.w.org/\"/>":2885,"left\">":2886,"https://api.w.org/\"/>":2887,"muted":2888,"id_95\">":2889,"us":2890,"attribute":2891,"file":2892,"ale":2893,"class_306\"":2894,"id_54\"":2895,"classname":2896,"scrol":2897,"</u>":2898,"video/":2899,"loop":2900,"class_370":2901,"id_56\"":2902,"id_94\">":2903,"50":2904,"id_65\"":2905,"169\"":2906,"26\"":2907,"aria-current":2908,"class_360\">":2909,"250\"":2910,"ub>":2911,"id_96\">":2912,"ssi":2913,"id_97\">":2914,"35\"":2915,"-sub":2916,"_src":2917,"36\"":2918,"is-":2919,"kb":2920,"ling":2921,"class_390":2922,"eza":2923,"it":2924,"class_403":2925,"class_357\"":2926,"y-menu-item":2927,"125\"":2928,"id_99\">":2929,"id_31":2930,".4\"":2931,"class_307\"":2932,"class_341\">":2933,"vf-container-id":2934,"scrolling":2935,"<vf-conversations-count":2936,"</vf-conversations-count":2937,"com":2938,"coun":2939,"</vf-conversations-count>":2940,"class_364\">":2941,"40":2942,"dur":2943,"aria-role":2944,"listbox":2945,"class_355\">":2946,"ngcontent-sc1":2947,"document\">":2948,"<animate":2949,"aly":2950,"attributename":2951,"120\"":2952,"word":2953,"class_283\"":2954,"option\">":2955,"repeatcount":2956,"jj":2957,"aria-disabled":2958,"yg-server":2959,"class_349\">":2960,"1200\"/>":2961,"class_276\"":2962,"oft":2963,"pass":2964,"sition":2965,"clip-":2966,"ngcontent-c":2967,"an-":2968,"33\"":2969,"soft":2970,"49":2971,"32\">":2972,"<ellipse":2973,"</ellipse":2974,"class_399":2975,"produ":2976,"</ellipse>":2977,"clip-path":2978,"class_378\">":2979,"id_60\"":2980,"text/html\">":2981,"46":2982,"ngcontent-sc61":2983,"poli":2984,"450\"":2985,"class_346\">":2986,"id_100\">":2987,"class_400":2988,"27\"":2989,"id_61\"":2990,"micro":2991,"class_347\">":2992,"18\"/>":2993,"sel":2994,"class_382\">":2995,"ngcontent-sc20":2996,"headers":2997,"240\"/>":2998,"class_350\">":2999,"id_38":3000,"class_343\">":3001,"class_383":3002,"class_362\">":3003,"font-size":3004,"psi":3005,"id_62\"":3006,"ms":3007,"class_368\">":3008,"class_456\"":3009,"so":3010,"password":3011,"this":3012,"id_102\">":3013,"ngcontent-sc56":3014,"19\"":3015,"</in":3016,"class_273\"":3017,"datatype":3018,"class_385":3019,"oncontext":3020,"microsoft":3021,"oncontextmenu":3022,"12\"/>":3023,"microsoft.":3024,"image/vnd.microsoft.":3025,"class_372\">":3026,"id_101\">":3027,"image/vnd.microsoft.icon\"/>":3028,"pub":3029,"rousel":3030,"class_313\"":3031,"legend>":3032,"class_405":3033,"profile":3034,"class_397":3035,"<ins":3036,"</span><span":3037,"</anima":3038,"-link>":3039,"</ins>":3040,"class_290\"":3041,"id_63\"":3042,"cwidth":3043,"class_335\"":3044,"140\"/>":3045,"</animate>":3046,"rimar":3047,"id_32":3048,"id_103\">":3049,"UR":3050,"class_381\">":3051,"id_64\"":3052,"ussi":3053,"nomodule":3054,"class_354\">":3055,"id_39":3056,"gaussi":3057,"anblur":3058,"gaussianblur":3059,"tab\"":3060,"class_300\"":3061,"class_366\">":3062,"-picture>":3063,"-w":3064,"47":3065,"<desc>":3066,"class_336\"":3067,"alytic":3068,"ter-":3069,"class_345\">":3070,"class_371\">":3071,"class_382":3072,"countr":3073,"i-":3074,"te\"":3075,"loak":3076,"cloak":3077,"id_70\"":3078,"id_104\">":3079,"<button>":3080,"ture":3081,"d+xml\"/>":3082,"class_385\">":3083,"-content-sc":3084,"yg-server-content-sc":3085,"sd+xml\"/>":3086,"application/rsd+xml\"/>":3087,"30\"/>":3088,"class_380\">":3089,"Edit":3090,"I\"":3091,"URI\"":3092,"EditURI\"":3093,"only":3094,"class_334\"":3095,"rge":3096,"right\"":3097,"class_351\">":3098,"id_66\"":3099,"class_299\"":3100,"id_105\">":3101,"di>":3102,"id_107\">":3103,"</text>":3104,"tab-":3105,"class_357\">":3106,"<blockquo":3107,"180\"/>":3108,"<blockquote":3109,"id_69\"":3110,"id_106\">":3111,"class_387":3112,"toolti":3113,"85\"":3114,"<ol>":3115,"ad":3116,"num":3117,"class_383\">":3118,"page\"":3119,"id_67\"":3120,"home\"":3121,"dp":3122,"oplay":3123,"application/wlwmanifest":3124,"wlwmanifest\"":3125,"application/wlwmanifest+xml\"/>":3126,"class_296\"":3127,"itemid":3128,"rs-":3129,"class_356\">":3130,"45":3131,"class_325\"":3132,"autoplay":3133,"<u>":3134,"class_331\"":3135,"class_398":3136,"ellipsi":3137,"dation":3138,"class_395":3139,"mobile-":3140,"tablist\">":3141,"ngcontent-sc12":3142,"class_380\"":3143,"id_108\">":3144,"dle":3145,"class_328\"":3146,"id_109\">":3147,"gtm-":3148,"class_352\">":3149,"id_68\"":3150,"id_71\"":3151,"14\">":3152,"1em\">":3153,"350\"/>":3154,"link\">":3155,"class_286\"":3156,"class_348\">":3157,"<i-amphtml-sizer":3158,"</i-amphtml-sizer":3159,"class_301\"":3160,"class_318\"":3161,"class_424":3162,"loca":3163,"radio\"/>":3164,"</i-amphtml-sizer>":3165,"tor":3166,"class_384\">":3167,"id_40":3168,"id_110\">":3169,"ved":3170,"<li><a":3171,"sinline":3172,"</sub>":3173,"mage":3174,"application/javascript\">":3175,"level-":3176,"70\"/>":3177,"class_393":3178,"polite\"":3179,"-at":3180,"k-":3181,"bind:":3182,"90\"/>":3183,"<cite>":3184,"class_373\">":3185,"class_377\">":3186,"class_389":3187,"plain":3188,"add":3189,"class_309\"":3190,"class_312\"":3191,"cordi":3192,"66":3193,"pat":3194,"203\"":3195,"class_379\"":3196,"%\"":3197,"-attr":3198,"ink":3199,"44":3200,"text/plain":3201,"class_391":3202,"-article":3203,"21\"":3204,"cr":3205,"class_370\">":3206,"<text":3207,"-src":3208,"om-":3209,"class_305\"":3210,"class_401":3211,"elid":3212,"manual_cm_re":3213,"id_74\"":3214,"</fjtignoreurl>":3215,"56":3216,"id_111\">":3217,"validate":3218,"<fjtignoreurl>":3219,"cordion":3220,"node":3221,"ead":3222,"class_402":3223,"nce":3224,"class_293\"":3225,"id_75\"":3226,"id_113\">":3227,"ngcontent-sc49":3228,"class_369\">":3229,"id_80\"":3230,"v-bind:":3231,"nge":3232,"class_289\"":3233,"addthis":3234,"gj":3235,"gjalog":3236,"ase":3237,"video/mp":3238,"remo":3239,"class_311\"":3240,"id_72\"":3241,"id_114\">":3242,"playsinline":3243,"text-":3244,"id_112\">":3245,"<fecolormatrix":3246,"</fecolormatrix":3247,"</fecolormatrix>":3248,"merge":3249,"objid":3250,"<fieldset":3251,"id_73\"":3252,"code>":3253,"email\"":3254,"ive":3255,"tree":3256,"or-":3257,"addthis:":3258,"65":3259,"novalidate":3260,"text/plain\">":3261,"23\"":3262,"mic":3263,"10\">":3264,"class_409":3265,"svg":3266,"<address":3267,"external\">":3268,"-pos":3269,"74":3270,"id_78\"":3271,"block":3272,"drop":3273,"id_77\"":3274,"class_419":3275,"class_315\"":3276,"class_377\"":3277,"class_433":3278,"1280\"/>":3279,"class_476":3280,"250\"/>":3281,"class_438":3282,"id_76\"":3283,"modal":3284,"aria-roledescription":3285,"archive":3286,"application/json\"/>":3287,"80":3288,"olved":3289,"class_351\"":3290,"cust":3291,"620\"/>":3292,"nowrap":3293,"archives\"":3294,"resolved":3295,"unresolved":3296,"filter>":3297,"<fieldset>":3298,"aria-required":3299,"class_417":3300,"id_117\">":3301,"class_391\">":3302,"</filter>":3303,"cha":3304,"class_408":3305,"<filter":3306,"160\"/>":3307,"id_115\">":3308,"45\"":3309,"class_340\"":3310,"id_116\">":3311,"34\"":3312,"class_418":3313,"map":3314,"65\"":3315,"class_317\"":3316,"id_121\">":3317,"-to":3318,"we":3319,"ments":3320,"article\"":3321,"pattern":3322,"id_79\"":3323,"alert":3324,"sid":3325,"onsubmit":3326,"the":3327,"para":3328,"class_396":3329,"ontouch":3330,"0.75\"":3331,"tooltip":3332,"-in":3333,"id_120\">":3334,"ontouchstart":3335,"75\"/>":3336,"br>":3337,"treeitem":3338,"marg":3339,"id_118\">":3340,"video/mp4\"/>":3341,"margin":3342,"var":3343,"super":3344,"apple-touch-icon-precomposed\"/>":3345,"application/json+oembed\"/>":3346,"<app-":3347,"</app-":3348,"v-on:click":3349,"class_421":3350,"class_374\">":3351,"class_407":3352,"id_82\"":3353,"-container":3354,"remote":3355,"one":3356,"class_430":3357,"36\"/>":3358,"module\">":3359,"object>":3360,"id_124\">":3361,"Ã":3362,"text/xml":3363,"js-":3364,"class_387\">":3365,"124\"":3366,"readcr":3367,"readcrum":3368,"76":3369,"class_365\"":3370,"hoenix":3371,"carousel":3372,"_title":3373,"atremote":3374,"-whe":3375,"country":3376,"text/xml+oembed\"/>":3377,"</li><li><a":3378,"class_422":3379,"id_122\">":3380,"complementary\"":3381,"class_330\"":3382,"id_81\"":3383,"id_119\">":3384,"174\"":3385,"hoenix-picture>":3386,"class_337\"":3387,"class_341\"":3388,"160\"":3389,"id_123\">":3390,"<head":3391,"-breadcrum":3392,"bar\">":3393,"<sup":3394,"font/woff\"/>":3395,"hi":3396,"ki":3397,"class_415":3398,"600\"":3399,"id_128\">":3400,"profile\"/>":3401,"dyna":3402,"tracking":3403,"class_411":3404,"class_471":3405,"2000\"/>":3406,"rimary-":3407,"-re":3408,"change":3409,"class_339\"":3410,"id_125\">":3411,"class_316\"":3412,"class_446":3413,"176":3414,"<blockquote>":3415,"id_85\"":3416,"class_321\"":3417,"class_346\"":3418,"id_127\">":3419,"25\"/>":3420,"class_386\">":3421,"15\">":3422,"site-":3423,"open":3424,"password\"/>":3425,"-when-":3426,"ali":3427,"class_420":3428,"home\">":3429,"<client-":3430,"</client-":3431,"ngcontent-sc21":3432,"75":3433,"id_83\"":3434,"class_412":3435,"<ea-elements-loader":3436,"</ea-elements-loader":3437,"</ea-elements-loader>":3438,"280\"/>":3439,"-an":3440,"gradienttransform":3441,"18\">":3442,"weight":3443,"id_126\">":3444,"class_342\"":3445,"<sub":3446,"ngcontent-sc14":3447,"id_129\">":3448,"30\">":3449,"sha":3450,"font-weight":3451,"alytics-":3452,"complementary\">":3453,"slide\"":3454,"hide-sub":3455,"-when-collapse":3456,"hide-sub-when-collapse":3457,"n>":3458,"id_130\">":3459,"-link-":3460,"class_490\">":3461,"id_86\"":3462,"54\"":3463,"</legend>":3464,"class_298\"":3465,"id_131\">":3466,"tile-pos":3467,"<nmo":3468,"ass":3469,"</nmo":3470,"er>":3471,"class_455\"":3472,"-s":3473,"class_425":3474,"lback":3475,"tea":3476,"jss":3477,"class_459":3478,"onkeypress":3479,"class_327\"":3480,"id_84\"":3481,"validation":3482,"external\"":3483,"500\"":3484,"gdp":3485,"-cart":3486,"-nav-":3487,"12\">":3488,"class_413":3489,"class_416":3490,"class_457\">":3491,"class_403\">":3492,"1-":3493,"480\"/>":3494,"ngcontent-sc10":3495,"class_436":3496,"class_410":3497,"class_414":3498,"is-lazy":3499,"product-":3500,"opin":3501,"class_571":3502,"id_87\"":3503,"lz_src":3504,"ting":3505,"-add":3506,"64":3507,"mq":3508,"class_358\"":3509,"14\"/>":3510,"router-link":3511,"textarea>":3512,"-icon":3513,"class_362\"":3514,"tile-":3515,"class_349\"":3516,"cc":3517,"fami":3518,"teaser":3519,"id_90\"":3520,"id_91\"":3521,"background":3522,"class_314\"":3523,"class_352\"":3524,"id_136\">":3525,"id_135\">":3526,"class_338\"":3527,"<base":3528,"class_398\">":3529,"225\"":3530,"nopin":3531,"wi":3532,"-to-cart":3533,"family":3534,"l-b":3535,"class_443":3536,"id_133\">":3537,"221\"/>":3538,"alert\">":3539,"link-id":3540,"12px\"":3541,"id_137\">":3542,"<main>":3543,"ng-cloak":3544,"id_132\">":3545,"track-add":3546,"readonly":3547,"track-add-to-cart":3548,"font-family":3549,"rd>":3550,"</textarea>":3551,"class_343\"":3552,"ng-reflect-router-link":3553,"</no":3554,"class_423":3555,"class_396\">":3556,"class_454":3557,"96\"":3558,"vari":3559,"class_487":3560,"id_92\"":3561,"id_93\"":3562,"log":3563,"id_134\">":3564,"class_392\">":3565,"id_169\">":3566,"gdpr":3567,"<amp-":3568,"</amp-":3569,"flow":3570,"<image":3571,"class_461\">":3572,"fallback":3573,"id_88\"":3574,"22\">":3575,"class_412\">":3576,"class_435":3577,"ago":3578,"ertive":3579,"class_479":3580,"poster":3581,"assertive":3582,"class_452":3583,"ngcontent-sc93":3584,"56\"":3585,"42\"":3586,"<address>":3587,"class_406":3588,"menu-level":3589,"tab-index":3590,"<textarea":3591,"timeago":3592,"class_359\"":3593,"ngcontent-sc16":3594,"tom":3595,"gtm":3596,"2.":3597,"class_400\">":3598,"colum":3599,"lzimg":3600,"</th":3601,"class_402\"":3602,"jsname":3603,"overflow":3604,"</tspan>":3605,"ngcontent-sc319":3606,"assertive\"":3607,"class_424\">":3608,"class_363\"":3609,"class_431":3610,"class_518":3611,"ng-href":3612,"ng-bind":3613,"id_138\">":3614,"</thead>":3615,"ngcontent-":3616,"rowspan":3617,"uid":3618,"class_489\">":3619,"id_141\">":3620,"<tspan":3621,"ha":3622,"scape":3623,"times":3624,"ngcontent-sc214":3625,"class_442":3626,"box-":3627,"class_573\">":3628,"></a></li><li><a":3629,"90":3630,"flo":3631,"id_89\"":3632,"17px\"":3633,"optgroup>":3634,"id_139\">":3635,"-button":3636,"class_395\">":3637,"LE":3638,"class_348\"":3639,"cite":3640,"up-image":3641,"apple-touch-start":3642,"132\"":3643,"apple-touch-startup-image":3644,"44\"":3645,"</optgroup>":3646,"class_485\">":3647,"class_488\"":3648,"id_142\">":3649,"31\"":3650,"edit":3651,"class_428":3652,"1920\"/>":3653,"optgroup":3654,"280\"":3655,"-primary-":3656,"keytimes":3657,"<optgroup":3658,"id_94\"":3659,"id_97\"":3660,"232\"/>":3661,"menubar\">":3662,"treeitem\">":3663,"id_45":3664,"kbd>":3665,"class_402\">":3666,"select":3667,"38\"":3668,"T\"":3669,"1763\"/>":3670,"ze":3671,"let":3672,"class_429":3673,"dropdown":3674,"class_373\"":3675,"class_473":3676,"listbox\"":3677,"inkscape":3678,"-text":3679,"otype":3680,"invali":3681,"image/svg":3682,"class_445":3683,"jsaction":3684,"cta":3685,"notranslate":3686,"chil":3687,"class_434\">":3688,"-pro":3689,"id_140\">":3690,"130\"/>":3691,"720\"":3692,"class_467":3693,"uk-":3694,"container":3695,"class_344\"":3696,"id_143\">":3697,"accordion":3698,"220\"":3699,"58":3700,"<table>":3701,"class_399\">":3702,"class_404\">":3703,"ngcontent-sc99":3704,"id_96\"":3705,"canvas>":3706,"1px\"":3707,"class_451":3708,"id_145\">":3709,"80\">":3710,"16px\"":3711,"custom-":3712,"class_441":3713,"inline-":3714,"lace":3715,"isus":3716,"isgdpr":3717,"pers":3718,"inkscape:":3719,"class_417\">":3720,"invalid":3721,"target-attr":3722,"menu_":3723,"-position":3724,"class_320\"":3725,"class_405\">":3726,"class_486\">":3727,"17\"/>":3728,"-name":3729,"</canvas>":3730,"class_350\"":3731,"class_444":3732,"-link-primary-":3733,"menu-item-link-primary-":3734,"canvas":3735,"mergenode":3736,"menu-item-link-primary-level-":3737,"70":3738,"l\">":3739,"class_347\"":3740,"class_570\">":3741,"id_144\">":3742,"disableweb":3743,"tmp":3744,"hoto":3745,"image/jp2\"/>":3746,"class_356\"":3747,"class_572\"":3748,"65\"/>":3749,"class_427":3750,"disablewebedit":3751,"ngcontent-sc18":3752,"class_466":3753,"</kbd>":3754,"ne-":3755,"apple-touch-startup-image\"/>":3756,"<canvas":3757,"min":3758,"id_46":3759,"id_98\"":3760,"55":3761,"ant":3762,"<aside>":3763,"class_458":3764,"14px\"":3765,"model":3766,"3.":3767,"tax":3768,"class_390\">":3769,"class_477\">":3770,"id_95\"":3771,"class_388\"":3772,"13\"/>":3773,"s_":3774,"<hy-menu-item":3775,"</hy-menu-item":3776,"button-breadcrum":3777,"class_360\"":3778,"class_454\">":3779,"menu-link-id":3780,"menu-button-breadcrum":3781,"page-":3782,"b-main":3783,"</hy-menu-item>":3784,"menu-button-breadcrumb-main":3785,"_up":3786,"class_423\">":3787,"class_508":3788,"<thead>":3789,"udi":3790,"tag1>":3791,"FT\"":3792,"mid":3793,"config":3794,"id_146\">":3795,"130\"":3796,"code_up":3797,"LEFT\"":3798,"notranslate_title":3799,"code_upper":3800,"aria-modal":3801,"id_47":3802,"ori":3803,"class_407\"":3804,"id_99\"":3805,"variant":3806,"class_345\"":3807,"class_432":3808,"id_102\"":3809,"da-":3810,"class_450":3811,"-place":3812,"id_148\">":3813,"240\"":3814,"lazy-image":3815,"ngcontent-sc48":3816,"post":3817,"64\"/>":3818,"filterunits":3819,"ab":3820,"class_361\"":3821,"159\"":3822,"300\">":3823,"tjj":3824,"class_459\">":3825,"class_521":3826,"id_101\"":3827,"tjjj":3828,"ai":3829,"aria-invalid":3830,"class_353\"":3831,"class_434":3832,"class_447":3833,"54":3834,"amp-":3835,"rid":3836,"id_44":3837,"id_100\"":3838,"id_149\">":3839,"ngcontent-sc52":3840,"tt-":3841,"id_103\"":3842,"link-validation":3843,"</object>":3844,"109\"":3845,"offset>":3846,"id_151\">":3847,"class_397\">":3848,"auto\"":3849,"992\"":3850,"class_389\">":3851,"class_478\">":3852,"</bdi>":3853,"184\"":3854,"<cite":3855,"id_50":3856,"class_518\"":3857,"-ad":3858,"an-ca":3859,"an-ac":3860,"ngcontent-sc54":3861,"an-la":3862,"an-tr":3863,"62":3864,"class_537\">":3865,"class_655":3866,"analytics-":3867,"cq":3868,"devi":3869,"class_324\"":3870,"28.4\"":3871,"zone":3872,"id_105\"":3873,"mary":3874,"145\"/>":3875,"id_147\">":3876,"ummary":3877,"child-":3878,"class_406\">":3879,"id_163\">":3880,"application/open":3881,"searchdescription":3882,"udio":3883,"application/opensearchdescription":3884,"application/opensearchdescription+xml\"/>":3885,"188\"":3886,"onchange":3887,"id_49":3888,"class_439":3889,"middle":3890,"<kb":3891,"class_480\">":3892,"<kbd":3893,"ditable":3894,"class_409\">":3895,"disable-":3896,"matrix\"":3897,"re>":3898,"class_484":3899,"id_104\"":3900,"125\"/>":3901,"id_150\">":3902,"id_152\">":3903,"publi":3904,"dash":3905,"328\"/>":3906,"54\">":3907,"class_381\"":3908,"next":3909,"id_106\"":3910,"stat":3911,"grid":3912,"ontrol":3913,"class_410\">":3914,"72\"":3915,"enter":3916,"class_396\"":3917,"id_48":3918,"class_458\">":3919,"cid":3920,"jsc":3921,"class_460":3922,"tag\"":3923,"ontroller":3924,"jscontroller":3925,"fr":3926,"teditable":3927,"contenteditable":3928,"></textarea>":3929,"port":3930,"class_355\"":3931,"ddevi":3932,"hspace":3933,"class_370\"":3934,"stddevi":3935,"id_153\">":3936,"stddeviation":3937,"class_463":3938,"frag":3939,"id_115\"":3940,"fb":3941,"class_439\">":3942,"checker":3943,"<fegaussianblur":3944,"</fegaussianblur":3945,"</fegaussianblur>":3946,"-title":3947,"om":3948,"ping":3949,"mega":3950,"class_389\"":3951,"defa":3952,"ga-event-category":3953,"class_367\"":3954,"class_474\">":3955,"class_388\">":3956,"x-cq":3957,"-linkchecker":3958,"x-cq-linkchecker":3959,"listbox\">":3960,"pubdate":3961,"rs-lay":3962,"output":3963,"id_156\">":3964,"7.":3965,"class_469":3966,"id_154\">":3967,"default":3968,"35\"/>":3969,"class_440":3970,"air-":3971,"stroke-dash":3972,"id_155\">":3973,"scoped":3974,"nghost-sc7":3975,"image\"":3976,"cf":3977,"card":3978,"id_111\"":3979,"middle\"":3980,"class_481\">":3981,"Ã":3982,"class_536\">":3983,"theme":3984,"98\"":3985,"id_107\"":3986,"right\">":3987,"class_482\">":3988,"id_118\"":3989,"id_119\"":3990,"-o":3991,"acpos":3992,"ellipsis>":3993,"</code>":3994,"vision":3995,"class_483\">":3996,"id_108\"":3997,"id_113\"":3998,"id_112\"":3999,"vspace":4000,"class_410\"":4001,"ming":4002,"id_109\"":4003,"pressed":4004,"-track":4005,"39\"":4006,"8.":4007,"amp":4008,"tifi":4009,"aria-pressed":4010,"back\"/>":4011,"pingback\"/>":4012,"class_411\">":4013,"CA":4014,"ita":4015,"class_372\"":4016,"class_414\">":4017,"id_160\">":4018,"icon-fallback":4019,"eature":4020,"class_437":4021,"class_462":4022,"</phoenix-ellipsis>":4023,"tmpl\">":4024,"900\"":4025,"id_110\"":4026,"id_158\">":4027,"id_157\">":4028,"class_366\"":4029,"</feoffset>":4030,"index>":4031,"id_161\">":4032,"260\"/>":4033,"86\"":4034,"class_416\">":4035,"ngcontent-sc57":4036,"ellipsis":4037,"position":4038,"230\"":4039,"tt":4040,"class_354\"":4041,"class_364\"":4042,"ngcontent-sc30":4043,"class_426\"":4044,"class_482":4045,"ngcontent-sc74":4046,"<phoenix-ellipsis":4047,"-item>":4048,"class_484\">":4049,"ng-reflect":4050,"han":4051,"69":4052,"TI":4053,"class_658":4054,"-on":4055,"timing":4056,"class_398\"":4057,"class_478":4058,"class_489":4059,"350\"":4060,"tj":4061,"card>":4062,"publishe":4063,"-4":4064,"class_427\">":4065,"id_159\">":4066,"28\">":4067,"29\"":4068,"46\"":4069,"800\"":4070,"<de":4071,"es":4072,"</de":4073,"class_541\"":4074,"ngcontent-sc50":4075,"id_116\"":4076,"id_120\"":4077,"ments-":4078,"-slide":4079,"59":4080,"class_464":4081,"elementtiming":4082,"class_408\">":4083,"ga-event-label":4084,"cle":4085,"en":4086,"sche":4087,"class_483":4088,"id_162\">":4089,"220\"/>":4090,"68\"":4091,"lize":4092,"acnum":4093,"comments-":4094,"78\"":4095,"class_460\">":4096,"lazy-load":4097,"var>":4098,"ngcontent-sc13":4099,"class_443\">":4100,"bot":4101,"class_421\">":4102,"170\"":4103,"spon":4104,"ber":4105,"class_455":4106,"-photo":4107,"id_166\">":4108,"image/vnd.ms":4109,"-photo\"/>":4110,"image/vnd.ms-photo\"/>":4111,"25\">":4112,"68":4113,"tion-":4114,"class_374\"":4115,"class_420\">":4116,"class_487\">":4117,"class_491\">":4118,"menu-item-link-primary-level-3":4119,"ona":4120,"class_401\">":4121,"link-text":4122,"210\"":4123,"class_413\">":4124,"class_422\">":4125,"ga-event-action":4126,"0px\"/>":4127,"id_114\"":4128,"id_117\"":4129,"class_473\">":4130,"class_465":4131,"autocor":4132,"lazy-srcset":4133,"autocorrect":4134,"class_461":4135,"class_519\"":4136,"capita":4137,"-aut":4138,"<col":4139,"class_474":4140,"class_496":4141,"autocapita":4142,"ing-":4143,"</hgroup>":4144,"ray":4145,"id_167\">":4146,"uthor>":4147,"autocapitalize":4148,"in2":4149,"premi":4150,"ngcontent-sc73":4151,"av":4152,"class_430\">":4153,"app-c":4154,"id_121\"":4155,"serverapp-c":4156,"class_394\">":4157,"id_123\"":4158,"ngcontent-sc92":4159,"-active":4160,"00\">":4161,"tent":4162,"gtm-name":4163,"premium":4164,"-teaser":4165,"54\"/>":4166,"ms-":4167,"mess":4168,"class_450\"":4169,"id_168\">":4170,"25.4\"":4171,"lazyimage":4172,"260\"":4173,"text\">":4174,"class_500":4175,"-f":4176,"22\"/>":4177,"enc":4178,"que":4179,"array":4180,"id_165\">":4181,"282\"/>":4182,"dynamic":4183,"puse":4184,"llcheck":4185,"class_416\"":4186,"1080\"":4187,"id_164\">":4188,"spellcheck":4189,"text-color":4190,"mappuse":4191,"frmappuse":4192,"class_435\">":4193,"class_449":4194,"addthis:url":4195,"handle":4196,"enctype":4197,"class_497":4198,"lazy-src":4199,"6.":4200,"class_437\">":4201,"class_472\"":4202,"mqn-":4203,"53\"":4204,"id_126\"":4205,"class_393\"":4206,"270\"":4207,"stroke-dasharray":4208,"handlebar":4209,"53":4210,"id_122\"":4211,"291\"/>":4212,"310\"/>":4213,"class_435\"":4214,"abs":4215,"40\">":4216,"part":4217,"orta":4218,"class_432\">":4219,"480\"":4220,"message":4221,"class_472":4222,"320\"":4223,"79":4224,"class_436\">":4225,"id_132\"":4226,"class_442\">":4227,"135\"":4228,"id_170\">":4229,"<feoffset":4230,"<bdi>":4231,"id_43":4232,"193\"/>":4233,"air-module":4234,"class_399\"":4235,"class_456\">":4236,"17\">":4237,"oi":4238,"class_407\">":4239,"class_400\"":4240,"submenu-":4241,"text/x-handlebar":4242,"class_378\"":4243,"id_58":4244,"ga-on":4245,"ngcontent-serverapp-c":4246,"sponso":4247,"ry-":4248,"id_124\"":4249,"navbar":4250,"class_428\">":4251,"class_448":4252,"class_485":4253,"140\"":4254,"<nobr>":4255,"</nobr>":4256,"_url":4257,"1024\"/>":4258,"soci":4259,"addthis:title":4260,"US":4261,"}\"":4262,"links":4263,"id_59":4264,"class_441\">":4265,"id_127\"":4266,"flood":4267,"-url":4268,"get":4269,"id_60":4270,"155\"":4271,"s-template\">":4272,"77\"":4273,"mat-":4274,"class_418\">":4275,"id_125\"":4276,"<w":4277,"gb":4278,"opy":4279,"class_516":4280,"product":4281,"yg-server-content-sc15":4282,"218\"/>":4283,"qid":4284,"chor":4285,"170\"/>":4286,"id_171\">":4287,"locator":4288,"v-bind:class":4289,"ccpa":4290,"class_427\"":4291,"class_448\">":4292,"tile-poster":4293,"-opt-":4294,"413\"":4295,"</phoenix-picture>":4296,"class_426\">":4297,"score-type":4298,"score-place":4299,"image_src":4300,"light":4301,"id_176\">":4302,"sponsored":4303,"ccpa-opt-":4304,"ccpa-opt-out":4305,"85\"/>":4306,"960\"/>":4307,"class_394\"":4308,"class_491":4309,"text/x-handlebars-template\">":4310,"11\">":4311,"88\"":4312,"ato":4313,"class_449\">":4314,"gb_":4315,"lt":4316,"owns":4317,"class_382\"":4318,"class_433\">":4319,"id_172\">":4320,"</var>":4321,"class_415\">":4322,"news-":4323,"tail":4324,"aria-ato":4325,"st-":4326,"star-":4327,"score-id":4328,"aria-atomic":4329,"<phoenix-picture>":4330,"13.":4331,"id_174\">":4332,"legend":4333,"<legend":4334,"aria-owns":4335,"class_456":4336,"<phoenix-super":4337,"</phoenix-super":4338,"</phoenix-card>":4339,"star-ra":4340,"<phoenix-super-link":4341,"</phoenix-super-link>":4342,"class_505":4343,"controller":4344,"id_129\"":4345,"id_133\"":4346,"id_144\"":4347,"spacing-":4348,"55\"":4349,":search":4350,"<code>":4351,"Nav":4352,"site":4353,"class_477":4354,"/tmpl\">":4355,"26\">":4356,"210\"/>":4357,"cse":4358,"igh":4359,"class_572":4360,"tabpanel\"":4361,"cse:search":4362,"-button>":4363,"ke":4364,"1333\"":4365,"225\"/>":4366,"image/svg+xml\"/>":4367,"ave":4368,"class_404\"":4369,"id_175\">":4370,"id_173\">":4371,"content-":4372,"FY":4373,"JUS":4374,"algradient":4375,"oper":4376,"class_475\"":4377,"radialgradient":4378,"<phoenix-card":4379,"letter-":4380,"TIFY":4381,"absmiddle\"":4382,"oice":4383,"JUSTIFY":4384,"class_405\"":4385,"class_475":4386,"class_516\"":4387,"id_131\"":4388,"publisher":4389,"f\"/>":4390,"high":4391,"id_56":4392,"175\"":4393,"ndc-":4394,"TE":4395,"gnt":4396,"imp":4397,"revision":4398,"class_481":4399,"class_568":4400,"x-image":4401,"gnt/tmpl\">":4402,".0":4403,"21\">":4404,"420\"/>":4405,"fn>":4406,"class_411\"":4407,"follow\"":4408,"choice":4409,"class_451\">":4410,"class_440\">":4411,"id_130\"":4412,"id_134\"":4413,"postid":4414,"bottom":4415,"image_src\"/>":4416,"ngcontent-sc77":4417,"-link-choice":4418,"ngcontent-sc31913":4419,"input":4420,"13\">":4421,"o-":4422,"list\"":4423,"230\"/>":4424,"ga-click":4425,"JUSTIFY\">":4426,"revision\"/>":4427,"rela":4428,"class_425\">":4429,"1200\"":4430,"<def":4431,"class_375\"":4432,"class_384\"":4433,"x-track-":4434,"id_177\">":4435,"ng-reflect-router-link-active":4436,"<defs":4437,"x-track-ga-click":4438,"copy":4439,"data>":4440,"class_369\"":4441,"class_419\">":4442,"image/webp\"":4443,"id_178\">":4444,"92\"":4445,"class_455\">":4446,"class_502":4447,"id_128\"":4448,"19\"/>":4449,"gtm-p":4450,"class_486":4451,"190\"":4452,"id_135\"":4453,"-block":4454,"52\"":4455,"invariant":4456,"blend":4457,"blend>":4458,"mark>":4459,"<feblend":4460,"</feblend>":4461,"gb_invariant":4462,"-icon-":4463,"37\"":4464,"cl":4465,"class_385\"":4466,"ngcontent-sc15":4467,"1000\"/>":4468,"id_180\">":4469,"8px\"":4470,"class_431\">":4471,"class_450\">":4472,"-image>":4473,"secon":4474,"class_445\">":4475,"class_492":4476,"xmlns:fb":4477,"nd-":4478,"id_183\">":4479,"dc":4480,"class_390\"":4481,"class_391\"":4482,"550\"":4483,"mat":4484,"order":4485,"class_506\">":4486,"330\"/>":4487,"media-":4488,"id_57":4489,"id_179\">":4490,"class_463\"":4491,"local":4492,"675\"":4493,"class_444\">":4494,"ng-controller":4495,"ng-reflect-ng-class":4496,"720\"/>":4497,"ulti":4498,"class_470":4499,"js\">":4500,"id_138\"":4501,"id_139\"":4502,"185\"":4503,"rdf":4504,"class_368\"":4505,"class_453\">":4506,"ngcontent-sc72":4507,"id_184\">":4508,"-inter":4509,"nlinks":4510,"id_136\"":4511,"multi":4512,"re-":4513,"menu>":4514,"id_140\"":4515,"id_181\">":4516,"filters":4517,"ngcontent-sc2000":4518,"wix-image":4519,"110\"/>":4520,"cname":4521,"lation-":4522,"our":4523,"xmlns:og":4524,"options":4525,"id_182\">":4526,"ngcontent-sc177":4527,"number":4528,"-scro":4529,"class_662":4530,"color-inter":4531,"polation-":4532,"main-":4533,"sktop":4534,"jsslot":4535,"importa":4536,"color-interpolation-":4537,"color-interpolation-filters":4538,"mic-":4539,"class_661":4540,"74\"":4541,"750\"/>":4542,"<form>":4543,"im":4544,"class_383\"":4545,"88\"/>":4546,"fla":4547,"s\">":4548,"</g":4549,"image\"/>":4550,"class_507\">":4551,"id_141\"":4552,"id_186\">":4553,"track-add-to-cart-":4554,"84\"":4555,"ajs\">":4556,"text/ps":4557,"class_486\"":4558,"track-name":4559,"text/psajs\">":4560,"class_403\"":4561,"stri":4562,"146\"":4563,"text/html\"/>":4564,"jssha":4565,"jsshadow":4566,"dynamic-":4567,"aria-pos":4568,"er-":4569,"inset":4570,"class_514":4571,"18px\"":4572,"id_150\"":4573,"aria-posinset":4574,"<legend>":4575,"widget":4576,"itemref":4577,"class_457":4578,"class_472\">":4579,"ngcontent-sc55":4580,"309\"":4581,"letter-spacing":4582,"93\"":4583,"reset":4584,"id_55":4585,"class_512":4586,"-picture":4587,"id_137\"":4588,"ngcontent-sc53":4589,"768\"/>":4590,"19\">":4591,"450\"/>":4592,"<var":4593,"win":4594,"id_54":4595,"track-type":4596,"importance":4597,"class_517":4598,"class_573\"":4599,"id_188\">":4600,"&gt":4601,"af":4602,"em\"":4603,"class_429\">":4604,"class_488":4605,"ncy":4606,"id_185\">":4607,"id_187\">":4608,"header-":4609,"parator":4610,"-container>":4611,"lt;":4612,"seconda":4613,"setsize":4614,"173\"":4615,"nav-track":4616,"110\"":4617,"Con":4618,"cri":4619,"jor":4620,"aria-setsize":4621,"roo":4622,"class_519":4623,"search-":4624,"nghost-sc25":4625,"574\"/>":4626,"locale":4627,"<font>":4628,"metadata-":4629,"vature":4630,"class_468":4631,"connector-":4632,"curvature":4633,"inkscape:connector-":4634,"social-":4635,"inkscape:connector-curvature":4636,"66\"":4637,"boss":4638,"major":4639,"class_408\"":4640,"class_452\">":4641,"track-metadata-":4642,"tile-poster-":4643,"aria-autocomplete":4644,"class_386\"":4645,"class_479\">":4646,"class_443\"":4647,"128\"/>":4648,"id_143\"":4649,"30px\"":4650,"ngcontent-sc1774":4651,"class_522":4652,"transpa":4653,"mouseover":4654,"publisher\"/>":4655,"880\"/>":4656,"id_147\"":4657,"v-cloak":4658,"home-":4659,"flag":4660,"-v":4661,"-color":4662,"box\"":4663,"visi":4664,"class_387\"":4665,"class_401\"":4666,"-pri":4667,"id_153\"":4668,"oname":4669,"fx":4670,"</w":4671,"class_441\"":4672,"class_495":4673,"original":4674,"207\"":4675,"inline-width":4676,"disable-inline-width":4677,"s24":4678,"class_525":4679,"id_142\"":4680,"222\"/>":4681,"id_191\">":4682,"section-":4683,"background-image":4684,"l-bi":4685,"700\"/>":4686,"class_494":4687,"class_499":4688,"list-item":4689,"<fl-b":4690,"</fl-bi":4691,"<fl-bit":4692,"</fl-bit>":4693,"11":4694,"41\"":4695,"vid":4696,"separator":4697,"class_376\"":4698,"rati":4699,"ngcontent-sc66":4700,"slider":4701,"newsid":4702,"rd-":4703,"aria-checked":4704,"notifi":4705,"need":4706,"autofocus":4707,"id_192\">":4708,"share":4709,"315\"":4710,"45\"/>":4711,"otitle":4712,"class_503":4713,"auto-":4714,"24px\">":4715,"49\"":4716,"51\"":4717,"qa-":4718,"rency":4719,"10px\"":4720,"quali":4721,"256\"/>":4722,"id_189\">":4723,"ng-reflect-article":4724,"ata":4725,"class_534":4726,"id_146\"":4727,"events":4728,"--":4729,"class_434\"":4730,"class_470\">":4731,"story":4732,"id_145\"":4733,"ngcontent-sc63":4734,"track-label":4735,"mergenode>":4736,"next\"/>":4737,"<u":4738,"class_464\">":4739,"webpart":4740,"lob":4741,"moz":4742,"and":4743,"marginwidth":4744,"112\"":4745,"67\"":4746,"class_371\"":4747,"class_509":4748,"class_536":4749,"id_198\">":4750,"ÃÂ":4751,"-img":4752,"_class":4753,"rection":4754,"class_438\">":4755,"ng-repeat":4756,"tracking-":4757,"overlay":4758,"carousel-slide":4759,"35\">":4760,"380\"/>":4761,"5.":4762,"aria-value":4763,"class_492\">":4764,"marginheight":4765,"quality":4766,"%\"/>":4767,"class_480":4768,"logo":4769,"id_149\"":4770,"id_200\">":4771,"95\"":4772,"<object":4773,"E\"":4774,"dele":4775,"class_397\"":4776,"class_465\"":4777,"upport":4778,"id_148\"":4779,"id_190\">":4780,"nghost-sc20":4781,"nda":4782,"-card":4783,"password\"":4784,"-icon>":4785,"76\"":4786,"q>":4787,"strong":4788,"class_431\"":4789,"class_501":4790,"id_165\"":4791,"</femergenode>":4792,"por":4793,"id_196\">":4794,"33\"/>":4795,"<hgroup>":4796,"class_446\">":4797,"id_154\"":4798,"id_164\"":4799,"v-show":4800,"column":4801,"webpartid":4802,"ll-":4803,"class_550":4804,"class_671":4805,"id_193\">":4806,"yg-server-content-sc62":4807,"27\">":4808,"wor":4809,"class_490":4810,"id_152\"":4811,"hide_":4812,"transparency":4813,"71\"":4814,"l-link>":4815,"class_406\"":4816,"class_562":4817,"bookmark-button":4818,"id_194\">":4819,"allowtransparency":4820,"></a><a":4821,"tt-value":4822,"&lt;":4823,"ado":4824,"368\"/>":4825,"strong&gt":4826,"direction":4827,"desktop":4828,"class_526":4829,"id_197\">":4830,"tt-type":4831,"n_":4832,"leave":4833,"usera":4834,"class_415\"":4835,"cen":4836,"class_420\"":4837,"105\"":4838,"id_199\">":4839,"<femergenode":4840,"270\"/>":4841,"merge>":4842,"340\"":4843,"wit":4844,"<htag1>":4845,"</htag1>":4846,"class_418\"":4847,"class_513":4848,"class_510\"":4849,"id_195\">":4850,"495\"":4851,"text-align":4852,"sideb":4853,"useraction":4854,"58\"":4855,"mt":4856,"rev":4857,"class_432\"":4858,"class_493":4859,"1600\"/>":4860,"track-position":4861,"-on-":4862,"83\"":4863,":useraction":4864,"e-":4865,"</div><div":4866,"class_417\"":4867,"rai-":4868,"v-tag":4869,":useractionevent":4870,"v-tag:useractionevent":4871,"28\"/>":4872,"79\"":4873,"parent":4874,"class_462\"":4875,"class_563":4876,"-pb-":4877,"field-type":4878,"id_218\">":4879,"ata-pb-":4880,"ata-pb-field-type":4881,"expanded\">":4882,"auto\"/>":4883,"id_151\"":4884,"id_217\">":4885,"bosszone":4886,"separator\">":4887,"adobe":4888,".5\"":4889,"class_469\">":4890,"id_204\">":4891,"id_201\">":4892,"login":4893,"50\">":4894,"87\"":4895,"clink":4896,"</data>":4897,"class_468\">":4898,"class_569":4899,"class_552":4900,"togg":4901,"ngcontent-sc69":4902,"secondary-":4903,"23\">":4904,"99\"":4905,"pid":4906,"class_563\"":4907,"submit\"/>":4908,"ngcontent-sc172":4909,"component-":4910,"comme":4911,"rimary":4912,"custom-element":4913,"94\"":4914,"class_412\"":4915,"class_541\">":4916,"subposition":4917,"id_155\"":4918,"maskunits":4919,"id_205\">":4920,"track-element":4921,"track-subposition":4922,"delete":4923,"adobe-track":4924,"90\">":4925,"seg":4926,"class_447\">":4927,"class_511":4928,"ng-model":4929,"haspers":4930,"navigation\"":4931,"id_203\">":4932,"id_202\">":4933,"allowdelete":4934,"2e":4935,"43\"":4936,"660\"/>":4937,"Link":4938,"ico":4939,"class_433\"":4940,"class_438\"":4941,"class_476\">":4942,"class_527":4943,"196\"":4944,"ngcontent-sc127":4945,"81\"":4946,"class_564":4947,"class_549":4948,"id_159\"":4949,"338\"":4950,"scheme":4951,"window":4952,"59\"":4953,"<rt":4954,"</rt":4955,"text/template":4956,"class_533":4957,"id_70":4958,"256\"":4959,"nghost-sc8":4960,"id_212\">":4961,"97\"":4962,"pon":4963,"scale":4964,"class_446\"":4965,"class_516\">":4966,"class_520":4967,"poin":4968,"id_206\">":4969,"id_216\">":4970,"spm-":4971,"-auto":4972,"¢Ã":4973,"ngcontent-sc19":4974,"class_451\"":4975,"id_210\">":4976,"lyout":4977,"activeclassname":4978,"ngcontent-sc83":4979,"tooltip\">":4980,"box-only":4981,"cse:searchbox-only":4982,"ÃÂ¢Ã":4983,"Me":4984,"zed":4985,"direct":4986,"class_463\">":4987,"ebrow":4988,"100\">":4989,"hover":4990,"id_157\"":4991,"eyebrow":4992,"id_209\">":4993,"pointer-":4994,"70\">":4995,"dn_":4996,"class_413\"":4997,"y-menu-level":4998,"status":4999,"ccpa-opt-out-":5000,"-class":5001,"48\">":5002,"47\"":5003,"dl":5004,"sa":5005,"sd":5006,"arial-":5007,"class_475\">":5008,"class_498":5009,"id_214\">":5010,"430\"/>":5011,"dl-":5012,"Ã":5013,"v-for":5014,"router-":5015,"auto-locator":5016,"ÃÂ¢ÃÃ":5017,"sig":5018,"licen":5019,"form\">":5020,"class_478\"":5021,"-content-":5022,"license":5023,"nameat":5024,"ngcontent-sc60":5025,"class_539":5026,"webki":5027,"190\"/>":5028,"id_215\">":5029,"id_213\">":5030,"ting>":5031,"tile-copy":5032,"ummary>":5033,"40px\"":5034,"text/ng-":5035,"class_556":5036,"class_545":5037,"102\"":5038,"state":5039,"id_211\">":5040,"mobile":5041,"ico\"/>":5042,"text/ng-template\">":5043,"<data":5044,"class_440\"":5045,"127\"/>":5046,"id_158\"":5047,"download":5048,"site-url":5049,"96\"/>":5050,"<rs-lay":5051,"</rs-lay":5052,"lide":5053,"class_392\"":5054,"em\">":5055,"321\"/>":5056,"outsite-url":5057,"id_208\">":5058,"id_219\">":5059,"23px\"":5060,"person":5061,"<rs-layer":5062,"</rs-layer>":5063,"42":5064,"AN":5065,"class_419\"":5066,"class_501\">":5067,"class_660\"":5068,"-price":5069,"spm-d":5070,"dl-attr":5071,"512\"":5072,"63\"":5073,"<object>":5074,"earch":5075,"class_447\"":5076,"-content\"":5077,"+xml":5078,"62\"":5079,"fro":5080,"par":5081,"class_462\">":5082,"class_538":5083,"186\"":5084,"id_156\"":5085,"id_207\">":5086,"respon":5087,"child-menu\"":5088,"output>":5089,"atom":5090,"yg":5091,"image/ico\"/>":5092,"133\"":5093,"mentsupport":5094,"needseg":5095,"pointer-events":5096,"needsegmentsupport":5097,"</output>":5098,"ctl":5099,"application/atom":5100,"1200\">":5101,"id_220\">":5102,"id_222\">":5103,"2-":5104,"max-":5105,"class_424\"":5106,"class_437\"":5107,"class_466\">":5108,"id_224\">":5109,"370\"/>":5110,"__child-menu\"":5111,"arial-label":5112,"50px\"":5113,"67":5114,"<output":5115,"_id":5116,"lib":5117,"icon>":5118,"class_565":5119,"l-img":5120,"news":5121,"-article-teaser":5122,"113\"":5123,"216\"":5124,"d_":5125,"lf":5126,"menu__":5127,"class_553":5128,"combo":5129,"id_202\"":5130,"<fl-":5131,"</fl-":5132,"118\"":5133,"330\"":5134,"</mark>":5135,"15px\"":5136,"id_162\"":5137,"-carousel":5138,"<fl":5139,"Content":5140,"Menu":5141,"sive":5142,"class_507":5143,"class_524":5144,"webm":5145,"128\"":5146,"168\"":5147,"id_236\">":5148,"<phoenix-icon-fallback":5149,"</phoenix-icon-fallback":5150,"</phoenix-icon-fallback>":5151,"61\"":5152,"d\">":5153,"con>":5154,"shelf":5155,"class_465\">":5156,"footer-":5157,"class_543":5158,"-ad>":5159,"164\"":5160,"video/webm":5161,"-article-teaser-v":5162,"21":5163,"<tbody":5164,"follow\">":5165,"class_557":5166,"class_659":5167,"nitr":5168,"modi":5169,"id_160\"":5170,"id_163\"":5171,"analytics-event":5172,".9":5173,"feature":5174,"class_551":5175,"id_161\"":5176,"id_228\">":5177,"-card-":5178,"score-icon-":5179,"<amp-timeago":5180,"</amp-timeago":5181,"critic":5182,"tile-poster-meta":5183,"visible":5184,"score-icon-critic":5185,"</amp-timeago>":5186,"214\"":5187,"item>":5188,"class_498\"":5189,"img-":5190,"ngcontent-sc65":5191,"id_226\">":5192,"id_230\">":5193,"mobile-nav-":5194,"</noindex>":5195,"lib-c":5196,"550\"/>":5197,"outle":5198,"class_425\"":5199,"class_423\"":5200,"<noindex>":5201,"router-outle":5202,"-8":5203,"pri":5204,"date>":5205,"cook":5206,"id_169\"":5207,"id_221\">":5208,"onkeydown":5209,"ngcontent-lib-c":5210,"application/atom+xml\"/>":5211,"-width":5212,"_section":5213,"g\"":5214,"class_523":5215,"analytics-on":5216,"74\"/>":5217,"grap":5218,"class_515":5219,"-item-":5220,"te\">":5221,"class_467\">":5222,"id_225\">":5223,"</tt>":5224,"letter":5225,"-produ":5226,"rating-":5227,"33\">":5228,"<rs-":5229,"source":5230,"</rs-":5231,"class_510":5232,"class_570":5233,"165\"/>":5234,"-anchor":5235,"product-tile-":5236,"cooki":5237,"4.":5238,"cx-":5239,"tab-type":5240,"che\">":5241,"144\"":5242,"id_238\">":5243,"-content>":5244,"-scroll":5245,"36\">":5246,"448\"/>":5247,"sp-":5248,"class_514\">":5249,"id_223\">":5250,"id_227\">":5251,"id_233\">":5252,"-tab":5253,"60\">":5254,"83\"/>":5255,"nav\"":5256,"stache\">":5257,"country-":5258,"inline-template":5259,"<sub>":5260,"class_421\"":5261,"nghost-sc17":5262,"id_232\">":5263,"kite-":5264,"column>":5265,"115\"/>":5266,"118\"/>":5267,"23\"/>":5268,"LAN":5269,"_menu-":5270,"din":5271,"text-anchor":5272,"<tt>":5273,"class_439\"":5274,"location":5275,"id_166\"":5276,"id_172\"":5277,"id_234\">":5278,"heading\"":5279,"event-category":5280,"mobile-menu-item-link-primary-level-3":5281,"selector-":5282,"LAND":5283,"-message":5284,"e2e":5285,"primary":5286,"class_414\"":5287,"class_444\"":5288,"id_167\"":5289,"id_170\"":5290,"id_235\">":5291,"event-action":5292,"ÃÂ":5293,"clear":5294,"responsive":5295,"2_":5296,"214\"/>":5297,"5%\"":5298,"96\">":5299,"lon":5300,"pp":5301,"ing>":5302,"class_520\"":5303,"class_535":5304,"aca-":5305,"ngcontent-sc71":5306,"id_229\">":5307,"ngcontent-sc89":5308,"ngcontent-sc123":5309,"+xml\">":5310,"<cf":5311,"PE\"":5312,"SCA":5313,"_list":5314,"</cf":5315,"class_528":5316,"1800\"/>":5317,"30px\">":5318,"id_231\">":5319,"23.":5320,"LANDSCA":5321,"LANDSCAPE\"":5322,"-target":5323,"glob":5324,"105\"/>":5325,"488\"/>":5326,"locale-":5327,"yg-server-content-sc157":5328,"80px\"":5329,"ug":5330,"ush":5331,"sens":5332,"class_499\"":5333,"class_531":5334,"ngcontent-sc70":5335,"id_239\">":5336,"ng-reflect-c":5337,"ng-reflect-nmo":5338,"nmolazyimage":5339,"rows":5340,"logid":5341,"_menu-child-":5342,"ng-reflect-nmo-src":5343,"m\">":5344,"ude":5345,"</menu>":5346,"tallow":5347,"</s>":5348,"ors_":5349,"class_637\">":5350,"class_660":5351,"ng-version":5352,"id_171\"":5353,"id_173\"":5354,"nghost-c":5355,"webkitallow":5356,"webkitallowfullscreen":5357,"29\">":5358,"34\"/>":5359,"460\"/>":5360,"9.":5361,"97":5362,"900\"/>":5363,"980\"/>":5364,"class_506":5365,"panel-":5366,"306\"":5367,"v-on:mouseover":5368,"sensors_":5369,"class_409\"":5370,"101\"":5371,"158\"":5372,"lose":5373,"22px\"":5374,"highlight":5375,"bc":5376,"ren":5377,"inter":5378,"class_633\">":5379,"top-":5380,"ngcontent-sc78":5381,"ngcontent-sc170":5382,"tt-premium":5383,"mqn-lazyimage":5384,"personali":5385,"<menu":5386,"class_509\"":5387,"class_537":5388,"class_635\">":5389,"122\"":5390,"market":5391,"id_240\">":5392,"id_277\">":5393,"flags":5394,"commen":5395,"44\"/>":5396,"82\"":5397,"styled\">":5398,"ear":5399,"view-":5400,"class_483\"":5401,"class_546":5402,"13px\"":5403,"unstyled\">":5404,"560\">":5405,"mozallowfullscreen":5406,"ng-reflect-crop":5407,"512\"/>":5408,"64\">":5409,"od>":5410,"boar":5411,"class_93\"/>":5412,"198\"/>":5413,"id_250\">":5414,"236\"":5415,"-nav-shelf":5416,"local-nav-shelf":5417,"local-nav-shelf-sub":5418,"class_636\">":5419,"class_787\"":5420,"199\"":5421,"-breadcrumb":5422,"omni":5423,"56\"/>":5424,"t\">":5425,"<author>":5426,"</author>":5427,"class_468\"":5428,"class_493\">":5429,"150\">":5430,"1000\"":5431,"id_178\"":5432,"id_177\"":5433,"id_244\">":5434,"id_242\">":5435,"long":5436,"26\"/>":5437,"me-":5438,"strokeline":5439,"class_504":5440,"id_179\"":5441,"-load":5442,"57\"":5443,"mgm-":5444,"class_515\"":5445,"class_513\"":5446,"</dfn>":5447,"class_532":5448,"id_243\">":5449,"nav-menu-":5450,"current-":5451,"from":5452,"ults":5453,"update":5454,"id_248\">":5455,"small":5456,"redirect":5457,"fit":5458,"</pre>":5459,"class_488\">":5460,"100px\"":5461,"148\"/>":5462,"id_168\"":5463,"listitem\"":5464,"ngcontent-sc67":5465,"id_237\">":5466,"id_246\">":5467,"-card>":5468,"component>":5469,"ngcontent-c10":5470,"ture-":5471,"commendation":5472,"omniture-":5473,"5%\">":5474,":type":5475,"os":5476,"class_540":5477,"104\"":5478,"image/jpeg\"":5479,"252\"/>":5480,"domi":5481,"654\"/>":5482,"container>":5483,"megamenu-":5484,"video/webm\"/>":5485,"38\"/>":5486,"315\"/>":5487,"ua":5488,"tel":5489,"delay":5490,"192\"":5491,"<feflood":5492,"</feflo":5493,"id_247\">":5494,"node-type":5495,"image/svg+xml\">":5496,"ndc-dynamic":5497,"</feflood>":5498,"-dynamic":5499,"420\"":5500,"gog":5501,"etwor":5502,"peri":5503,"nghost-sc9":5504,"id_241\">":5505,"id_251\">":5506,"link-url":5507,"354\"/>":5508,"ngcontent-sc105":5509,"config\">":5510,"nghost-sc72":5511,"combobox\"":5512,"72\"/>":5513,"750\"":5514,"<tile-poster":5515,"dder":5516,"gra":5517,"</tile-poster":5518,"chan":5519,"class_634\"":5520,"103\"":5521,"non-":5522,"results":5523,"id_256\">":5524,"mqn":5525,"flood-opacity":5526,"5-":5527,"ui-":5528,"class_555":5529,"class_544":5530,"id_175\"":5531,"id_176\"":5532,"id_258\">":5533,"track-event":5534,"om-event":5535,"117":5536,"_type":5537,"lazyimg":5538,"335\"":5539,"3-":5540,"411\"":5541,"OR":5542,"viewed":5543,"class_551\">":5544,"id_174\"":5545,"id_180\"":5546,"228\"/>":5547,"id_245\">":5548,"id_254\">":5549,"id_255\">":5550,"goog":5551,"-recommendation":5552,"</del>":5553,"spacing-bottom":5554,"gog-":5555,"1_":5556,"tick":5557,"class_541":5558,"v-lazy":5559,"id_265\">":5560,"id_263\">":5561,"text/x-template\">":5562,"tails>":5563,"star-rating":5564,"ke>":5565,"impress":5566,"reset\">":5567,"witch":5568,"88":5569,"est-":5570,"f-":5571,"daa-":5572,"id_253\">":5573,"id_264\">":5574,"id_261\">":5575,"276\"":5576,"modal-":5577,"<client-star-rating":5578,"</client-star-ra":5579,"box-news-":5580,"uk-grid":5581,"personalized":5582,"</client-star-rating>":5583,"box-news-image\"":5584,"427\"":5585,"class_508\">":5586,"cols":5587,"154\"":5588,"195\"":5589,"id_257\">":5590,"tile>":5591,"treeitem\"":5592,"sponsored\"":5593,":background-image":5594,"<audio":5595,"</audio":5596,"class_449\"":5597,"class_529":5598,"class_547":5599,"206\"/>":5600,"ngcontent-sc62":5601,"48px\"":5602,"disable-viewed":5603,"spacing-top":5604,"operation":5605,"nitro-":5606,"v-lazy:background-image":5607,"-key":5608,"<radialgradient":5609,"crea":5610,"</radialgradient":5611,"ondra":5612,"class_436\"":5613,"class_530":5614,"class_587":5615,"142\"":5616,"video-card-":5617,"m-est-":5618,"fav":5619,"id_249\">":5620,"id_259\">":5621,"id_262\">":5622,"386\"":5623,"relative":5624,"sdm-est-":5625,"</radialgradient>":5626,"34\">":5627,"mtitle":5628,"lim\">":5629,"class_448\"":5630,"153\"":5631,"187\"":5632,"28.":5633,"id_252\">":5634,"id_266\">":5635,"unce":5636,"text/x-config\">":5637,"fragtype":5638,"lazy-load-src":5639,"text/template-dynamic":5640,"sensors_operation":5641,"text/template-dynamic\">":5642,"sensors_operation_list":5643,"21px\"":5644,"417\"/>":5645,"real-":5646,"</summary>":5647,"class_442\"":5648,"id_67":5649,"class_789\"":5650,"onmouseup":5651,"trackname":5652,"standa":5653,"ng-reflect-url":5654,"375\"/>":5655,"-analytics-":5656,"-nav-section":5657,"local-nav-shelf-sub-nav-section":5658,"</audio>":5659,"/javascript\">":5660,"375\"":5661,"62\"/>":5662,"<client":5663,"are":5664,"fmt":5665,"gd_":5666,"</client":5667,"</div></div>":5668,"cess":5669,"class_466\"":5670,"imgfmt":5671,"coll-":5672,"id_260\">":5673,"id_268\">":5674,"ezimgfmt":5675,"onkeyup":5676,"<nmo-link-choice":5677,"</nmo-link-choice":5678,"sdm-est-coll-":5679,"gd_stat":5680,"</nmo-link-choice>":5681,"sdm-est-coll-1-":5682,"ti-":5683,"class_422\"":5684,"class_471\">":5685,"id_68":5686,"1080\"/>":5687,"158\"/>":5688,"207\"/>":5689,"id_181\"":5690,"id_267\">":5691,"mustache\">":5692,"level-2":5693,"Ã":5694,"non-personalized":5695,"-recommendations-":5696,"real-img":5697,"non-personalized-recommendations-":5698,"gress":5699,"lazy-image>":5700,"Navigation":5701,"google-":5702,"-dropdown":5703,"</ma":5704,"</q>":5705,"didomi":5706,"day":5707,"content-id":5708,"class_504\"":5709,"class_539\">":5710,"submenu_":5711,"ator":5712,"292\"/>":5713,"0.75":5714,"gtm-c":5715,"ush-analytics-":5716,"favori":5717,"ush-analytics-event":5718,"-error":5719,"-tracking":5720,"-options":5721,"free":5722,"ype":5723,"title-text":5724,"user":5725,"-play":5726,"ng-in":5727,"id_185\"":5728,"id_190\"":5729,"event-label":5730,"350\">":5731,"longdesc":5732,"213\"/>":5733,"336\"/>":5734,"Item":5735,"vm":5736,"text/javascript":5737,"class_505\">":5738,"1024\"":5739,"124\"/>":5740,"233\"":5741,"tooltip\"":5742,"alias":5743,"locale-selector-":5744,"-0":5745,"31\">":5746,"_content":5747,"flyout":5748,"ui":5749,"lit\">":5750,"forma":5751,"class_460\"":5752,"class_499\">":5753,"class_494\">":5754,"class_522\">":5755,"img-src":5756,"main\"":5757,"id_269\">":5758,"376\"/>":5759,"ngcontent-c7":5760,"home-page-":5761,"ondrag":5762,"ÃÃÂ":5763,"zon":5764,"desig":5765,"ding-":5766,"class_542":5767,"id_193\"":5768,"261\"":5769,"collapse-":5770,"-count":5771,"42\"/>":5772,"ot":5773,"you":5774,"class_511\"":5775,"class_517\"":5776,"14.":5777,"header>":5778,"didomi/javascript\">":5779,"gin":5780,"xs":5781,"245\"":5782,"228\"":5783,"ng-reflect-ndc-":5784,"ng-reflect-ndc-dynamic-":5785,"38\">":5786,"46\"/>":5787,"edi":5788,"bol-link>":5789,"intent":5790,"class_504\">":5791,"class_500\">":5792,"class_577":5793,"class_633":5794,"id_182\"":5795,"id_189\"":5796,"-banner":5797,"id_195\"":5798,"id_272\">":5799,"-anno":5800,"schema":5801,"ondragstart":5802,"650\"/>":5803,"<wix-image":5804,"</wix-image":5805,"class_519\">":5806,"12.":5807,"id_203\"":5808,"id_270\">":5809,"ngcontent-sc308":5810,"-feature":5811,"</map>":5812,"</wix-image>":5813,"<map":5814,"dx":5815,"else":5816,"geo":5817,"emp":5818,"class_480\"":5819,"class_493\"":5820,"class_566":5821,"class_657":5822,"id_194\"":5823,"id_274\">":5824,"ng-reflect-router-link-active-options":5825,"graph":5826,"standard":5827,"39\">":5828,"df":5829,"ef":5830,"ext":5831,"ence":5832,"ste":5833,"ring":5834,"class_559":5835,"1792\"":5836,"v-else":5837,"begin":5838,"show-":5839,"id_276\">":5840,"id_282\">":5841,"cta>":5842,"11\"/>":5843,"37\">":5844,"73\"":5845,"mon":5846,"vo":5847,"ww":5848,"<amp":5849,"</amp":5850,"data_":5851,"olor":5852,"cenable":5853,"class_496\">":5854,"hocenable":5855,"ngcontent-sc75":5856,"id_183\"":5857,"283\"/>":5858,"26px\"":5859,"adhocenable":5860,"ne-role":5861,"-data":5862,"ic":5863,"nel":5864,"<dfn>":5865,"10.":5866,"id_80":5867,"borde":5868,"1500\"/>":5869,"id_184\"":5870,"attr":5871,"id_279\">":5872,"id_280\">":5873,"1,":5874,"213\"":5875,"46\">":5876,"91\"":5877,"</li></ul>":5878,"</icon>":5879,"class_428\"":5880,"165\"":5881,"id_192\"":5882,"id_278\">":5883,"id_271\">":5884,"v-on:key":5885,"main-menu__":5886,"root>":5887,"cse:searchbox-only>":5888,"-alt":5889,"ba":5890,"class_507\"":5891,"class_471\"":5892,"class_517\">":5893,"class_558":5894,"xmlns:dc":5895,"anchor":5896,"id_187\"":5897,"filter-key":5898,"285\"":5899,"id_273\">":5900,"<ea-container":5901,"</ea-container>":5902,"80px\"/>":5903,"featured":5904,"standard\"":5905,"78":5906,"cd":5907,"fill-color":5908,"<phoenix-accordion":5909,"</phoenix-accordion":5910,"id_286\">":5911,"link-href":5912,"uncement":5913,"zonta":5914,"<lazy-image":5915,"</lazy-image>":5916,"class_509\">":5917,"class_585":5918,"dns-prefetch":5919,"100px\">":5920,"145\"":5921,"id_188\"":5922,"dom":5923,"id_284\">":5924,"id_281\">":5925,"<ea-cta":5926,"</ea-cta>":5927,"333\"":5928,"&lt;/":5929,"img-lazy-load-src":5930,"ja":5931,"item_":5932,"class_461\"":5933,"class_515\">":5934,"id_66":5935,"class_33\"></span><span":5936,"iden":5937,"class_116\"/>":5938,"onmouseleave":5939,"id_186\"":5940,"rture":5941,"id_205\"":5942,"aperture":5943,"blk":5944,"id_275\">":5945,"suda-":5946,"nav-track-breadcrumb":5947,"-product-":5948,"uatrack":5949,"suda-uatrack":5950,"42\">":5951,"ON":5952,"j-":5953,"summary":5954,"year":5955,"xmlns:rdf":5956,"15.":5957,"205\"/>":5958,"200px\"/>":5959,"162\"":5960,"17.":5961,"none\"":5962,"sketch":5963,"id_191\"":5964,"ng-reflect-type":5965,"bind-":5966,"alytics":5967,"history":5968,"ngcontent-sc164":5969,"tile-poster-meta>":5970,"ap-":5971,"ngcontent-sc22":5972,"class_452\"":5973,"class_550\">":5974,"class_542\">":5975,"123\"":5976,"canonical\">":5977,"font/tt":5978,"id_292\">":5979,"slideshow":5980,"349\"":5981,"50%\">":5982,"-small":5983,"channel":5984,"mqn-auto":5985,"font/ttf\"/>":5986,"27\"/>":5987,"m\"":5988,"stroke-opacity":5989,"px,":5990,"class_497\">":5991,"class_560":5992,"motion":5993,"star":5994,"308\"/>":5995,"resource":5996,"id_288\">":5997,"id_287\">":5998,"g-quo":5999,"ding>":6000,"empty":6001,"44\">":6002,"520\"/>":6003,"95":6004,"yle":6005,"<as24":6006,"</as24":6007,"rizonta":6008,"rcolor":6009,"class_464\"":6010,"horizonta":6011,"156\"":6012,"28px\"":6013,"id_289\">":6014,"id_283\">":6015,"1.6\"":6016,"00_":6017,"cta-":6018,"orie":6019,"gog-track-event":6020,"-announcement":6021,".dom":6022,"77\"/>":6023,"<mark":6024,"</a></li><li><a":6025,"styyle":6026,"class_635":6027,"class_544\">":6028,"class_586":6029,"v-html":6030,"194\"":6031,"id_196\"":6032,"id_197\"":6033,"id_294\">":6034,"wrapper":6035,"</details>":6036,"v-tag:useractionevent.dom":6037,"-menu-":6038,"117\"/>":6039,"2px\"":6040,"3px\"":6041,"540\"/>":6042,"content>":6043,"false\">":6044,"stu":6045,"106\"":6046,"id_285\">":6047,"id_290\">":6048,"id_291\">":6049,"hint":6050,"strip":6051,"status\">":6052,"Content\"":6053,"cl-":6054,"format":6055,"172\"":6056,"red-":6057,"id_201\"":6058,"id_206\"":6059,"menu-item-":6060,"-ren":6061,"menu-level-id":6062,"<ws-":6063,"afp-":6064,"</ws-":6065,"qa-menu-level-id":6066,"ÃÂ¢ÃÃ":6067,"ctl00_":6068,"c_":6069,"ron":6070,"x\">":6071,"class_140\"/>":6072,"perce":6073,"class_467\"":6074,"class_548":6075,"ng-hide":6076,"v-model":6077,"id_207\"":6078,"trike>":6079,"id_297\">":6080,"696\"/>":6081,"carousel-slide>":6082,"mobile-nav-left":6083,"440\"":6084,"src2":6085,"usemap":6086,"image-":6087,"class_511\">":6088,"popup\">":6089,"200\">":6090,"2000\"":6091,"16.":6092,"id_199\"":6093,"homepage":6094,"ngcontent-sc119":6095,"hire-":6096,"-redesig":6097,"qa-id":6098,"home-page-hire-":6099,"mobile-nav-left_menu-child-":6100,"-set":6101,"ccordion":6102,"networ":6103,"rex\">":6104,"sent":6105,"text/ez":6106,"-screx\">":6107,"class_429\"":6108,"class_454\"":6109,"class_561":6110,"class_654":6111,"experi":6112,"108\"":6113,"heading>":6114,"id_208\"":6115,"section\">":6116,"-accordion":6117,"391\"":6118,"modal>":6119,"accordion-id":6120,"global-":6121,"text/ez-screx\">":6122,"45\">":6123,"55\">":6124,"92\">":6125,"onboar":6126,"tical":6127,"link_class":6128,"cache":6129,"class_554":6130,"id_76":6131,"178\"/>":6132,"category-item":6133,"yg-server-content-sc14":6134,"js-onboar":6135,"selectid":6136,"mega_content":6137,"sidebar":6138,"study":6139,"home-page-hire-category-item":6140,"home-page-hire-category-item-redesig":6141,".\">":6142,"96":6143,"bra":6144,"h-":6145,"pb-":6146,"dipo":6147,"<hgroup":6148,"class_521\">":6149,"class_1013":6150,"class_122\"/>":6151,"200px\"":6152,"ngcontent-sc175":6153,"272\"/>":6154,"id_293\">":6155,"slide-id":6156,"param":6157,"-rende":6158,"dipodi":6159,"'\"":6160,"-dp":6161,"410\"":6162,"EN":6163,"_hidden":6164,"c:":6165,"class_523\">":6166,"class_538\">":6167,"class_652":6168,"324":6169,"class_212\"/>":6170,"route":6171,"counter":6172,"276\"/>":6173,"region\"":6174,"news\"":6175,"ngcontent-sc116":6176,"match":6177,"modifi":6178,"bordercolor":6179,"\"\"":6180,"_text":6181,"class_503\">":6182,"class_567":6183,"class_580":6184,"class_1014":6185,"164\"/>":6186,"category\"":6187,"id_296\">":6188,"id_295\">":6189,"fxlayout":6190,"-img>":6191,"sketch:type":6192,"js-onboarding-":6193,"-A":6194,"m>":6195,"ru":6196,"xp-":6197,"din-":6198,"<a-img":6199,"</a-img>":6200,"<ps-":6201,"id_200\"":6202,"</ps-":6203,"class_459\"":6204,"alternate\">":6205,"class_498\">":6206,"class_698":6207,"class_638":6208,"class_582\">":6209,"109":6210,"</dd></dl>":6211,"-ids":6212,"draw":6213,"</femerge>":6214,"id_298\">":6215,"i-quality":6216,"high-dp":6217,"strong&gt;":6218,"&lt;/strong&gt":6219,"identifi":6220,"high-dpi-quality":6221,"940\"/>":6222,"all":6223,"nat":6224,"class_473\"":6225,"class_567\"":6226,"class_631":6227,"-pop":6228,"class_651":6229,"alignment":6230,"1440\"/>":6231,"135\"/>":6232,"</dt><dd>":6233,"<phoenix-carousel-slide":6234,"</phoenix-carousel-slide>":6235,"burg":6236,"390\"/>":6237,"msid":6238,"js-site-":6239,"_hidden_text":6240,"-google-":6241,"51\"/>":6242,"Type":6243,"_div":6244,"ngcontent-sc324":6245,"class_513\">":6246,"class_623":6247,"id_77":6248,"class_548\">":6249,"-popup":6250,"class_652\"":6251,"19.":6252,"25px\"":6253,"id_198\"":6254,"<femerge>":6255,"ng-reflect-u":6256,"ng-reflect-alt":6257,"id_299\">":6258,"384\"":6259,"507\"":6260,"-container-width":6261,"-promo":6262,"ng-reflect-container-width":6263,"<col/>":6264,"_section\"":6265,"ng-reflect-nmo-src-set":6266,"510\"/>":6267,"98":6268,"fl-":6269,"vsite-":6270,"id_211\"":6271,"class_576":6272,"class_592":6273,"168\"/>":6274,"newwindow":6275,"eyebrow-text":6276,"-parent":6277,"224\"":6278,"<mat-":6279,"<rai-":6280,"s[":6281,"</mat-":6282,"</rai-":6283,"no-":6284,"preview":6285,"class_500\"":6286,"class_505\"":6287,"class_445\"":6288,"202\"":6289,"<dt></dt><dd>":6290,"dot-":6291,"id_300\">":6292,"ngcontent-sc132":6293,"kite":6294,"ngcontent-sc160":6295,"LinkType":6296,"country-link":6297,"current-country":6298,"delay-load":6299,"ng-init":6300,"identifier":6301,"<dt></dt><dd></dd></dl>":6302,"LinkType.":6303,"_locator":6304,"avi":6305,"audio":6306,"primary-":6307,"</caption>":6308,"rele":6309,"hero":6310,"rating":6311,"class_495\">":6312,"class_494\"":6313,"auto_locator":6314,"222\"":6315,"227\"":6316,"id_204\"":6317,"custo":6318,"ne-lazy":6319,"js-onboarding-radio":6320,"js-site-wrap":6321,"-secondary-":6322,"340\"/>":6323,"41\">":6324,"56\">":6325,"<template>":6326,"lity":6327,"typetitle":6328,"sio":6329,"vertical":6330,"ng-bind-":6331,"m-name":6332,"id_301\">":6333,"bar\"":6334,"////":6335,"ngcontent-sc94":6336,"c-navigation":6337,"652\"/>":6338,"-init":6339,"-announcement-teaser":6340,"43\">":6341,"47\">":6342,"47\"/>":6343,"58\"/>":6344,"disc":6345,"tate":6346,"te_":6347,"tele":6348,"site>":6349,"class_650":6350,"onmouseenter":6351,"290\"":6352,"ment-":6353,"id_306\">":6354,"id_304\">":6355,"id_302\">":6356,"context\">":6357,"paragraph":6358,"tails":6359,"club":6360,"updated":6361,"ng-bind-html":6362,"520\"":6363,"69\"":6364,"nte":6365,"nto":6366,"id_213\"":6367,"class_503\"":6368,"class_512\"":6369,"id_78":6370,"class_656":6371,"class_593":6372,"ng-mouse":6373,"126\"":6374,"259":6375,"227\"/>":6376,"id_209\"":6377,"6666":6378,"v-bind:srcset":6379,"640\">":6380,"root":6381,"router-outlet>":6382,"created":6383,"extlink":6384,"v-on:keyup":6385,"-B":6386,"53\">":6387,"66\"/>":6388,"jour":6389,"ority":6390,"um-":6391,"tabs-":6392,"<bdi":6393,"class_453\"":6394,"class_535\">":6395,"class_642":6396,"class_638\">":6397,"uppor":6398,"ng-srcset":6399,"languages":6400,"track-click":6401,"id_307\">":6402,"</gcse:searchbox-only>":6403,"priority":6404,"<phoenix-accordion-item":6405,"</phoenix-accordion-item>":6406,"11.":6407,"98\"/>":6408,"<transition":6409,"lspa":6410,"sg-":6411,"ula":6412,"</transition":6413,"referrer":6414,"<hy-menu-level":6415,"</hy-menu-level":6416,"inview":6417,"id_210\"":6418,"image/avi":6419,"class_476\"":6420,"class_496\"":6421,"class_579\">":6422,"rer\"":6423,"x-on:":6424,"n-component-":6425,"id_308\">":6426,"id_303\">":6427,"370\"":6428,"372\"":6429,"toolbar\">":6430,"comments-counter":6431,"ccpa-opt-out-ids":6432,"TER":6433,"ccpa-opt-out-geo":6434,"ccpa-opt-out-lspa":6435,"modifier":6436,"<hy-menu-level-container":6437,"</hy-menu-level-container>":6438,"image/avif\"/>":6439,"-menu\"":6440,"08":6441,"0px\">":6442,"71\"/>":6443,"><div":6444,"SH":6445,"ect-":6446,"me\"":6447,"table-":6448,"class_574":6449,"163\"":6450,"175\"/>":6451,"list>":6452,"<phoenix-script":6453,"</phoenix-script>":6454,"id_305\">":6455,"345\"/>":6456,"-error-message":6457,"-collapse":6458,"-context\">":6459,"112\"/>":6460,"hel":6461,"text/mi":6462,"id_212\"":6463,"id_214\"":6464,"link>":6465,"class_520\">":6466,"class_562\">":6467,"class_589":6468,"139\"/>":6469,"198\"":6470,"speed":6471,"ngcontent-sc64":6472,"id_235\"":6473,"id_309\">":6474,"<ea-tile":6475,"<ea-tile-copy":6476,"</ea-tile-copy":6477,"</ea-tile>":6478,"</fl":6479,"scroll":6480,"js-target":6481,"768\"":6482,"media-type":6483,"table-of":6484,"text/mi-context\">":6485,"</ea-tile-copy>":6486,"275\"":6487,"5px\"":6488,"636\"/>":6489,"95\"/>":6490,"<pattern":6491,"pi":6492,"</pattern":6493,"xlink:title":6494,"class_510\">":6495,"class_485\"":6496,"class_582":6497,"class_583":6498,"ntage":6499,"marker":6500,"142\"/>":6501,"selectable":6502,"285\"/>":6503,"99\"/>":6504,"displayname":6505,"id_319\">":6506,"-poster":6507,"<nmo-":6508,"</nmo-":6509,"percentage":6510,"dipodi:":6511,"v-on:keyup.":6512,"</pattern>":6513,"07":6514,"52\">":6515,"<pre>":6516,"info":6517,"prevent":6518,"class_501\"":6519,"class_508\"":6520,"class_561\">":6521,"class_573":6522,"class_581":6523,"106\"/>":6524,"class_114\"/>":6525,"152\"":6526,"136\"":6527,"red\"":6528,"speci":6529,"magento":6530,"minlength":6531,"ngcontent-serverapp-c6":6532,"toggle":6533,"52\"/>":6534,"Sub":6535,"am":6536,"dition":6537,"ns\"":6538,"id_215\"":6539,"appe":6540,"image_url":6541,"class_430\"":6542,"class_579":6543,"class_702":6544,"144\"/>":6545,"252\"":6546,"list-":6547,"id_223\"":6548,"id_217\"":6549,"promotion":6550,"menu_svg":6551,"menu_hide_":6552,"da-action":6553,"da-category":6554,"hide_button":6555,"item_languages":6556,"menu_hide_item_languages":6557,"853\"":6558,"ger":6559,"pl":6560,"inner":6561,"view-name":6562,"orde":6563,"id_69":6564,"class_568\">":6565,"class_572\">":6566,"class_653":6567,"class_588":6568,"class_605":6569,"205\"":6570,"175%\"":6571,"nghost-sc3":6572,"row\">":6573,"382\"":6574,"id_312\">":6575,"uk-icon":6576,"da-label":6577,"gridcell":6578,"mega__":6579,"comments-identifier":6580,"mqn-inview":6581,"960\"":6582,"dt":6583,"mpe":6584,"pin":6585,"resize":6586,"now":6587,"fect":6588,"176\"":6589,"137\"":6590,"195\"/>":6591,"event-name":6592,"clippathunits":6593,"element-":6594,"text/x-magento":6595,"operator":6596,"clude":6597,"<rtl-img":6598,"</rtl-img":6599,"interaction":6600,"step":6601,"runat":6602,"burger":6603,"-init\">":6604,"text/x-magento-init\">":6605,"</rtl-img>":6606,"-component":6607,"1175\"":6608,"59\">":6609,"bb":6610,"es\"":6611,"tf":6612,"ig>":6613,"aritem":6614,"height-":6615,"class_490\"":6616,"class_575":6617,"class_578":6618,"class_550\"":6619,"class_545\"":6620,"class_590":6621,"class_662\"":6622,"has-":6623,"skey":6624,"id_229\"":6625,"235\"/>":6626,"1.259":6627,"4697\"":6628,"menu-item-link-primary-level-2":6629,"sidebaritem":6630,"nghost-sc83":6631,"eyebrow-secondary-":6632,"ngcontent-lib-c12":6633,"omniture-data-":6634,"ui-s":6635,"impression":6636,"1.2594697\"":6637,"eyebrow-secondary-text":6638,"119\"":6639,"58\">":6640,"84\"/>":6641,"end":6642,"s__":6643,"<slide":6644,"</slide":6645,"id_316\">":6646,"class_484\"":6647,"class_566\"":6648,"ble-":6649,"325\"":6650,"202\"/>":6651,"1616":6652,"acceskey":6653,"284\"/>":6654,"id_310\">":6655,"id_318\">":6656,"id_323\">":6657,"block-on-":6658,"<nmo-article-teaser-v":6659,"</nmo-article-teaser-v":6660,"query-":6661,"13.7\">":6662,"13.7\"":6663,"list-item\">":6664,"orientation":6665,"journa":6666,"ui-sref":6667,"<nmo-article-teaser-v3":6668,"</nmo-article-teaser-v3>":6669,"11px\"":6670,"<score-icon-critic":6671,"</score-icon-critic":6672,"</tile-poster-meta>":6673,"talign":6674,"rel_":6675,"outalign":6676,"id_320\">":6677,"class_502\"":6678,"class_481\"":6679,"class_528\">":6680,"-pi":6681,"class_81\"/>":6682,"layoutalign":6683,"-bar":6684,"composite":6685,"composite>":6686,"id_227\"":6687,"<fecomposite":6688,"</fecomposite>":6689,"-images":6690,"468\"/>":6691,"policy":6692,"carousel>":6693,"<del":6694,"-block>":6695,"fxlayoutalign":6696,"<tile-poster-image":6697,"</tile-poster-image>":6698,"ordered\"":6699,"journalist":6700,"</score-icon-critic>":6701,"1%\">":6702,"215\"/>":6703,"49\">":6704,"51\">":6705,"</router-outlet>":6706,"<s>":6707,"fore":6708,"tab-content-":6709,"vice":6710,"class_518\">":6711,"class_523\"":6712,"class_647\">":6713,"class_636":6714,"id_219\"":6715,"link-title":6716,"id_311\">":6717,"<details":6718,"notifier>":6719,"product-tile-id":6720,"nav-menu-study":6721,"580\"/>":6722,"94":6723,"><p":6724,"Ex":6725,"Header":6726,"_nav":6727,"amphtml":6728,"pay":6729,"</span></p>":6730,"mega-":6731,"ind":6732,"insta":6733,"id_220\"":6734,"-prefetch":6735,"class_666":6736,"xmlns:sio":6737,"127\"":6738,"1280\"":6739,"201\"":6740,"moo":6741,"video-src":6742,"rdf:":6743,"upported":6744,"21\"/>":6745,"432\"":6746,"57\">":6747,"ad>":6748,"/><em":6749,"aria-multi":6750,"vaa":6751,"range":6752,"class_533\"":6753,"class_67\"/>":6754,"class_600":6755,"class_716\">":6756,"xmlns:a":6757,"</em><span":6758,"1244\"":6759,"class_172\"><dt></dt><dd></dd></dl>":6760,"class_169\"><img":6761,"247\"":6762,"id_221\"":6763,"231\"/>":6764,"sug":6765,"id_313\">":6766,"64px\"":6767,"notifier":6768,"-on-hover":6769,"<fl-text":6770,"</fl-text>":6771,"letter_":6772,"schema.":6773,"-rendering":6774,"</span></p><dl":6775,"0%\"":6776,"430\"":6777,"<v-":6778,"<mark>":6779,"_Navigation":6780,"close":6781,"iti":6782,"ly-":6783,"</v-":6784,"tad":6785,"<summary":6786,"ue-article":6787,"view>":6788,"ration":6789,"class_457\"":6790,"class_491\"":6791,"class_526\">":6792,"class_524\"":6793,"class_632\">":6794,"class_596":6795,"170":6796,"148\"":6797,"more":6798,"ngcontent-sc178":6799,"object-":6800,"</fl-link>":6801,"rep_Navigation":6802,"id_314\">":6803,"40px\">":6804,"ngcontent-sc31914":6805,"nghost-sc2000":6806,"<fl-link":6807,"specifi":6808,"sugge":6809,"ue-article-id":6810,"78\"/>":6811,"Drop":6812,"aid":6813,"tid":6814,"label-id":6815,"medium-":6816,"vant":6817,"class_470\"":6818,"class_482\"":6819,"imgfield":6820,"checkbox\">":6821,"191\"":6822,"section-id":6823,"hidefocus":6824,"id_315\">":6825,"<app-rating-":6826,"</app-rating-":6827,"shared-":6828,"product-tile":6829,"ngcontent-sc139":6830,"ngcontent-lib-c10":6831,"<rs-slide":6832,"</rs-slide":6833,"render":6834,"effect":6835,"referrerpolicy":6836,"<app-rating-item":6837,"</app-rating-item>":6838,"1b":6839,"67\"/>":6840,"<kite-":6841,"e\"":6842,"gi-":6843,"</x":6844,"</kite-":6845,"</div></td>":6846,"aria-rele":6847,"box>":6848,"cab":6849,"class_629":6850,"class_565\"":6851,"class_591":6852,"export":6853,"anima":6854,"nghost-sc5":6855,"d-uni":6856,"section>":6857,"link-target":6858,"ngcontent-sc85":6859,"id_317\">":6860,"product-overlay":6861,"track-add-to-cart-id":6862,"track-add-to-cart-title":6863,"track-add-to-cart-price":6864,"post_hidden_text":6865,"track-add-to-cart-label":6866,"track-add-to-cart-action":6867,"track-add-to-cart-category":6868,"product-tile-modifier":6869,"v-on:keyup.enter":6870,"aria-relevant":6871,"-panel":6872,"116\"":6873,"55\"/>":6874,"700\"":6875,"<caption>":6876,"N/":6877,"base":6878,"c\"":6879,"null":6880,"yin":6881,"setting":6882,"id_216\"":6883,"class_502\">":6884,"class_556\">":6885,"class_545\">":6886,"application/x-":6887,"251\"":6888,"24px\"/>":6889,"30px\"/>":6890,"id_225\"":6891,"box-news\"":6892,"max-width":6893,"pinyin":6894,"8px\"/>":6895,"93\"/>":6896,"<q>":6897,"ITE":6898,"class_36\"/>":6899,"class_524\">":6900,"class_628":6901,"class_643":6902,"line-":6903,"107\"":6904,"arrow":6905,"19px\"":6906,"244\"":6907,"-cms-":6908,"230\">":6909,"235\"":6910,"<phoenix-notifier":6911,"</phoenix-notifier>":6912,"261":6913,"id_337\">":6914,"id_325\">":6915,"main-menu__link-":6916,"ENTER":6917,"burgermenu":6918,"amphtml\"/>":6919,"vaadin-":6920,"-9":6921,"75\">":6922,"82\">":6923,"d\"":6924,"nded":6925,"bol":6926,"id_324\">":6927,"class_495\"":6928,"class_554\">":6929,"class_634":6930,"class_603\">":6931,"verti":6932,"cycle":6933,"18.":6934,"16px\">":6935,"navigation-":6936,"367\"":6937,"require":6938,"307\"":6939,"progress":6940,"pagespeed":6941,"bject":6942,"99%\">":6943,"hide-on-hover":6944,"id_321\">":6945,"navbar\"":6946,"max-height":6947,"vocab":6948,"audio/":6949,"mega__market":6950,"dtm-name":6951,"nav-menu-study__":6952,"aria-multiselectable":6953,"540\"":6954,"570\"":6955,"94\"/>":6956,"<code":6957,"CENTER":6958,"ple":6959,"ignore":6960,"class_477\"":6961,"class_564\">":6962,"store":6963,"class_540\"":6964,"class_687":6965,"submenu":6966,"odu":6967,"1244\"/>":6968,"258\"/>":6969,"-consent":6970,"state-":6971,"allowexport":6972,"0.5":6973,"387\"/>":6974,"id_330\">":6975,"id_322\">":6976,"dpid":6977,"-article-feature":6978,"zeus":6979,"23.1\"":6980,"highlight-container>":6981,"object-fit":6982,"78\">":6983,"938":6984,"id_218\"":6985,"class_458\"":6986,"class_553\"":6987,"id_79":6988,"class_547\">":6989,"extr":6990,"181\"":6991,"160\">":6992,"search_type":6993,"id_228\"":6994,"id_231\"":6995,"id_237\"":6996,"ngcontent-sc17261":6997,"ngcontent-sc86":6998,"1.5\"":6999,"id_336\">":7000,"id_334\">":7001,"id_338\">":7002,"custom":7003,"-placement":7004,"544\"/>":7005,"lazy-load-images":7006,"ngcontent-sc191":7007,"<fl-picture":7008,"nghost-sc1774":7009,"primary\">":7010,"</fl-picture>":7011,"gridcell\"":7012,"560\"/>":7013,"640\"":7014,"].":7015,"ite_":7016,"trig":7017,"ctor-":7018,"true\"/>":7019,"id_224\"":7020,"class_555\"":7021,"class_584":7022,"class_594":7023,"class_611":7024,"class_608":7025,"class_755":7026,"class_758":7027,"class_743":7028,"209\"":7029,"s-id":7030,"254\"/>":7031,"365\"":7032,"id_222\"":7033,"id_226\"":7034,"allows":7035,"nav-dropdown":7036,"id_340\">":7037,"id_348\">":7038,"></a></li></ul>":7039,"576\"/>":7040,"county":7041,"id_328\">":7042,"id_327\">":7043,"gtm-event-":7044,"params":7045,"js-county":7046,"&lt;strong&gt;":7047,"c_data_":7048,"paragraph\">":7049,"specific_data_":7050,"mega__markets__":7051,"ite_specific_data_":7052,"114\"":7053,"440\"/>":7054,"68\"/>":7055,"76\">":7056,"88\">":7057,"ir":7058,"switch":7059,"ine":7060,"link_title":7061,"class_479\"":7062,"class_543\">":7063,"class_548\"":7064,"class_614":7065,"224\"/>":7066,"-config":7067,"id_245\"":7068,"337\"":7069,"row>":7070,"-access":7071,"392\"/>":7072,"<ins>":7073,"id_326\">":7074,"strip>":7075,"strokelinecap":7076,"</transition>":7077,"-1\"":7078,"06":7079,"3%\"":7080,"560\"":7081,"81\"/>":7082,"<router-outle":7083,"Sh":7084,"n\"":7085,"on-":7086,"reltype":7087,"content\"":7088,"tab>":7089,"id_230\"":7090,"class_487\"":7091,"class_521\"":7092,"class_627":7093,"class_537\"":7094,"class_693":7095,"class_641":7096,"class_595":7097,"108\"/>":7098,"class_756":7099,"ng-app":7100,"120\">":7101,"http":7102,"20px\">":7103,"188\"/>":7104,"vector-":7105,"293\"":7106,"288\"":7107,"id_236\"":7108,"id_249\"":7109,"id_339\">":7110,"id_335\">":7111,"id_333\">":7112,"ngcontent-sc11":7113,"id_329\">":7114,"level-1":7115,"uk-img":7116,"navbarS":7117,"social-share":7118,"<cfc":7119,"</cfc":7120,"strokelinejoin":7121,"nghost-sc92":7122,"vmx-":7123,"<router-outlet":7124,"vector-effect":7125,"-group>":7126,"218\"":7127,"590\"/>":7128,":li":7129,"<cx-":7130,"<mgm-":7131,"ber>":7132,"cs":7133,"fl":7134,"photo":7135,"stick":7136,"y\">":7137,"large":7138,"</cx-":7139,"</mgm-":7140,"class_1\"/>":7141,"dable":7142,"tyle":7143,"<icon":7144,"room-":7145,"cker":7146,"class_529\">":7147,"class_622":7148,"class_637":7149,"1024\">":7150,"class_616":7151,"class_757":7152,"game":7153,"nghost-sc53":7154,"shape-rendering":7155,"354\"":7156,"id_342\">":7157,"id_331\">":7158,"id_332\">":7159,"alysi":7160,"background-color":7161,"selector":7162,"inkscape:window":7163,"593\"/>":7164,"product-id":7165,"-host":7166,"<ndc-dynamic":7167,"ff":7168,"sstate":7169,"</ndc-dynamic":7170,"</header":7171,"class_574\">":7172,"class_647":7173,"class_632":7174,"focusstate":7175,"x-tmp":7176,"143\"/>":7177,"134\"":7178,"skele":7179,"ngcontent-sc80":7180,"id_346\">":7181,"id_372\">":7182,"id_362\">":7183,"yg-server-host":7184,"-adverti":7185,"multi-parent":7186,"ygfocusstate":7187,"f-multi-parent":7188,"slideshow_":7189,"</ndc-dynamic>":7190,"x-tmpl-":7191,"yg-server-host-sc":7192,"-date":7193,"212\"":7194,"31\"/>":7195,"63\">":7196,"71\">":7197,"86\">":7198,"Fo":7199,"IC":7200,"bid":7201,"isrc":7202,"ject":7203,"jquery-":7204,"ssion":7205,"<adder":7206,"</adder":7207,"ony":7208,"aria":7209,"</svg":7210,"file-":7211,"class_560\">":7212,"<gcse:searchbox-only":7213,"class_530\">":7214,"class_553\">":7215,"class_649":7216,"class_665":7217,"class_617":7218,"325\"/>":7219,"norefe":7220,"id_90":7221,"subheading":7222,"point":7223,"20%\">":7224,"-about":7225,"183\"":7226,"255\"":7227,"atta":7228,"id_241\"":7229,"263\"":7230,"id_347\">":7231,"id_364\">":7232,"number>":7233,"446\"/>":7234,"<app-comments-":7235,"</app-comments-":7236,"share>":7237,"product\">":7238,"custom_":7239,"gi-icon":7240,"x-tmpl-mustache\">":7241,"</adder>":7242,"<app-comments-number":7243,"</app-comments-number>":7244,"A\"":7245,"m-po":7246,"sl":7247,"wa":7248,"libi":7249,"nam-po":7250,"citad":7251,"class_474\"":7252,"class_469\"":7253,"class_624\">":7254,"class_540\">":7255,"class_673":7256,"com-":7257,"xmlns:v":7258,"ng-change":7259,"151\"":7260,"lolibi":7261,"189\"/>":7262,"140\">":7263,"ngcontent-sc58":7264,"ngcontent-sc59":7265,"-cta":7266,"dossi":7267,"264\"":7268,"eznam-po":7269,"id_351\">":7270,"id_363\">":7271,"orisrc":7272,"sp-skele":7273,"television":7274,"require_":7275,"attach":7276,"citadlolibi":7277,"dossier":7278,"eznam-pocitadlolibi":7279,"sp-skeleton":7280,"eznam-pocitadlolibise":7281,"09":7282,"72\">":7283,"Style":7284,"ing-click":7285,"kodu":7286,"md-":7287,"sitem":7288,"whi":7289,"idx":7290,"as24":7291,"class_512\">":7292,"class_571\"":7293,"class_581\">":7294,"class_598":7295,"subheading>":7296,"152\"/>":7297,"197\"":7298,"25.":7299,"ilkodu":7300,"id_234\"":7301,"show-on":7302,"id_253\"":7303,"id_271\"":7304,"ga-impression":7305,"262\"":7306,"<ea-subheading":7307,"</ea-subheading>":7308,"application/json+":7309,"id_343\">":7310,"id_380\">":7311,"carousel-":7312,"<amp-social-share":7313,"</amp-social-":7314,"gtm\">":7315,"zoneid":7316,"-tracking>":7317,"-tracking-click":7318,"megamenu-desktop":7319,"favorite":7320,"<as24-tracking":7321,"</as24-tracking>":7322,"ly-megamenu-desktop":7323,"jquery-tmpl\">":7324,"as24-tracking-click":7325,"show-only-megamenu-desktop":7326,"ga-impression-":7327,"</amp-social-share>":7328,"as24-tracking-click-target":7329,"-for":7330,"113":7331,"DF":7332,"TC":7333,"_1_":7334,"kind":7335,"yq":7336,"le\"":7337,"scribe":7338,"igno":7339,"id_232\"":7340,"simp":7341,"follow-button>":7342,"class_716":7343,"class_703":7344,"class_700\">":7345,"class_97\"/>":7346,"id_243\"":7347,"id_252\"":7348,"banner\"":7349,"id_344\">":7350,"id_350\">":7351,"id_352\">":7352,"id_373\">":7353,"crony":7354,"aria-valuemax":7355,"aria-valuemin":7356,"dl-test":7357,"bcproduct\">":7358,"resultsurl":7359,"foreigno":7360,"medium-teaser":7361,"main-menu__link--sub":7362,"application/json+bcproduct\">":7363,"foreignobject":7364,"&amp":7365,"37\"/>":7366,"313\"/>":7367,"40.":7368,"73\">":7369,"77\">":7370,"76\"/>":7371,"710\"/>":7372,"89\">":7373,"83\">":7374,"840\"/>":7375,"<relative":7376,"='\"":7377,"></em><span":7378,"Col":7379,"bla":7380,"gal":7381,"ome":7382,"sap-":7383,"class-name":7384,"</relative":7385,"views_":7386,"class_506\"":7387,"class_527\">":7388,"class_677":7389,"class_686":7390,"class_87\"/>":7391,"120":7392,"hook":7393,"259\"/>":7394,"id_233\"":7395,"id_242\"":7396,"id_247\"":7397,"id_269\"":7398,"track-data":7399,"id_270\"":7400,"id_273\"":7401,"page>":7402,"ment\"":7403,"external-":7404,"link-path":7405,"355\"/>":7406,"1.5":7407,"id_341\">":7408,"id_356\">":7409,"id_378\">":7410,"408\"":7411,"475\"/>":7412,"800\">":7413,"alert\"":7414,"variation":7415,"variant--":7416,"amp-access":7417,"original\"":7418,"modid":7419,"video-card-layout":7420,"video-card-component":7421,"jax":7422,"experiment-":7423,"_div_":7424,"innerhtml":7425,"cycle_div_":7426,"room-experiment-":7427,"slideshow_cycle_div_":7428,"<relative-link":7429,"sap-modid":7430,"</relative-link>":7431,"views_slideshow_cycle_div_":7432,"variant--original\"":7433,"room-experiment-variant--original\"":7434,"533\"":7435,"65\">":7436,"84\">":7437,"<x":7438,"UT":7439,"gva":7440,"y\"":7441,"panalysi":7442,"et-":7443,"id_240\"":7444,"class_694":7445,"class_696":7446,"class_612":7447,"-anima":7448,"182\"":7449,"147\"/>":7450,"analytics":7451,"<phoenix-ad":7452,"</phoenix-ad>":7453,"261\"/>":7454,"<ea-local-nav-shelf-sub-nav-section":7455,"</ea-local-nav-shelf-sub-nav-section":7456,"486\"/>":7457,"id_379\">":7458,"id_375\">":7459,"447\"/>":7460,"teaser-":7461,"gtm-a":7462,"ne-module":7463,"tel\"/>":7464,"drawer":7465,"navbarSupported":7466,"gva_":7467,"panalysis-id":7468,"232\"":7469,"74\">":7470,"<n":7471,"ee":7472,"</n":7473,"class_40\"/>":7474,"timesta":7475,"rance":7476,"class_489\"":7477,"class_497\"":7478,"class_525\">":7479,"class_639":7480,"class_630\">":7481,"class_549\">":7482,"class_661\"":7483,"10px\">":7484,"class_689\">":7485,"129\"/>":7486,"feed":7487,"tracking>":7488,"v-slot":7489,"193\">":7490,"id_259\"":7491,"<phoenix-non-personalized-recommendations-":7492,"</phoenix-non-personalized-recommendations-":7493,"id_345\">":7494,"0000":7495,"id_354\">":7496,"id_377\">":7497,"addition":7498,"number\"":7499,"ORTC":7500,"SHORTC":7501,"audio/mpe":7502,"ICON":7503,"<phoenix-non-personalized-recommendations-tracking":7504,"</phoenix-non-personalized-recommendations-tracking>":7505,"SHORTCUT":7506,".com":7507,"390\"":7508,"bt":7509,"fter":7510,"stitle":7511,"us-":7512,"src3":7513,"th-popup":7514,"<push-analytics-event":7515,"fir":7516,"<source/>":7517,"id_260\"":7518,"avail":7519,"</push-analytics-event":7520,"ngcontent-sc23":7521,"class_626":7522,"class_630":7523,"class_658\">":7524,"class_600\">":7525,"class_822":7526,"129\"":7527,"popup-data":7528,"189\"":7529,"ngcontent-sc449":7530,"id_246\"":7531,"id_257\"":7532,"-close":7533,"id_267\"":7534,"359\"/>":7535,"bi_":7536,"id_349\">":7537,"id_374\">":7538,"id_360\">":7539,"id_365\">":7540,"ngcontent-c25":7541,"gtm-l":7542,"gtm-n":7543,"block-":7544,"product-avail":7545,"columns":7546,"product-price":7547,"gtm-pn":7548,"gtm-pp":7549,"gtm-pid":7550,"multiple":7551,"ctl0":7552,"small\">":7553,"0.75em\"":7554,"gtm-cn":7555,"television-poster":7556,"audio/mpeg\"/>":7557,"</push-analytics-event>":7558,"110":7559,"217\"":7560,"61\">":7561,"7px\"":7562,"770\"/>":7563,"86\"/>":7564,"9px\"":7565,"_sa":7566,"monkey":7567,"squ":7568,"vsource":7569,"</col":7570,"</bol-link>":7571,"<search":7572,"a-icon":7573,"a-icon>":7574,"</search":7575,"nation":7576,"sente":7577,"class_525\"":7578,"class_538\"":7579,"class_558\">":7580,"class_613":7581,"upsente":7582,"ng-attr":7583,"class_132\"/>":7584,"12px\">":7585,"hash":7586,"185\"/>":7587,"298\"":7588,"298\"/>":7589,"id_238\"":7590,"id_239\"":7591,"id_244\"":7592,"266\"":7593,"26px\"/>":7594,"<ea-locale-selector-":7595,"</ea-locale-selector-":7596,"<fa-icon":7597,"</fa-icon>":7598,"id_358\">":7599,"id_353\">":7600,"<client-redirect":7601,"</client-redirect":7602,"ngcontent-sc144":7603,"menu_id":7604,"default-":7605,"aria-valuenow":7606,"text/javascript\"/>":7607,"ÃÂ¢ÃÃ\"":7608,"custom_menu_id":7609,"</colgroup>":7610,"upsentence":7611,"<ea-locale-selector-option":7612,"</ea-locale-selector-option>":7613,"<client-redirect-button":7614,"</client-redirect-button>":7615,"215\"":7616,"670\"/>":7617,"87\">":7618,"98\">":7619,"></span><span":7620,"w-":7621,"xheight":7622,"x-placement":7623,"rota":7624,"no-prefetch":7625,"class_533\">":7626,"class_691":7627,"class_648":7628,"class_546\"":7629,"class_604\">":7630,"class_752\"":7631,"204\"":7632,"139\"":7633,"253\"":7634,"ream-":7635,"id_255\"":7636,"id_268\"":7637,"271\"":7638,"275\"/>":7639,"id_355\">":7640,"ngcontent-c55":7641,"80%\">":7642,"<colgroup>":7643,"ÃÂ¢ÃÃ":7644,"cookie-":7645,"are\">":7646,"class_172\"><dt></dt><dd></dd></dl></a></li><li><a":7647,"N/A\"":7648,"navbarSupportedContent\"":7649,"square\">":7650,"67\">":7651,"lider":7652,"seri":7653,"class_35\"/>":7654,"st_url":7655,"class_641\">":7656,"class_597":7657,"class_672":7658,"class_674\">":7659,"class_601":7660,"class_99\"/>":7661,"166\"":7662,"170px\"":7663,"258\"":7664,"tive-":7665,"282\"":7666,"id_251\"":7667,"id_263\"":7668,"234\"":7669,"header-nav-":7670,"id_366\">":7671,"id_361\">":7672,"is-element":7673,"sodipodi:":7674,"product-label-id":7675,"next\">":7676,"published-uni":7677,"inputs":7678,"nitro-lazy-":7679,"ng-reflect-ndc-dynamic-component":7680,"ng-reflect-ndc-dynamic-inputs":7681,"published-unix":7682,"-l":7683,"-event":7684,"4-":7685,"664\"":7686,"92\"/>":7687,"<text>":7688,"LW":7689,"M\">":7690,"guid":7691,"k>":7692,"s/":7693,"sort":7694,"tms":7695,"uk":7696,"ret":7697,"</animate":7698,"data-src":7699,"thum":7700,"class_16\"/>":7701,"class_531\"":7702,"class_576\">":7703,"transform>":7704,"class_670":7705,"class_669":7706,"vehi":7707,"ortcut":7708,"130px\"":7709,"nghost-sc1":7710,"id_254\"":7711,"id_262\"":7712,"id_261\"":7713,"id_272\"":7714,"379\"/>":7715,"elementor-":7716,"object-position":7717,"<animatetransform":7718,"v-on:click.":7719,"clublogo":7720,"nghost-sc319":7721,"xmlns:a10":7722,"</animatetransform>":7723,"thumb":7724,"elementor-tab-content-":7725,"1px\">":7726,"53\"/>":7727,"63":7728,"66\">":7729,"68\">":7730,"728\"/>":7731,"85\">":7732,"81\">":7733,"ad-":7734,"br/>":7735,"fu":7736,"u\">":7737,"</column>":7738,"life":7739,"class_19\"/>":7740,"class_492\"":7741,"class_566\">":7742,"class_531\">":7743,"class_619":7744,"class_604":7745,"topnav-dropdown":7746,"157\"":7747,"206\"":7748,"208\"":7749,"181\"/>":7750,"id_256\"":7751,"id_258\"":7752,"service":7753,"<ea-link":7754,"</ea-link>":7755,"collapsi":7756,"id_357\">":7757,"id_370\">":7758,"id_368\">":7759,"576\"":7760,"4545":7761,"patter":7762,"-togg":7763,"<wbr/>":7764,"responsive-link-":7765,"blkclick":7766,"Shortcut":7767,"-1":7768,"-test":7769,"111\"":7770,"79\">":7771,"<bol-link>":7772,"AC":7773,"Y_":7774,"ahea":7775,"eng":7776,"ial":7777,"lh":7778,"nx":7779,"picture":7780,"dica":7781,"conta":7782,"nt-":7783,"</strike>":7784,"<pre":7785,"id_314\"":7786,"nuni":7787,"class_624":7788,"class_532\">":7789,"class_559\">":7790,"dyla":7791,"class_695":7792,"class_594\">":7793,"exte":7794,"10%\">":7795,"class_603":7796,"class_703\">":7797,"class_32\"></span><span":7798,"140":7799,"1300\"/>":7800,"tori":7801,"mask-type":7802,"id_274\"":7803,"homepage-":7804,"candyla":7805,"id_367\">":7806,"470\"/>":7807,"ngcontent-sc145":7808,"ampli":7809,"quest":7810,"ti-shared-":7811,"0.75em\">":7812,"brand":7813,"x-on:click":7814,"progressbar\"":7815,"sitemap":7816,"hook-test":7817,"patternuni":7818,"patternunits":7819,"99\">":7820,"95\">":7821,"cer":7822,"md":7823,"pt\"":7824,"user-":7825,"id_275\"":7826,"olu":7827,"ngcontent-sc100":7828,"class_625":7829,"class_701\">":7830,"ng-src":7831,"compid":7832,"208\"/>":7833,"178\"":7834,"192.":7835,"29.":7836,"283\"":7837,"id_248\"":7838,"id_265\"":7839,"id_266\"":7840,"nav-main":7841,"id_359\">":7842,"with":7843,"cse:search>":7844,"ndar":7845,"mqn-autotrack-":7846,"network-":7847,"-search":7848,"3%\">":7849,"424\"":7850,"422\"":7851,"524\"/>":7852,"62\">":7853,"628\"":7854,"7b":7855,"91\">":7856,"97\"/>":7857,"<favorite":7858,"GOR":7859,"In":7860,"S\"":7861,"b:li":7862,"fck":7863,"pcid":7864,"lead":7865,"media>":7866,"class_565\">":7867,"class_539\"":7868,"class_554\"":7869,"class_645":7870,"class_646":7871,"class_615":7872,"class_602":7873,"class_704\">":7874,"class_105\"/>":7875,"class_1045":7876,"class_1046":7877,"class_104\"/>":7878,"game-":7879,"loc-":7880,"class_170\"></span></p><dl":7881,"auto\">":7882,"138\"":7883,"font/ot":7884,"nghost-sc74":7885,"27.":7886,"265\"":7887,"ngcontent-sc124":7888,"vedurl":7889,"stroke-dashoffset":7890,"</code></pre>":7891,"CATE":7892,"social":7893,"news-section":7894,"-icon-cta-":7895,"aca-news-section":7896,"omniture-value":7897,"format>":7898,"www":7899,"yg-server-content-sc149":7900,"</rs-slide>":7901,"ITEM\">":7902,"inkscape:window-":7903,"_savedurl":7904,"Y_ITEM\">":7905,"192.3%\"":7906,"GORY_ITEM\">":7907,"fck_savedurl":7908,"font/otf\"/>":7909,"CATEGORY_ITEM\">":7910,"132\"/>":7911,"380\"":7912,"43":7913,"512px\"":7914,"<n-":7915,"_hash":7916,"</n-":7917,"rem\"":7918,"<pro":7919,"<span></span>":7920,"medium":7921,"</pro":7922,"class_577\">":7923,"class_552\">":7924,"class_697":7925,"class_699":7926,"st_title":7927,"class_602\">":7928,"326\"/>":7929,"605\"":7930,"281\"":7931,"id_264\"":7932,"ngcontent-sc262":7933,"262\"/>":7934,"modelid":7935,"-poli":7936,"bility":7937,"modeltype":7938,"nghost-sc73":7939,"-fid":7940,"_url_hash":7941,"toggle-":7942,"Menu\"":7943,"_section_":7944,"editori":7945,"wrapper>":7946,"append-":7947,"pagespeed_url_hash":7948,"vehicle":7949,"dicator":7950,"3px\">":7951,"310\"":7952,"312\"/>":7953,"<tile-poster-meta":7954,"bbed":7955,"dr":7956,"eting":7957,"f8":7958,"l\"":7959,"mh-":7960,"</favori":7961,"rcial":7962,"aria-gra":7963,"elm-":7964,"nor":7965,"bol-":7966,"<bg-quo":7967,"class_569\"":7968,"class_578\">":7969,"st_":7970,"class_640\">":7971,"class_584\">":7972,"line_":7973,"class_607":7974,"class_68\"/>":7975,"</bg-quo":7976,"topic":7977,"155\"/>":7978,"utho":7979,"36px\"":7980,"id_285\"":7981,"id_283\"":7982,"-image-":7983,"ngcontent-sc129":7984,"79.9":7985,"-picture\">":7986,"text/template-picture\">":7987,"2_ctl00_":7988,"</tile-poster>":7989,"username":7990,"<amp-ad":7991,"</amp-ad>":7992,"primary-menu\"":7993,"Colla":7994,"<ea-local-nav-shelf-sub-nav-section-link":7995,"</ea-local-nav-shelf-sub-nav-section-link>":7996,"topnav-dropdown-cms-":7997,"aria-grabbed":7998,"<bg-quote":7999,"</bg-quote>":8000,"79.91\">":8001,"210":8002,"21.":8003,"49\"/>":8004,"79\"/>":8005,"93\">":8006,"><img":8007,"De":8008,"dou":8009,"gif":8010,"uhref":8011,"usrc":8012,"utitle":8013,"v-product-":8014,"lan":8015,"liu\">":8016,"aria-test":8017,"aria-orientation":8018,"id_250\"":8019,"linkid":8020,"linkgroup":8021,"forme":8022,"rai":8023,"appro":8024,"class_575\">":8025,"class_644":8026,"class_592\">":8027,"class_707\">":8028,"x-show":8029,"15%\">":8030,"-and-":8031,"136\"/>":8032,"<thead":8033,"ressource":8034,"l-ressource":8035,"active-title":8036,"0.8\"":8037,"id_376\">":8038,"id_369\">":8039,"458\"":8040,"-input":8041,"carousel\"":8042,"ngcontent-sc148":8043,"background-":8044,"premium\"":8045,"ourl-ressource":8046,"ratiourl-ressource":8047,"</favorite>":8048,"line_number":8049,"v-product-interaction":8050,"02\"":8051,"31.":8052,"43\"/>":8053,"<q":8054,"_re":8055,"sm-":8056,"sand":8057,"onscree":8058,"class_610":8059,"nover":8060,"click-a":8061,"tray-":8062,"class_522\"":8063,"class_527\"":8064,"xmlns:x":8065,"preload\">":8066,"ng-disabled":8067,"128\">":8068,"605\"/>":8069,"panel\"":8070,"nghost-sc12":8071,"284\"":8072,"281\"/>":8073,"-cri":8074,"34px\"":8075,"490\"/>":8076,"463\"":8077,"tooltip-":8078,"v-bind:src":8079,"kicker":8080,"shade":8081,"ugc\"":8082,"level-2-item-":8083,"dfp-":8084,"blktitle":8085,"</header-":8086,"attachment\">":8087,"blank":8088,"sitemap\"":8089,"uthored":8090,"double":8091,"onscreenover":8092,"-news":8093,"216\"/>":8094,"<bookmark-button":8095,"Scri":8096,"_sub":8097,"ej-":8098,"</bookmark-button":8099,"<icon>":8100,"contenturl":8101,"content-image":8102,"content-title":8103,"noshade":8104,"id_313\"":8105,"nav_":8106,"class_528\"":8107,"class_532\"":8108,"class_570\"":8109,"class_551\"":8110,"class_543\"":8111,"class_663":8112,"class_606\">":8113,"ng-mouseover":8114,"id_100":8115,"-after":8116,"load-after":8117,"2560\"/>":8118,"authors":8119,"600\">":8120,"keyhint":8121,"308\"":8122,"dot":8123,"onfocusout":8124,"is-premium":8125,"465\"/>":8126,"-analytic":8127,"-small>":8128,"enterkeyhint":8129,"<del>":8130,"entr":8131,"botto":8132,"-auto-":8133,"content-date":8134,"content-lead":8135,"content-kicker":8136,"witch>":8137,"</kite-date>":8138,"trigger":8139,"<bookmark-button-small":8140,"</bookmark-button-small>":8141,"load-after-cri":8142,"-preview":8143,"41\"/>":8144,"635\"/>":8145,"740\"/>":8146,"97\">":8147,"Com":8148,"Java":8149,"stion":8150,"tp":8151,"review":8152,"request":8153,"palign":8154,"<aafp-":8155,"</aafp-":8156,"class_710":8157,"tical-":8158,"in-":8159,"car":8160,"cssclass":8161,"class_569\">":8162,"class_530\"":8163,"class_549\"":8164,"class_599":8165,"imgsize":8166,"class_108\"/>":8167,"163\"/>":8168,"tag3>":8169,"module>":8170,"id_277\"":8171,"id_293\"":8172,"id_305\"":8173,"335\"/>":8174,"id_371\">":8175,"tooltipalign":8176,"<app-home-page-hire-category-item-redesig":8177,"</app-home-page-hire-category-item-redesig":8178,"90%\"/>":8179,"8.57":8180,"ngcontent-sc150":8181,"ngcontent-sc156":8182,"dl-template":8183,"42px\"":8184,"-tabs-":8185,"featureddate":8186,"px,,":8187,"pb-click-a":8188,"noreferer\"":8189,"timestamp-":8190,"nghost-sc31913":8191,"doubleclick":8192,"bottom-":8193,"tooltipalignment":8194,"<app-home-page-hire-category-item-redesign":8195,"</app-home-page-hire-category-item-redesign>":8196,"219\"/>":8197,"312\"":8198,"69\">":8199,"DC":8200,"Li":8201,"cre":8202,"e>":8203,"sy":8204,"sor":8205,"les":8206,"day-":8207,"text/Java":8208,"form\"":8209,"clicktrack":8210,"menu.":8211,"menu-about":8212,"ratio":8213,"nofollowÃÂ¢ÃÃ\"":8214,"class_620":8215,"class_534\">":8216,"col-":8217,"class_591\">":8218,"class_664":8219,"cover":8220,"class_609":8221,"class_71\"/>":8222,"<header-":8223,"application/xml\"/>":8224,"los":8225,"1875":8226,"urn":8227,"192\"/>":8228,"362\"":8229,"nghost-sc6":8230,"id_276\"":8231,"id_278\"":8232,"id_279\"":8233,"id_281\"":8234,"id_302\"":8235,"id_304\"":8236,"text/html\"":8237,"ngcontent-sc117":8238,"id_388\">":8239,"id_398\">":8240,"dropdown-":8241,"ories":8242,"notification":8243,"ÃÂ¢ÃÃnofollowÃÂ¢ÃÃ\"":8244,"serif":8245,"nitro-lazy-empty":8246,"-policy":8247,"sandbox":8248,"8.573px\">":8249,"460\"":8250,"6px\"":8251,"8px\">":8252,"94\">":8253,"<date":8254,"<yg":8255,"Em":8256,"Icon":8257,"bal":8258,"c3":8259,"csk":8260,"dG":8261,"e:":8262,"kit":8263,"lr-":8264,"</yg":8265,"lea":8266,"<summary>":8267,"aria-readonly":8268,"items[":8269,"ter\"":8270,"linktrack":8271,"gener":8272,"nup":8273,"<dxp-":8274,"</dxp-":8275,"class_665\">":8276,"324\"/>":8277,"class_786\">":8278,"</big>":8279,"application\">":8280,"actionhint":8281,"main-link-":8282,"173\">":8283,"vedby":8284,"254\"":8285,"245\">":8286,"video-":8287,"overview-":8288,"isfeatured":8289,"234\"/>":8290,"9999":8291,"d-append-":8292,"region_id":8293,"381px\"":8294,"381px\">":8295,"1.1875":8296,"394\"/>":8297,"400\">":8298,"i-img-":8299,"667\"":8300,"ngcontent-sc161":8301,"default-c":8302,"799\"":8303,"ngcontent-serverapp-c12":8304,"inputmode":8305,"mozactionhint":8306,"results\"":8307,"stars\">":8308,"pb-impress":8309,"dot-dot":8310,"element-bookmark-button":8311,"photoid":8312,"require_login":8313,"amplience":8314,"approvedby":8315,"timestamp-data":8316,"text/JavaScri":8317,"menu.items[":8318,"d-append-class":8319,"1320\"/>":8320,"1125\"":8321,"630\"/>":8322,"842\"/>":8323,"93":8324,"cms-":8325,"gree":8326,"mp>":8327,"dator":8328,"desti":8329,"types":8330,"aring-":8331,"rop-config":8332,"id_300\"":8333,"id_311\"":8334,"chro":8335,"css-class":8336,"class_627\">":8337,"class_536\"":8338,"class_583\">":8339,"class_59\"/>":8340,"107\"/>":8341,"class_708\"":8342,"class_792":8343,"ng-style":8344,"sharing-":8345,"nice":8346,"s-config":8347,"more-":8348,"22.":8349,"294\"":8350,"ng-reflect-default-c":8351,"id_282\"":8352,"id_288\"":8353,"id_287\"":8354,"valid-":8355,"id_294\"":8356,"id_303\"":8357,"33%\">":8358,"355\"":8359,"570\"/>":8360,"id_386\">":8361,"449\"/>":8362,"743\"":8363,"<nmo-image":8364,"<nmo-picture":8365,"</nmo-picture>":8366,"</nmo-image>":8367,"child":8368,"70%\">":8369,"license\">":8370,"parti":8371,"cookies":8372,"aca-homepage":8373,"aca-homepage-":8374,"global":8375,"ng-reflect-crops":8376,"ng-reflect-crops-config":8377,"ng-reflect-uri":8378,"ng-reflect-uuid":8379,"ng-reflect-alt-text":8380,"level-1-item-":8381,"normal":8382,"ng-reflect-default-crop-config":8383,"aca-homepage-index":8384,"-widget":8385,"0-":8386,"117\"":8387,"212\"/>":8388,"780\"/>":8389,"89\"":8390,"91":8391,"940\"":8392,"<kite":8393,"d3":8394,"p\"":8395,"py":8396,"rk":8397,"s-promo":8398,"xlazyimg":8399,"</kite":8400,"pt\">":8401,"ther":8402,"peop":8403,"fix":8404,"<p></p>":8405,"id_310\"":8406,"class_563\">":8407,"class_692":8408,"class_546\">":8409,"class_584\"":8410,"class_719":8411,"class_879":8412,"quick":8413,"placeholdersrc":8414,"placeholdermsid":8415,"143\"":8416,"offsetvertical":8417,"ngcontent-sc68":8418,"-crea":8419,"validator":8420,"nav-menu-about":8421,"990\"/>":8422,"id_290\"":8423,"id_291\"":8424,"id_299\"":8425,"duration":8426,"-account":8427,"id_382\">":8428,"id_394\">":8429,"id_393\">":8430,"mobile-menu-item-":8431,"persona":8432,"ne-class":8433,"nghost-sc78":8434,"sponsored\">":8435,"c-navigation-item":8436,"resizemode":8437,"mega-menu-":8438,"extra-":8439,"ite_specific_data_property":8440,"Stylesheet":8441,"580\"":8442,"680\"/>":8443,"70px\"":8444,"89":8445,"<r":8446,"D-":8447,"DE":8448,"mv":8449,"t_nav":8450,"wrt":8451,"</r":8452,"lert":8453,"<strike>":8454,"textbox\"":8455,"fini":8456,"id_280\"":8457,"open-":8458,"class_626\">":8459,"class_534\"":8460,"class_579\"":8461,"class_558\"":8462,"class_606":8463,"class_717":8464,"class_700":8465,"xmlns:dd":8466,"class_1371":8467,"sidenav-":8468,"1662\"/>":8469,"176\"/>":8470,"outub":8471,"lazy_src":8472,"id_284\"":8473,"id_381\">":8474,"id_390\">":8475,"id_397\">":8476,"nodetypes":8477,"-indicator":8478,"<nmo-announcement-teaser":8479,"</nmo-announcement-teaser":8480,"ngcontent-sc106":8481,"hare":8482,"70px\"/>":8483,"<devsite-":8484,"</devsite-":8485,"uib-":8486,"</slide>":8487,"sodipodi:nodetypes":8488,"-analytics>":8489,"xmlns:ddwrt":8490,"</nmo-announcement-teaser>":8491,"<center":8492,"<param":8493,"LX":8494,"ST":8495,"_icon":8496,"cmode":8497,"eve":8498,"fid":8499,"youtub":8500,"<accordion":8501,"</accordion":8502,"tation":8503,"scrim-":8504,"meso":8505,"sing":8506,"javascript\"/>":8507,"loans\"":8508,"class_622\">":8509,"class_561\"":8510,"class_676\">":8511,"class_667":8512,"class_720":8513,"class_704":8514,"xmlns:cc":8515,"action-":8516,"subItem":8517,"sub-menu-":8518,"20.":8519,"18px\"/>":8520,"184\"/>":8521,"177\"/>":8522,"calcmode":8523,"198\">":8524,"194\"/>":8525,"249\"":8526,"ifempty":8527,"295\"":8528,"<feoffset>":8529,"iso":8530,"239\"":8531,"273\"":8532,"id_296\"":8533,"id_308\"":8534,"id_307\"":8535,"hideifempty":8536,"485\"":8537,"toolbar":8538,"ler>":8539,"505\"":8540,"ngcontent-c9":8541,"id_406\">":8542,"v-bind:href":8543,"-analytics":8544,"Link\"":8545,"mobile-nav-right":8546,"-product":8547,"nghost-c9":8548,"daa-im":8549,"daa-lh":8550,"vmx":8551,"no-follow\"":8552,"promotion-crea":8553,"payday-":8554,"mooth":8555,"].subItem":8556,"<cfc-link":8557,"</cfc-link>":8558,"load-after-critical-":8559,"promotion-creative":8560,"payday-loans\"":8561,"].subItems[":8562,"load-after-critical-elements":8563,"-component>":8564,"114\"/>":8565,"119.":8566,"670\"":8567,"730\"/>":8568,"<comments-counter":8569,"Ope":8570,"ZX":8571,"bG":8572,"cas":8573,"int":8574,"nder":8575,"oom":8576,"pop":8577,"</date>":8578,"</comments-counter":8579,"less":8580,"button_icon":8581,"icon_class":8582,"apply":8583,"class_628\">":8584,"<dn-component-":8585,"</dn-component-":8586,"class_593\">":8587,"class_613\">":8588,"class_721\"":8589,"class_681":8590,"class_782\">":8591,"original-":8592,"15px\">":8593,"bookmark-button>":8594,"v-srcset":8595,"363\"":8596,"366\"":8597,"237\"":8598,"233\"/>":8599,"id_295\"":8600,"id_301\"":8601,"id_392\">":8602,"id_402\">":8603,"<client-root":8604,"</client-root>":8605,"cc_":8606,"container_class":8607,"min-count":8608,"533\"/>":8609,"-scrol":8610,"tracking-label":8611,"desktop-":8612,"dn_aid":8613,"dn_button_icon":8614,"dn_icon_class":8615,"dn_container_class":8616,"</cfc-navigation":8617,"text/JavaScript\">":8618,"chrome-":8619,"nav-menu-about__":8620,"</comments-counter>":8621,"<dn-component-bookmark-button":8622,"</dn-component-bookmark-button>":8623,"52":8624,"89\"/>":8625,"V2_ctl00_":8626,"_Drop":8627,"bs":8628,"j0":8629,"ucc_":8630,"dial":8631,"rich":8632,"initi":8633,"mana":8634,"sis":8635,"class_41\"/>":8636,"class_585\">":8637,"class_785\">":8638,"class_887\"":8639,"class_1058":8640,"class_128\"/>":8641,"x-data":8642,"class_165\"/>":8643,"13px\">":8644,"24.":8645,"layout>":8646,"296\"":8647,"id_289\"":8648,"id_306\"":8649,"component-name":8650,"collapse-content\"":8651,"text/x-dot-":8652,"402\"":8653,"id_384\">":8654,"id_383\">":8655,"id_387\">":8656,"id_395\">":8657,"id_391\">":8658,"trackingdata":8659,"ngcontent-sc142":8660,"custom-style>":8661,"amp-type":8662,"amp-name":8663,"amp-lang":8664,"amp-persona":8665,"next\"":8666,"-slide-":8667,"mobile\"":8668,"<rs-module":8669,"<cfc-navigation-item":8670,"nghost-c10":8671,"ctl00_ucc_":8672,"network":8673,"////////":8674,"table-of-content":8675,"table-of-content>":8676,"HeaderV2_ctl00_":8677,"rep_Navigation_":8678,"nav-menu-study__apply":8679,"block-premium":8680,"collapsible-":8681,"Collapse":8682,"<kite-picture":8683,"</kite-picture>":8684,"people-":8685,"</cfc-navigation-item>":8686,"_Dropout":8687,"text/x-dot-template\">":8688,"ctl00_ucc_HeaderV2_ctl00_":8689,"nav-menu-study__applying":8690,"ctl00_ucc_HeaderV2_ctl00_rep_Navigation_":8691,"236\"/>":8692,"3_":8693,"470\"":8694,"6-":8695,"736\"/>":8696,"9f":8697,"New":8698,"Search":8699,"ateg":8700,"fun":8701,"hk-":8702,"whe":8703,"script\">":8704,"th-":8705,"tone\"":8706,"terms":8707,"ngcontent-sc37":8708,"stid":8709,"class_644\">":8710,"class_675":8711,"class_676":8712,"class_76\"/>":8713,"class_730":8714,"class_731":8715,"class_708":8716,"application/javascript\"/>":8717,"125":8718,"171\"":8719,"outside":8720,"223\"/>":8721,"article-url":8722,"nghost-sc99":8723,"nghost-sc54":8724,"238\"/>":8725,"ngcontent-sc174":8726,"id_298\"":8727,"faces":8728,"267\"":8729,"37.":8730,"35px\"":8731,"385\"/>":8732,"1.25\"":8733,"id_389\">":8734,"id_396\">":8735,"id_404\">":8736,"id_400\">":8737,"id_401\">":8738,"56px\"":8739,"<client-table-of-content":8740,"</client-table-of-content>":8741,"-sm":8742,"ms-visible":8743,"bottom\"":8744,"pple":8745,"Expan":8746,"settings":8747,"mobile-nav-right_menu-child-":8748,"-nav":8749,"7%\"":8750,"<var>":8751,"Bo":8752,"ano":8753,"nz":8754,"s.":8755,"tz":8756,"ws-":8757,"ti-a":8758,"class_3\"/>":8759,"styles":8760,"mgm":8761,"typeahea":8762,"rg-ad":8763,"id_110":8764,"fox":8765,"include":8766,"box\">":8767,"sizcache":8768,"id_312\"":8769,"id_414\">":8770,"-scope":8771,"nes":8772,"class_526\"":8773,"class_749":8774,"class_86\"/>":8775,"ning":8776,"json-l":8777,"204\"/>":8778,"2560\"":8779,"36.":8780,"required-error-message":8781,"nghost-sc2":8782,"nghost-sc22":8783,"292\"":8784,"preserve":8785,"id_286\"":8786,"id_292\"":8787,"id_297\"":8788,"id_309\"":8789,"341\"/>":8790,"id_399\">":8791,"ngcontent-sc143":8792,"cc:":8793,"TION":8794,"ngcontent-sc137":8795,"graphi":8796,"nghost-sc93":8797,"plus":8798,"mqn-inview-slide-":8799,"-bar>":8800,"sticky":8801,"gva_layout":8802,"thumb\"":8803,"candyland-":8804,"gif\"/>":8805,"bottom-up":8806,"destination":8807,"mooth-scroll":8808,"rg-adfox":8809,"mqn-inview-slide-bottom-up":8810,"219\"":8811,"314\"/>":8812,"4px\"":8813,"7-":8814,"890":8815,"AR":8816,"aa":8817,"og>":8818,"yes\"":8819,"pack":8820,"class_4\"/>":8821,"alla":8822,"<ho":8823,"</ho":8824,"dete":8825,"bos_":8826,"foaf":8827,"id_317\"":8828,"image_":8829,"image/gif\"/>":8830,"card-":8831,"class_621":8832,"class_629\">":8833,"stre":8834,"miles":8835,"103\"/>":8836,"class_601\">":8837,"class_712":8838,"class_719\">":8839,"class_887":8840,"topmargin":8841,"pose":8842,"urpose":8843,"138\"/>":8844,"25%\">":8845,"3636":8846,"leftmargin":8847,"nghost-sc75":8848,"slot-scope":8849,"<ea-section":8850,"<ea-section-":8851,"</ea-section-":8852,"</ea-section>":8853,"context_type":8854,"file\"/>":8855,"500\">":8856,"50px\"/>":8857,"450\">":8858,"mobile-menu-item-link-primary-level-2":8859,"id_408\">":8860,"<app-sidebaritem":8861,"</app-sidebaritem":8862,"CAS\"":8863,"683\"":8864,"nitro-lazy-src":8865,"extended":8866,"background-overflow":8867,"partial-":8868,"mobile-menu-item-level-2":8869,"original-title":8870,"dialog>":8871,"bos_context_type":8872,"milestone\"":8873,"<ea-section-column":8874,"</ea-section-column>":8875,"</app-sidebaritem>":8876,"-display":8877,"-arrow":8878,"4b":8879,"7d":8880,"734\"/>":8881,"82\"/>":8882,"81%\">":8883,"Mo":8884,"Pro":8885,"Re":8886,"a_":8887,"f0":8888,"lng-":8889,"ss>":8890,"li-":8891,"lerance":8892,"tity":8893,"<iron":8894,"title-":8895,"<p><a":8896,"</iron":8897,"<svguse":8898,"rating>":8899,"class_557\">":8900,"class_552\"":8901,"class_692\"":8902,"class_640":8903,"class_641\"":8904,"class_678":8905,"class_618\">":8906,"328\"":8907,"329\"/>":8908,"class_781":8909,"x-transition":8910,"150px\"":8911,"id_120":8912,"18%\">":8913,"-bra":8914,"294\"/>":8915,"279\"":8916,"test-event":8917,"342\"":8918,"ezah":8919,"ezaw":8920,"id_385\">":8921,"id_405\">":8922,"id_403\">":8923,"block>":8924,"modal:":8925,"645\"/>":8926,"logge":8927,"7.6\"":8928,"534\"/>":8929,"ngcontent-serverapp-c11":8930,"cookie":8931,"mqn-lazyimage-google-":8932,"ng-mouseenter":8933,"tabs-container":8934,"16164":8935,"state-data":8936,"</svguse>":8937,"rotate\">":8938,"uk-scroll":8939,"cookies-policy":8940,"ti-authored":8941,"x-transition:":8942,"1a":8943,"217\"/>":8944,"230px\"/>":8945,"429\"":8946,"61\"/>":8947,"OT":8948,"bea":8949,"equ":8950,"prefetch":8951,"wt-":8952,"|\"":8953,"dap":8954,"dant":8955,"sci":8956,"aria-lab":8957,"value>":8958,"foun":8959,"find-":8960,"class_317\"/>":8961,"id_315\"":8962,"nav-con":8963,"owner":8964,"id_410\">":8965,"class_690":8966,"class_542\"":8967,"class_678\">":8968,"class_677\">":8969,"webkit":8970,"class_618":8971,"class_609\">":8972,"class_705\">":8973,"class_780\">":8974,"class_92\"/>":8975,"xmlns:content":8976,"xmlns:sk":8977,"xmlns:foaf":8978,"class_121\"/>":8979,"off\"":8980,"main-nav-":8981,"162\"/>":8982,"1440\"":8983,"navigation>":8984,"<embed":8985,"257\"":8986,"247\"/>":8987,"reak":8988,"-base":8989,"303\"":8990,"288\"/>":8991,"272\"":8992,"header_sub":8993,"376\"":8994,"-loans\"":8995,"tools-":8996,"id_321\"":8997,"yg-server-content-sc109":8998,"id_407\">":8999,"margin-":9000,"ngcontent-sc102":9001,"2.5\"":9002,"paralla":9003,"xmlns:rdfs":9004,"horizontal\">":9005,"xmlns:sioc":9006,"xmlns:sioct":9007,"white\">":9008,"xmlns:xsd":9009,"partial-name":9010,"foundation":9011,"xmlns:skos":9012,"72":9013,"728\">":9014,"<ss":9015,"<m-":9016,"au":9017,"ds-":9018,"ev-":9019,"gi":9020,"ka":9021,"sur":9022,"uti":9023,"ss-":9024,"classes":9025,"</m-":9026,"</ss>":9027,"targeting":9028,"aria-active":9029,"note\">":9030,"id_112":9031,"item-":9032,"textclass":9033,"<b-dropdown":9034,"class_529\"":9035,"class_642\">":9036,"class_544\"":9037,"-purpose":9038,"expander":9039,"class_107\"/>":9040,"class_781\">":9041,"</b-dropdown":9042,"class_129\"/>":9043,"122\"/>":9044,"defer\">":9045,"16px\"/>":9046,"class_1821\">":9047,"class_181\"></i>":9048,"tracker":9049,"search>":9050,"137\"/>":9051,"1920\">":9052,"245\"/>":9053,"descen":9054,"list-load":9055,"group\"":9056,"231\"":9057,"menu-item-link-":9058,"346\"":9059,"></a><i":9060,"documents":9061,"563\"":9062,"<app-home":9063,"</app-home":9064,"trackingsource":9065,"gdpr-purpose":9066,"9090":9067,"28.5%\"":9068,"28.5%\">":9069,"edi-adverti":9070,"<amp-analytics":9071,"</amp-analytics>":9072,"<as24-icon":9073,"</as24-icon>":9074,"-component-r":9075,"block-on-gdpr-purpose":9076,"rdf:rdf":9077,"&amp;":9078,"teaser-list-item":9079,"network-code":9080,"drm":9081,"tooltip-white\">":9082,"valid-method":9083,"meso-display":9084,"Expandable":9085,"candyland-overview-":9086,"<iron-icon":9087,"</iron-icon>":9088,"uk-scrollsp":9089,"equal-":9090,"wt-cli":9091,"ownertextclass":9092,"header_sub_section_":9093,"foundation-component-r":9094,"aria-activedescen":9095,"aria-activedescendant":9096,"-top-":9097,"1F":9098,"116":9099,"4px\"/>":9100,"6%\">":9101,":plus":9102,"<column":9103,"></div></td>":9104,"backgrou":9105,"eledby":9106,"lp":9107,"rule":9108,"sb":9109,"s__child-menu\"":9110,"lative-":9111,"fit-":9112,"ast":9113,"id_419\">":9114,"ngcontent-sc24":9115,"class_624\"":9116,"class_590\">":9117,"class_782":9118,"class_75\"><div":9119,"class_78\"><div":9120,"<i></i>":9121,"200%\"":9122,"180\">":9123,"1400\"/>":9124,"acid":9125,"130":9126,"133\"/>":9127,"-id-":9128,"navigation__":9129,"255\"/>":9130,"eventlabel":9131,"nghost-sc4":9132,"26.":9133,"261\">":9134,"345\"":9135,"attributetype":9136,"id_409\">":9137,"-relative-":9138,"shadow":9139,"lazy-image\"/>":9140,"54px\"":9141,"front":9142,"news-group\">":9143,"Nav\"":9144,"home-news-group\">":9145,"slider>":9146,"1,1\">":9147,"1,1,1\">":9148,"promotion-name":9149,"rel_22":9150,"</xmp>":9151,"</div></td></tr>":9152,"vmx-type":9153,"v-slot:":9154,"Stylesheet\"":9155,"aria-labeledby":9156,"rdf:rdf>":9157,":plusone":9158,"></div></td><td":9159,"-box":9160,"85":9161,"870\"/>":9162,"<vaadin-":9163,"Rl":9164,"WA":9165,"c:type":9166,"fn":9167,"f-relative-":9168,"iler":9169,"s-pi":9170,"z-":9171,"zoom":9172,"</vaadin-":9173,"pam>":9174,"led\"":9175,"tina":9176,"th\"":9177,"detail":9178,"<select>":9179,"wide":9180,"text/xml\"/>":9181,"id_322\"":9182,"id_415\">":9183,"id_418\">":9184,"prev":9185,"class_514\"":9186,"class_567\">":9187,"foot>":9188,"class_36\"></span><span":9189,"class_645\">":9190,"class_631\">":9191,"class_658\"":9192,"webstore":9193,"1079\"":9194,"ntaction":9195,"class_727":9196,"class_718":9197,"322\"/>":9198,"class_707":9199,"class_682":9200,"noreffe":9201,"verb":9202,"subsection\">":9203,"128px\"/>":9204,"sidenav":9205,"1333\"/>":9206,"analytic":9207,"ski":9208,"199\"/>":9209,"ngcontent-sc79":9210,"242\"/>":9211,"-back":9212,"eventcategory":9213,"state>":9214,"sed\">":9215,"30.":9216,"302\"":9217,"296\"/>":9218,"sport":9219,"27px\"":9220,"heading-":9221,"990\"":9222,"facebook":9223,"265\"/>":9224,"-item\"/>":9225,"id_334\"":9226,"text/x-jquery-tmpl\">":9227,"id_319\"":9228,"ngcontent-c21":9229,"45px\"":9230,"entity":9231,"query":9232,"tracking-verb":9233,"text/javascript\"":9234,"main-menu__link":9235,"c:format>":9236,"ular":9237,"ular-":9238,"<xmp":9239,"-animation":9240,"e:menuitem":9241,"extra-small\">":9242,"mvl-":9243,"eventaction":9244,"ctl00_ucc_HeaderV2_ctl00_rep_Navigation_ctl0":9245,"typeahead-":9246,"cc:wor":9247,"prefetch\"":9248,"expander-target":9249,"equal-height-":9250,"webstore-item\"/>":9251,"norefferer\"":9252,"-header":9253,"-overlay":9254,"/\"":9255,"0b":9256,"3c":9257,"434\"/>":9258,"545\"":9259,"6b":9260,"836":9261,"860\"/>":9262,"90px\"":9263,"<c":9264,"<zeus":9265,"act":9266,"mber":9267,"stem":9268,"tmode":9269,"y>":9270,"</c":9271,"</zeus":9272,"lery":9273,"class_60\"/>":9274,"tletmode":9275,"<spa":9276,"</spam>":9277,"use-s":9278,"ck\"":9279,"id_320\"":9280,"id_412\">":9281,"id_411\">":9282,"id_413\">":9283,"st\"":9284,"class_648\"":9285,"class_580\">":9286,"class_587\">":9287,"mi_":9288,"class_668":9289,"class_751":9290,"fonts":9291,"top-nav-":9292,"class_154\"/>":9293,"153\"/>":9294,"id_140":9295,"move":9296,"193\"":9297,"bedding":9298,"react":9299,"ogroup":9300,"226\"":9301,"ngcontent-sc450":9302,"nghost-sc0":9303,"nghost-sc13":9304,"305\"/>":9305,"language-":9306,"nav-item":9307,"nav-sub":9308,"374\"":9309,"pha":9310,"384\"/>":9311,"compan":9312,"id_323\"":9313,"<nmo-article-feature":9314,"</nmo-article-feature":9315,"<amp-state":9316,"</amp-state>":9317,"ngcontent-sc163":9318,"amp-href":9319,"amp-path":9320,"amp-parent":9321,"ngcontent-sc135":9322,"yg-server-content-sc156":9323,"number\"/>":9324,"portletmode":9325,"Menu2\"":9326,"-0-":9327,"basi":9328,"h-use-s":9329,"<rai-highlight-container>":9330,"</rai-highlight-container>":9331,"<kite-date":9332,"CENTER\"":9333,"CENTER\">":9334,"0.5em\"":9335,"iness":9336,"Foo":9337,"ICON\"/>":9338,"ng-attr-content":9339,"cookie-tracking":9340,"-toggle":9341,"engage":9342,"chrome-webstore-item\"/>":9343,"documents.\">":9344,"block-on-gdpr-purpose-consent":9345,"<zeus-ad":9346,"</zeus-ad>":9347,"<nmo-article-features":9348,"</nmo-article-features>":9349,"132":9350,"116\"/>":9351,"650\"":9352,"87\"/>":9353,"AF":9354,"_share":9355,"ju":9356,"muni":9357,"mw-":9358,"wo":9359,"your":9360,"lash":9361,"sss-":9362,"</content>":9363,"<ad":9364,"</a></li></ul>":9365,"ribb":9366,"teor-":9367,"scs-":9368,"id_1\"/>":9369,"id_132":9370,"lls-":9371,"stru":9372,"id_416\">":9373,"id_420\">":9374,"id_430\">":9375,"id_421\">":9376,"cent":9377,"camp":9378,"car-":9379,"apps-":9380,"class_571\">":9381,"class_643\">":9382,"class_590\"":9383,"class_767":9384,"class_709":9385,"class_788":9386,"class_779\"":9387,"radiogroup":9388,"130\">":9389,"author\"/>":9390,"heateor-":9391,"22%\">":9392,"nghost-sc14":9393,"291\"":9394,"header\">":9395,"bgimgfield":9396,"35.":9397,"351\"/>":9398,"388\"/>":9399,"1.8":9400,"479\"":9401,"onlyforme":9402,"666\"":9403,"text-collapse-":9404,"site-nav-":9405,"2.0":9406,"apple-touch-startup-image\"":9407,"557\"":9408,"content-modal>":9409,"secondary-image":9410,"<client-content":9411,"</client-content>":9412,"-player":9413,"-playsinline":9414,"dns-prefetch\"":9415,"ngcontent-sc22890":9416,"c:title>":9417,"ng-mouseleave":9418,"nullti":9419,"js-county-item":9420,"js-county-name":9421,"simple-":9422,"Desktop":9423,"railed\"":9424,"Collapse\"":9425,"li-letter":9426,"modal:open":9427,"nav-container-id":9428,"<b-dropdown-item":9429,"</b-dropdown-item>":9430,"<spam":9431,"sss-data-":9432,"heateor-sss-data-":9433,"onlyformepart":9434,"1100\"/>":9435,"411\"/>":9436,"5_":9437,"525\"/>":9438,"835\"/>":9439,"91\"/>":9440,"='":9441,"C0":9442,"ID":9443,"RD":9444,"_equiv":9445,"fs":9446,"hr":9447,"ha-":9448,"wd":9449,"ware":9450,"class_2\"/>":9451,"thing-":9452,"et\"":9453,"debu":9454,"road":9455,"nocom":9456,"id_316\"":9457,"id_332\"":9458,"image\">":9459,"menutitle":9460,"class_625\"":9461,"class_562\"":9462,"class_576\"":9463,"class_589\">":9464,"class_595\">":9465,"class_598\">":9466,"play-":9467,"class_826":9468,"top\"":9469,"ng-options":9470,"focus-":9471,"class_131\"/>":9472,"126\"/>":9473,"id_130":9474,"1864\"/>":9475,"149\"/>":9476,"ogg":9477,"quote":9478,"paddingbottom":9479,"show_":9480,"header__":9481,"bine":9482,"id_376\"":9483,"504\"/>":9484,"405\"":9485,"ngcontent-sc113":9486,"ngcontent-c14":9487,"658\"/>":9488,"fb_share":9489,"683\"/>":9490,"-flyout":9491,"visibility":9492,"fitcontent":9493,"ÃÃÂ¼":9494,"horizontal\"":9495,"animation":9496,"http_equiv":9497,"btn-":9498,"contact":9499,"webkit-playsinline":9500,"top-nav-list-item":9501,"nocombine":9502,"-di":9503,"-if":9504,"-level-":9505,"/inline":9506,"4c":9507,"425\"":9508,"439\"":9509,"4.0":9510,"513\"":9511,"77":9512,"<ti":9513,"my-":9514,"opack":9515,"twit":9516,"tream-":9517,"</ti":9518,"oninput":9519,"tit":9520,"<ion":9521,"tion\">":9522,"ul_Dropout":9523,"tro":9524,"notic":9525,"inetwor":9526,"instid":9527,"</ion":9528,"class_270\"/>":9529,"class_28\"/>":9530,"<big>":9531,"size\"":9532,"timerange":9533,"id_326\"":9534,"image-auto":9535,"id_417\">":9536,"class_38\"/>":9537,"class_620\">":9538,"class_625\">":9539,"class_621\">":9540,"class_675\">":9541,"expo":9542,"class_614\">":9543,"class_607\">":9544,"class_786\"":9545,"class_777":9546,"class_886":9547,"ng-switch":9548,"sh-date":9549,"loon-":9550,"-ajax":9551,"1000\">":9552,"callback":9553,"ted-":9554,"250\">":9555,"240px\"/>":9556,"368\"":9557,"29\"/>":9558,"ngcontent-sc213":9559,"278\"/>":9560,"334\"":9561,"339\"":9562,"356\"/>":9563,"__content\"":9564,"ngcontent-sc95":9565,"395\"/>":9566,"396\"/>":9567,"347\"":9568,"407\"":9569,"56.":9570,"ngcontent-sc140":9571,"ngcontent-sc149":9572,"wiper":9573,"545\"/>":9574,"publish-date":9575,"7.0":9576,"need-ajax":9577,"Content__content\"":9578,"nitropack":9579,"marketid":9580,"preventdefault":9581,"mootools-":9582,"cronym>":9583,"balloon-":9584,"grees>":9585,"sub-menu-link\"":9586,"nav-menu-study__applying__":9587,"ss-offset":9588,"ExpandableContent__content\"":9589,"s-piano":9590,"ribbon":9591,"nav-container-id-":9592,"debug":9593,"/inlinescript\">":9594,"ul_DropoutMenu2\"":9595,"publish-date-":9596,"nitropack/inlinescript\">":9597,"1B":9598,"2F":9599,"8-":9600,"910\"/>":9601,"Tab":9602,"ltr":9603,"my":9604,"wave":9605,"zp":9606,"zy-":9607,"pair":9608,"onis-":9609,"alttext":9610,"<seznam-pocitadlolibise":9611,"</seznam-pocitadlolibise":9612,"content-type":9613,"class_21\"/>":9614,"button\"/>":9615,"use_":9616,"class_27\"/>":9617,"apd":9618,"ngcontent-sc39":9619,"cable":9620,"cart":9621,"<dfl-":9622,"</dfl-":9623,"class_557\"":9624,"strea":9625,"class_634\">":9626,"class_653\">":9627,"class_596\">":9628,"class_768":9629,"class_769":9630,"class_763\"":9631,"class_608\">":9632,"class_726":9633,"class_72\"/>":9634,"class_750":9635,"class_793":9636,"class_866":9637,"<tr><td":9638,"121\"":9639,"error-message":9640,"jsx":9641,"cher":9642,"20px\"/>":9643,"201\"/>":9644,"-ass":9645,"-alert":9646,"100px\"/>":9647,"141\"":9648,"149\"":9649,"y-name":9650,"246\"":9651,"365\"/>":9652,"head":9653,"-links":9654,"mod_":9655,"275\">":9656,"268\"":9657,"unde":9658,"hide-":9659,"adonis-":9660,"ngcontent-sc104":9661,"644\"/>":9662,"-placeholder":9663,"nghost-sc77":9664,"CARD":9665,"tj_id":9666,"-slide>":9667,"message-id":9668,"id_436\">":9669,"id_433\">":9670,"<wsp-skeleton":9671,"</wsp-skeleton":9672,"tel\"":9673,"1176\"":9674,"daa-ll":9675,"-banner>":9676,"experience":9677,"LinkType.AC":9678,"<pre></pre>":9679,"instant":9680,"range\"":9681,"ignoreapd":9682,"0.5em\">":9683,"foreignobject>":9684,"gallery":9685,"return":9686,"119.664\"":9687,"richtext>":9688,"TION\">":9689,"lpchecked":9690,"h-use-smooth-scroll":9691,"zy-fid":9692,"</seznam-pocitadlolibise>":9693,"adonis-marker":9694,"<wsp-skeleton-image":9695,"</wsp-skeleton-image>":9696,"LinkType.ACTION\">":9697,"-template\">":9698,"-section":9699,"211\"":9700,"2em\"":9701,"GE":9702,"HJ":9703,"Th":9704,"Y29":9705,"bm-":9706,"eid":9707,"</row>":9708,"</foreignobject>":9709,"</acronym>":9710,"tever":9711,"member":9712,"ue-":9713,"</source":9714,"native":9715,"id_318\"":9716,"image-id":9717,"owha":9718,"id_424\">":9719,"id_426\">":9720,"ork":9721,"rap>":9722,"citi-":9723,"class_555\">":9724,"class_559\"":9725,"class_636\"":9726,"class_588\">":9727,"class_599\">":9728,"class_767\">":9729,"class_736":9730,"32.":9731,"class_84\"/>":9732,"class_790":9733,"class_98\"/>":9734,"class_827":9735,"class_185\"/>":9736,"today":9737,"259\"":9738,"221\"":9739,"fields":9740,"300":9741,"filterdisable":9742,"288":9743,"is_re":9744,"-cc":9745,"ng-reflect-has-":9746,"font-style":9747,"menu-item>":9748,"264\"/>":9749,"-background-src":9750,"duct-":9751,"34.":9752,"></a></div><div":9753,"ngcontent-c27":9754,"493\"":9755,"455\"":9756,"666\"/>":9757,"443\"":9758,"video/mp4\">":9759,"wish":9760,"tt-com-":9761,"zone>":9762,"position-":9763,"-autowha":9764,"mqn-equal-height-":9765,"id_435\">":9766,"shareurl":9767,"lobal-":9768,"-carousel-content":9769,"sp-main-nav-":9770,"978\"/>":9771,"mqn-lazyimage-background-src":9772,"gram":9773,"-product-ribbon":9774,"<ps-follow-button>":9775,"</ps-follow-button>":9776,"<nmo-medium-teaser":9777,"</nmo-medium-teaser":9778,"mqn-inview-product-ribbon":9779,"renderas":9780,"yqrole":9781,"main-menu__link--sub-1":9782,"v-on:click.prevent":9783,"27.354\"":9784,"editorial-":9785,"uib-dropdown":9786,"nz-carousel-content":9787,"candyland-overview-tt-com-":9788,"fit-margin-":9789,"react-autowha":9790,"Footer":9791,"apps-app":9792,"pair-id":9793,"</source>":9794,"is_retina":9795,"ng-reflect-has-desc":9796,"mqn-equal-height-apps-app":9797,"</nmo-medium-teaser>":9798,"react-autowhatever":9799,"-text-":9800,"0c":9801,"416\"":9802,"42.":9803,"525\"":9804,"680\"":9805,"685\"":9806,"<foreignobject":9807,"A-":9808,"Ma":9809,"bx":9810,"ek":9811,"eid_":9812,"gu":9813,"jp":9814,"lpos":9815,"mr":9816,"toa":9817,"tform":9818,"yt":9819,"me\">":9820,"thread":9821,"<samp":9822,"rel-news":9823,"</sam":9824,"seam":9825,"text/json\">":9826,"via":9827,"class_32\"/>":9828,"format-":9829,"id_325\"":9830,"id_327\"":9831,"id_428\">":9832,"id_425\">":9833,"class_535\"":9834,"class_631\"":9835,"class_583\"":9836,"class_666\">":9837,"core>":9838,"class_764":9839,"class_735\">":9840,"320\">":9841,"class_701":9842,"reload_div":9843,"121\"/>":9844,"shi":9845,"nipp":9846,"-ad-":9847,"160":9848,"1356\"":9849,"layer":9850,"class_219\"/>":9851,"240\">":9852,"videoid":9853,"29.0":9854,"277\"":9855,"page_":9856,"nav-item>":9857,"33.":9858,"377\">":9859,"465\"":9860,"467b":9861,"ngcontent-sc141":9862,"id_450\">":9863,"584\"/>":9864,"3.02\"":9865,"page-location":9866,"id_441\">":9867,"partner":9868,"id_439\">":9869,"id_434\">":9870,"id_431\">":9871,"id_437\">":9872,".08\"":9873,"-block_1_":9874,"dynamic-strip":9875,"dynamic-strip>":9876,"111\"/>":9877,"newsletter-":9878,"-carousel>":9879,"cd09":9880,"<rai-dynamic-strip":9881,"</rai-dynamic-strip>":9882,"<slide-item":9883,"</slide-item>":9884,"vmx-page-location":9885,"loc-str":9886,"isodate":9887,"modal:open\">":9888,"-level-0":9889,"eid_desc":9890,"</samp>":9891,"seamless":9892,"05":9893,"0_":9894,"1E":9895,"119\"/>":9896,"2ded":9897,"490\"":9898,"438\"":9899,"5px\"/>":9900,"57\"/>":9901,"86":9902,"<o":9903,"_load":9904,"ate":9905,"dz":9906,"fy":9907,"ia":9908,"ld":9909,"nch":9910,"ux":9911,"war":9912,"zation":9913,"</o":9914,"refre":9915,"<acrony":9916,"tar":9917,"onhover":9918,"scription":9919,"all-":9920,"et>":9921,"<img/>":9922,"send":9923,"both\"":9924,"button-group>":9925,"viewport":9926,"chr-":9927,"id_432\">":9928,"id_422\">":9929,"id_423\">":9930,"px;":9931,"class_560\"":9932,"class_574\"":9933,"class_547\"":9934,"-pl":9935,"-primary":9936,"class_588\"":9937,"class_587\"":9938,"col>":9939,"class_592\"":9940,"website":9941,"class_729":9942,"class_688":9943,"class_689":9944,"class_778":9945,"class_82\"/>":9946,"class_1059":9947,"class_128\"></span><span":9948,"x-widget":9949,"class_186\"/>":9950,"14px\">":9951,"253\"/>":9952,"243\"":9953,"list-item>":9954,"60%\"/>":9955,"lazy_load":9956,"287\"/>":9957,"univers":9958,"ngcontent-sc171":9959,"355-":9960,"38.":9961,"t-com-":9962,"48cd09":9963,"341\"":9964,"id_329\"":9965,"k-drop":9966,"65836":9967,"-info":9968,"tile-scrim-":9969,"<amp-video":9970,"</amp-video>":9971,"id_438\">":9972,"media-wide":9973,"-scroll-":9974,"winview":9975,"secondary":9976,"scaleonhover":9977,"newsletter":9978,"nghost-sc177":9979,"create":9980,"ÃÃÂ¤":9981,"monit":9982,"-accordion-":9983,"pills-":9984,"Dropdown":9985,"1b355-":9986,"<mgm-television-poster":9987,"</mgm-television-poster":9988,"way":9989,"b:like":9990,"elm-img":9991,"credi":9992,"sbwinview":9993,"</div></td></tr><tr><td":9994,"expander-target--":9995,"radiogroup\">":9996,"<ion-icon":9997,"</ion-icon>":9998,"mootools-core>":9999,"wish-button":10000,"467b2ded":10001,"<acronym":10002,"t-com-www":10003,"48cd0965836":10004,"1b355-text/javascript\">":10005,"</mgm-television-poster>":10006,"467b2ded48cd0965836":10007,"467b2ded48cd09658361b355-text/javascript\">":10008,"2f":10009,"316\"":10010,"313\"":10011,"39\"/>":10012,"414\"":10013,"436\"":10014,"536\"":10015,"690\"/>":10016,"70.":10017,"936":10018,"935\"":10019,"<kbd>":10020,"CF":10021,"ajax":10022,"ec":10023,"ime":10024,"lZ":10025,"tivi":10026,"tin-":10027,"al\"":10028,"class_80\"/>":10029,"typename":10030,"vie":10031,"id_324\"":10032,"form-":10033,"click-":10034,"id_427\">":10035,"id_429\">":10036,"empha":10037,"class_581\"":10038,"class_674":10039,"class_679":10040,"class_662\">":10041,"class_73\"/>":10042,"class_715\">":10043,"class_753":10044,"class_888\">":10045,"xmlns:svg":10046,"class_137\"/>":10047,"20210":10048,"166\"/>":10049,"167\"/>":10050,"1350\"":10051,"223\"":10052,"eventscale":10053,"38px\"":10054,"-loader>":10055,"gov-":10056,"344\"/>":10057,"https://the":10058,"displaytext":10059,"-wi":10060,"id_454\">":10061,"id_446\">":10062,"submenu-2\"":10063,"slider\"":10064,"426\"/>":10065,"combobox\">":10066,"top-nav":10067,"v-else-if":10068,"club-":10069,"http://":10070,"40.8":10071,"additions\"":10072,"ndar.com":10073,"Open":10074,"scs-header":10075,"use_picture":10076,"29.09\"/>":10077,"refresh":10078,"emphasis":10079,"eventscalendar.com":10080,"https://theeventscalendar.com":10081,"'/>":10082,"-1-":10083,"/html":10084,"2b":10085,"4_":10086,"428\"":10087,"632\"/>":10088,"73\"/>":10089,":p>":10090,"<di":10091,"<data-src":10092,"<clublogo":10093,"BE":10094,"BF":10095,"Rwd":10096,"cz":10097,"dx-":10098,"mm\"":10099,"sale":10100,"lation":10101,"</data-src":10102,"</clublogo":10103,"tech":10104,"threa":10105,"rel-attr":10106,"nosk":10107,"ers":10108,"text/stache\">":10109,"macro":10110,"as\"":10111,"</h4><ul":10112,"class_45\"/>":10113,"class_51\"/>":10114,"class_623\"":10115,"class_564\"":10116,"class_650\">":10117,"class_783":10118,"class_872\">":10119,"class_847\"":10120,"class_774":10121,"class_12\"><div":10122,"class_88\"/>":10123,"xmlns:serif":10124,"subitemprop":10125,"2048\"/>":10126,"170\">":10127,"class_1822":10128,"stance":10129,"nghost-sc10":10130,"nghost-sc18":10131,"nghost-sc26":10132,"home\"/>":10133,"278\"":10134,"event-tracking-":10135,"matripple":10136,"phone":10137,"orender":10138,"352\"/>":10139,"score\">":10140,"id_341\"":10141,"can-aut":10142,"395\"":10143,".org/":10144,"ngcontent-c30":10145,"449\"":10146,"text/plain\"/>":10147,"-when":10148,"ting\">":10149,"wipe":10150,"id_455\">":10151,"id_451\">":10152,"id_457\">":10153,"amp-mustache\">":10154,"ngcontent-sc157":10155,"string":10156,"tracking-url":10157,"commercial":10158,"<cfc-":10159,"</cfc-":10160,"month>":10161,"cdk":10162,"year>":10163,"yg-server-content-sc144":10164,"suggestion":10165,"external-target-attr":10166,"external-rel-attr":10167,"additions":10168,"topnav-dropdown-cms--":10169,"Comme":10170,"ategory":10171,"Book":10172,"utility":10173,"campus-":10174,"nulltips":10175,"monitor":10176,"202103":10177,"https://theeventscalendar.com/\"/>":10178,"</data-src>":10179,"</clublogo>":10180,"noskim":10181,"can-autorender":10182,"-group":10183,"-wrap":10184,".score\">":10185,"400":10186,"414\"/>":10187,"630\"":10188,"660\"":10189,"612\"/>":10190,"9-":10191,"Qu":10192,"S_":10193,"ZW":10194,"bk":10195,"edin":10196,"how":10197,"oci":10198,"omo":10199,"ura":10200,"xy":10201,"claime":10202,"pa-re":10203,"ting-":10204,"<iti-shared-":10205,"class_12\"/>":10206,"<hy-":10207,"</hy-":10208,"</switch>":10209,"lable-":10210,"vals\"":10211,"</iti-shared-":10212,"nsion":10213,"class_57\"/>":10214,"class_578\"":10215,"class_659\">":10216,"class_651\">":10217,"class_657\">":10218,"class_650\"":10219,"img_url":10220,"class_619\">":10221,"class_610\">":10222,"class_618\"":10223,"class_766":10224,"324\"":10225,"32px\">":10226,"class_680":10227,"class_685":10228,"ubli":10229,"xmlns:foo":10230,"ng-focus":10231,"class_4\"><li><a":10232,"class_1060":10233,"<h4><a":10234,"submenu-item":10235,"x-bind:":10236,"x-jquery-tmpl\">":10237,"140px\"":10238,"242\"":10239,"drating\">":10240,"30%\">":10241,"295\"/>":10242,"286\"":10243,"unit":10244,"<phoenix-carousel":10245,"<phoenix-carousel-":10246,"</phoenix-carousel>":10247,"</phoenix-carousel-":10248,"263\"/>":10249,"accessi":10250,"bar>":10251,"350px\"":10252,"389\"/>":10253,"-accredi":10254,"id_345\"":10255,"id_359\"":10256,"display-":10257,"39.":10258,"></a></h4><ul":10259,"496\"":10260,"msallowfullscreen":10261,"-wea":10262,"block-on":10263,"-to-":10264,"gdpr-":10265,"90px\"/>":10266,"inkscape:page":10267,"id_445\">":10268,"id_448\">":10269,"id_443\">":10270,"grid>":10271,"air-click":10272,"ngcontent-serverapp-c5":10273,"</gcse:search>":10274,"login-":10275,"676\"/>":10276,"mqn-lazyimage-":10277,"formaction":10278,"-alt-text":10279,"homepage_":10280,"ble-megamenu-":10281,"slug":10282,"bi_name":10283,"nxdefer\">":10284,"generator":10285,"today\">":10286,"-ccpa-re":10287,"thread.score\">":10288,"click-outside":10289,"threadrating\">":10290,"<phoenix-carousel-strip":10291,"</phoenix-carousel-strip>":10292,"-accreditation":10293,"block-on-ccpa-re":10294,"block-on-ccpa-reject":10295,"1px\"/>":10296,"2C":10297,"3a":10298,"348":10299,"4a":10300,"4f":10301,"435\"":10302,"5a":10303,"63\"/>":10304,"<tile-poster-":10305,"<tile-poster-meta>":10306,"D\">":10307,"F0":10308,"ZS":10309,"_columns":10310,"a\"":10311,"amt":10312,"anup":10313,"bp":10314,"ccess":10315,"db":10316,"dm":10317,"dsg-":10318,"ech":10319,"hu":10320,"hy":10321,"hp-":10322,"odipodi:":10323,"tc":10324,"tn":10325,"</tile-poster-":10326,"lick":10327,"timage":10328,"data:":10329,"class_8\"/>":10330,"defini":10331,"labelledby":10332,"named":10333,"box-type":10334,"index\"":10335,"id_328\"":10336,"imagesrcset":10337,"prerender":10338,"cale":10339,"class_568\"":10340,"<gcse:search>":10341,"<dsg-":10342,"</dsg-":10343,"class_693\">":10344,"class_646\">":10345,"class_648\">":10346,"class_586\">":10347,"class_591\"":10348,"class_669\">":10349,"platform":10350,"class_616\">":10351,"class_617\">":10352,"class_760":10353,"class_766\">":10354,"class_765\"":10355,"class_607\"":10356,"class_722":10357,"class_725":10358,"class_713":10359,"3206":10360,"class_705":10361,"class_706":10362,"class_706\">":10363,"class_776":10364,"xmlns:article":10365,"class_1368":10366,"class_132\"></span><span":10367,"class_130\"></span><span":10368,"1240\"/>":10369,"x-webki":10370,"1500\"":10371,"18px\">":10372,"187\"/>":10373,"131\"":10374,"videovisible":10375,"ngcontent-sc45":10376,"307\"/>":10377,"isvideovisible":10378,"27.5\"":10379,"pagetype":10380,"-image\"":10381,"-image-fid":10382,"269\"/>":10383,"264px\"/>":10384,"<fb:like":10385,"ngcontent-sc84":10386,"componenttype":10387,"collap":10388,"newcolumn":10389,"goal-":10390,"id_331\"":10391,"id_357\"":10392,"id_371\"":10393,"id_369\"":10394,"ngcontent-c15":10395,"472\"/>":10396,"45%\">":10397,"svg-icon":10398,"<amp-layout":10399,"</amp-layout>":10400,"id_453\">":10401,"id_468\">":10402,"id_474\">":10403,"lazy-image-google-":10404,"id_447\">":10405,"enter-":10406,"default\">":10407,"cleanup":10408,"6.5\"/>":10409,"tracking-category":10410,"<rt-icon-cta-":10411,"</rt-icon-cta-":10412,"download-link":10413,"park-":10414,"Item\">":10415,"ÃÃÂ¶":10416,"-google-dfp-":10417,"disclos":10418,"schema.DC":10419,"base\"":10420,"nded-preview":10421,"-advertise":10422,"-auto-test-id":10423,"doubleclick\"":10424,"ngcontent-sc378":10425,"parallax":10426,"trackertype":10427,"<app-home-item":10428,"</app-home-item>":10429,"foundation-component-rte>":10430,"backgrounded-preview":10431,"munity":10432,"editorial-teaser":10433,"dz-image-fid":10434,"t-com-www-google-dfp-":10435,"<tile-poster-video":10436,"amt-auto-test-id":10437,"dsg-button":10438,"odipodi:named":10439,"</tile-poster-video>":10440,"x-webkit-":10441,"<rt-icon-cta-video":10442,"</rt-icon-cta-video>":10443,"t-com-www-google-dfp-v":10444,"-E":10445,"-footer":10446,"-nav\"":10447,"-params":10448,"/template\">":10449,"510\"":10450,"B8":10451,"Image":10452,"_name":10453,"_year":10454,"cn":10455,"ise":10456,"ndex":10457,"oallowfullscreen":10458,"qs":10459,"ttype":10460,"last":10461,"li-type":10462,"<abbr>":10463,"rice":10464,"scategory":10465,"class_110\"/>":10466,"sex":10467,"class_33\"/>":10468,"stroke-color":10469,"applazyload":10470,"class_697\">":10471,"stop":10472,"class_639\">":10473,"class_593\"":10474,"excer":10475,"class_611\">":10476,"class_605\">":10477,"class_605\"":10478,"class_728":10479,"class_732":10480,"326\"":10481,"327\"/>":10482,"class_705\"":10483,"class_880\">":10484,"xmlns:book":10485,"xmlns:video":10486,"xmlns:profile":10487,"class_1372":10488,"-and":10489,"161\"":10490,"vend":10491,"tolerance":10492,"-bin":10493,"299\"":10494,"moduleid":10495,"modulepreload\"/>":10496,"doc":10497,"d-by":10498,"link--level-0":10499,"372\"/>":10500,"start\"":10501,"mute-":10502,"486\"":10503,"id_343\"":10504,"disclaime":10505,"406\">":10506,"software":10507,"46px\"":10508,"ngcontent-sc120":10509,"v-bind:style":10510,"176px\"":10511,"id_459\">":10512,"id_460\">":10513,"id_465\">":10514,"id_479\">":10515,"id_470\">":10516,"id_478\">":10517,"id_444\">":10518,"id_440\">":10519,"id_442\">":10520,"submenu-1\"":10521,"submenu-3\"":10522,"yg-server-content-sc153":10523,"kee":10524,"er-story":10525,"ngcontent-sc195":10526,"ticker-story":10527,"ng-include":10528,"Item\"":10529,"-collapse>":10530,"selector>":10531,"analyticson":10532,"entry-":10533,"col-md-":10534,"normal\">":10535,"youtube":10536,"WA_":10537,"analyticscategory":10538,"notice":10539,"This":10540,"-text-3206":10541,"x-bind:class":10542,"excerpt":10543,"ticker-story-text-3206":10544,"-label":10545,"-or":10546,"-page":10547,"332\"":10548,"314\"":10549,"415\"":10550,"610\"/>":10551,"740\"":10552,"790\"/>":10553,"85%\">":10554,"920\"/>":10555,"Block":10556,"NOT":10557,"Pos":10558,"_srcset":10559,"ae":10560,"ctive":10561,"ej":10562,"eu":10563,"fa-":10564,"g:":10565,"pr":10566,"phol":10567,"tL":10568,"us\"":10569,"uZX":10570,"xp":10571,"zy":10572,"</video-":10573,"divid":10574,"</div></div><div":10575,"</a><a":10576,"ty-":10577,"tes":10578,"opper":10579,"consent":10580,"</p><p><a":10581,"heap-":10582,"session":10583,"metadata>":10584,"tabRwd":10585,"class_290\"/>":10586,"links-":10587,"id_330\"":10588,"id_375\"":10589,"orphol":10590,"preview-":10591,"emorphol":10592,"class_626\"":10593,"<dfn":10594,"stream-":10595,"class_649\">":10596,"class_654\">":10597,"class_582\"":10598,"class_667\">":10599,"webp_srcset":10600,"class_612\">":10601,"class_789":10602,"class_79\"/>":10603,"top-article":10604,"xmlns:product":10605,"class_131\"></span><span":10606,"1280\">":10607,"homr":10608,"157\"/>":10609,"marque":10610,"203\"/>":10611,"179\"":10612,"171\"/>":10613,"onmousemove":10614,"movie":10615,"account":10616,"131\"/>":10617,"1334\"":10618,"v-text":10619,"191\"/>":10620,"y-class":10621,"menu-url":10622,"class_246\"/>":10623,"248\"":10624,"229\"":10625,"lazy-pri":10626,"proxy":10627,"does":10628,"ngcontent-sc27":10629,"codecs":10630,"277\"/>":10631,"-content\">":10632,"333\"/>":10633,"-post-":10634,"collapse\"":10635,"id_335\"":10636,"id_353\"":10637,"id_374\"":10638,"398\"":10639,"comment":10640,"tab-group":10641,"removals\"":10642,"week":10643,"</app-root>":10644,"-review":10645,"<client-main":10646,"-sig":10647,"column-":10648,"ngcontent-sc31912":10649,"dropdown\"":10650,"-profile":10651,"custom-mute-":10652,"mini":10653,"id_466\">":10654,"id_464\">":10655,"id_462\">":10656,"-title\">":10657,"themename":10658,"yg-server-content-sc151":10659,"clu":10660,"media-homr":10661,"widgetBlock":10662,"reset\"":10663,"lt;strong&gt;":10664,"bossexpo":10665,"logo-url":10666,"portable":10667,"footer-menu\"":10668,"interlace":10669,"12.7\"":10670,"jax-":10671,"mqn-autotrack-event":10672,"cl-icon":10673,"drawer-":10674,"help\"":10675,"block-on-gdpr-":10676,"schema.dc":10677,"line-spacing":10678,"ICON\"":10679,"v-on:click.stop":10680,"mqn-autotrack-category":10681,"mh-lazy-src":10682,"mh-lazy-pri":10683,"-input>":10684,"rkno":10685,"fixed":10686,"article-url-or":10687,"street-":10688,"uk-scrollspy-class":10689,"fs2":10690,"roadstreet-":10691,"288px,":10692,"candyland-overview-tt-com-top-article":10693,"dx-accordion":10694,"col-md-4":10695,"NOT&lt;/strong&gt":10696,"heap-ignore":10697,"emorpholog":10698,"custom-mute-button":10699,"media-homr-ass":10700,"lt;strong&gt;NOT&lt;/strong&gt":10701,"mh-lazy-prior":10702,"article-url-or-link":10703,"-tab-":10704,"220px\"":10705,"317\"":10706,"31-":10707,"410\"/>":10708,"522\"/>":10709,"620\"":10710,"635\"":10711,"760\"/>":10712,"736\"":10713,"87":10714,"<content>":10715,"Art":10716,"B9":10717,"CC":10718,"Event":10719,"Ly":10720,"MDF":10721,"One":10722,"PGE":10723,"SS":10724,"jell":10725,"ost_":10726,"plo":10727,"sr":10728,"wri":10729,"ybea":10730,"</m":10731,"lindex":10732,"</ad>":10733,"opds-":10734,"<htag3>":10735,"</htag3>":10736,"<stri":10737,"aside":10738,"nelid":10739,"ngcontent-sc25":10740,"city":10741,"ternation":10742,"class_53\"/>":10743,"class_577\"":10744,"class_556\"":10745,"class_699\">":10746,"class_690\">":10747,"102\"/>":10748,"covid":10749,"class_600\"":10750,"class_688\">":10751,"class_752":10752,"cuMDF":10753,"class_880":10754,"class_1194":10755,"class_10\"><li><a":10756,"class_127\"/>":10757,"ary\"":10758,"class_126\"/>":10759,"gaHJ":10760,"156":10761,"151\"/>":10762,"1567\"/>":10763,"186\"/>":10764,"167\"":10765,"17px\">":10766,"141\"/>":10767,"more>":10768,"1919\"/>":10769,"257\"/>":10770,"y-use":10771,"panel--":10772,"sed-link-":10773,"306\"/>":10774,"289\"/>":10775,"domain":10776,"description>":10777,"bg-for":10778,"menu-item\">":10779,"266\"/>":10780,"-post":10781,"385\"":10782,"1.1\"":10783,"score-box":10784,"id_344\"":10785,"id_333\"":10786,"394\"":10787,"396\"":10788,"mask-icon\"":10789,"404\"":10790,"drop-":10791,"id_456\">":10792,"id_463\">":10793,"id_461\">":10794,"id_471\">":10795,"id_488\">":10796,"<details>":10797,"submenu-4\"":10798,"light\"":10799,"nghost-sc2008":10800,"from-":10801,"parsed-link-":10802,"<fl-col":10803,"</fl-col>":10804,"rende":10805,"channelid":10806,"-featured":10807,"<mat-sidenav":10808,"rel_25":10809,"baseprofile":10810,"extras\"":10811,"yqg-":10812,"first":10813,"Icon\"/>":10814,"93d3":10815,"detection":10816,"-brand":10817,"find-a-":10818,"nav-sub-menu\"":10819,"show_faces":10820,"Y29tL":10821,"lZj0":10822,"QuY29tL":10823,"goal-click":10824,"uZXQuY29tL":10825,"Ly93d3":10826,"PGEgaHJ":10827,"jellybea":10828,"cuMDFuZXQuY29tL":10829,"parsed-link-destination":10830,"Ly93d3cuMDFuZXQuY29tL":10831,"PGEgaHJlZj0":10832,".3\"":10833,"/defer":10834,"02":10835,"319\"":10836,"854\">":10837,"95%\">":10838,":fl-":10839,";&amp":10840,"<track":10841,"AA":10842,"C9":10843,"IG":10844,"LT":10845,"Use":10846,"eBook":10847,"fle":10848,"gpt\"":10849,"hk":10850,"i-link":10851,"i-type":10852,"k2":10853,"lg":10854,"sho":10855,"s&lt;/strong&gt":10856,"uuid":10857,"wix":10858,"</metadata>":10859,"rence":10860,"<a-ad":10861,"</a-ad>":10862,"lear":10863,"ther-":10864,"et-id":10865,"trg":10866,"<porta":10867,"rol":10868,"roll":10869,"noexcerpt":10870,"sect":10871,"bol-b":10872,"items":10873,"ct-id":10874,"oud":10875,"ouche":10876,"mai":10877,"tab_":10878,"id_2\"/>":10879,"<banner":10880,"viet-id":10881,"stry":10882,"</porta":10883,"loaded":10884,"rate":10885,"translation":10886,"class_575\"":10887,"class_640\"":10888,"class_586\"":10889,"class_589\"":10890,"class_598\"":10891,"class_673\">":10892,"class_668\">":10893,"106.":10894,"class_615\">":10895,"class_35\"></span><span":10896,"class_724":10897,"class_684":10898,"</banner":10899,"le-text":10900,"class_772":10901,"class_775":10902,"class_748":10903,"applications":10904,"touchstart":10905,"preload-di":10906,"sublist":10907,"shop":10908,"x-template\">":10909,"150":10910,"159\"/>":10911,"main-content-":10912,"180":10913,"184\">":10914,"s-block":10915,"track-breadcrumb":10916,"196\"/>":10917,"static":10918,"280\">":10919,"show-back":10920,"module-id":10921,"238\"":10922,"font-face":10923,"993\"":10924,"<ea-game-":10925,"</ea-game-":10926,"<feature":10927,"</fb:li":10928,"section_":10929,"beds\">":10930,"357\"":10931,"<video-":10932,"id_342\"":10933,"id_346\"":10934,"id_349\"":10935,"id_355\"":10936,"id_373\"":10937,"id_361\"":10938,"c-menu-":10939,"document":10940,"compa":10941,"406\"":10942,"id_395\"":10943,"i-img":10944,"i-loop":10945,"i-info":10946,"6647":10947,"444\"":10948,"id_452\">":10949,"id_449\">":10950,"id_506\">":10951,"id_509\">":10952,"id_497\">":10953,"id_492\">":10954,"amp;&amp":10955,"onaux":10956,"6.6\"":10957,"publisher\"":10958,"Conte":10959,"background-image-alt-text":10960,"safe":10961,"sale-text":10962,"responsive-image":10963,"2_ctl0":10964,"bcn-":10965,"modal-group>":10966,"ype-count":10967,"schema>":10968,"show-front":10969,"data_channelid":10970,"1,,":10971,"-small-teaser":10972,"menu-item-child-":10973,"rep_Navigation2_ctl0":10974,"&lt;strong&gt;Comme":10975,"ite_specific_data_schema>":10976,"fl:fl-":10977,"simple\"":10978,"olution":10979,"Embeds\">":10980,"main-link-title":10981,"main-link-url":10982,"1.1875em\"":10983,"1.1875em\">":10984,"i-img-ratio":10985,"i-img-qs":10986,"menu.items[0":10987,"menu.items[1":10988,"91e":10989,"mega-menu-sublist":10990,"graphics":10991,"mvl-type":10992,"mw-modal-group>":10993,"cables":10994,"toast":10995,"page_card>":10996,"websites":10997,"/htmlEmbeds\">":10998,"-advertisement":10999,"software.\">":11000,"ost_image_":11001,"Use&lt;/strong&gt":11002,"wix/htmlEmbeds\">":11003,"preload-distance":11004,"show-back-alt":11005,"<ea-game-box":11006,"</ea-game-box>":11007,"</fb:like>":11008,"onauxclick":11009,"show-front-alt":11010,"&lt;strong&gt;Commercial":11011,"fl:fl-noexcerpt":11012,"-3":11013,"-navigation":11014,"-date>":11015,"31":11016,"475\"":11017,"447":11018,"528\"":11019,"710\"":11020,"732\"/>":11021,"850\"/>":11022,"810\"/>":11023,"872\"/>":11024,"9d":11025,"DB":11026,"Share":11027,"Ti":11028,"VI":11029,"break":11030,"c57":11031,"ev":11032,"k3":11033,"mpt":11034,"ng>":11035,"p_":11036,"{E":11037,"</u":11038,"id-":11039,"</li><li>":11040,"</span></pre>":11041,"script-id":11042,"<site_specific_data_property":11043,"conttype":11044,"</site_specific_data_property":11045,"content-item":11046,"<ps-promo":11047,"boiler":11048,"er\"":11049,"ert":11050,"lable":11051,"props":11052,"init":11053,"class_265\"/>":11054,"mas":11055,"forum":11056,"</ps-promo":11057,"id_480\">":11058,"<strong><a":11059,"transf":11060,"class_637\"":11061,"class_639\"":11062,"colle":11063,"class_597\">":11064,"class_594\"":11065,"class_663\">":11066,"plate":11067,"class_619\"":11068,"class_721":11069,"class_683":11070,"class_684\">":11071,"class_874":11072,"class_791":11073,"class_772\">":11074,"class_746":11075,"subtitle":11076,"subscribe":11077,"156\"/>":11078,"class_188\"/>":11079,"class_170\"></span><span":11080,"144\">":11081,"s-menu\"":11082,"class_171\"></span></p><dl":11083,"v-t":11084,"select-":11085,"241\"":11086,"react-":11087,"panel>":11088,"300px\">":11089,"29px\"":11090,"enabled":11091,"336\"":11092,"</feature":11093,"bus":11094,"48px\">":11095,"id_347\"":11096,"id_339\"":11097,"009\">":11098,"id_372\"":11099,"id_365\"":11100,"id_367\"":11101,"></a></strong>":11102,"664\"/>":11103,"<app-rating":11104,"</app-rating>":11105,"openid":11106,"id_458\">":11107,"dropdown-menu-":11108,"70%\"":11109,"id_469\">":11110,"models-":11111,"id_496\">":11112,"gridwidth":11113,"id_485\">":11114,"hand":11115,"<code></code></pre>":11116,"cloud":11117,"header-search-":11118,"1116\"/>":11119,"desktop\"":11120,"directory":11121,"responsive-image>":11122,"ugge":11123,"global-header__":11124,"-panel\"":11125,"</search-":11126,"www.":11127,"in-new":11128,"<yg-card":11129,"sharing-panel-":11130,"open-in-new":11131,"item-models-":11132,"1.875":11133,"Dropdown\"":11134,"calendar":11135,"from-cache":11136,"Contents":11137,"</site_specific_data_property>":11138,"boilerplate":11139,"global-header__item-models-":11140,"-logge":11141,"/bu":11142,"1120\"/>":11143,"1140\">":11144,"3F":11145,"423\"":11146,"43.":11147,"50.":11148,"625\"":11149,"626\"":11150,"770\"":11151,"<bol-":11152,"<nice":11153,"@font-face":11154,"AE":11155,"CSS":11156,"D0":11157,"EC":11158,"NE":11159,"She":11160,"Zur":11161,"l:":11162,"spre":11163,"snipp":11164,"vsite":11165,"xid":11166,"xxs":11167,"xhr":11168,"yo":11169,"ystem":11170,"lar":11171,"land":11172,"</date":11173,"</di>":11174,"</tab>":11175,"</bol-":11176,"</nice":11177,"</value>":11178,"</div></textarea>":11179,"ling-":11180,"href-logge":11181,"class_10\"/>":11182,"ull-":11183,"dem":11184,"contro":11185,"internation":11186,"mlxs":11187,"app>":11188,"image-url":11189,"stylesheet\">":11190,"nex":11191,"id_512\">":11192,"id_511\">":11193,"class_43\"/>":11194,"class_46\"/>":11195,"class_48\"/>":11196,"<gcse:searchbox-only>":11197,"class_656\">":11198,"class_651\"":11199,"class_653\"":11200,"class_671\">":11201,"img\"/>":11202,"class_723":11203,"class_737":11204,"class_872":11205,"class_992":11206,"ng-non":11207,"ng-blur":11208,"class_123\"/>":11209,"subtree":11210,"quisition":11211,"pot":11212,"cxl-":11213,"booking-":11214,"174\"/>":11215,"class_215\"/>":11216,"class_187\"/>":11217,"tracker-":11218,"1384\"/>":11219,"class_208\"/>":11220,"197\"/>":11221,"menu-/":11222,"video-content\">":11223,"list-sm":11224,"-links>":11225,"eventcode":11226,"nghost-sc16":11227,"nghost-sc76":11228,"-image-re":11229,"330\">":11230,"dustry":11231,"componenttransf":11232,"contentinfo\"":11233,"482\"/>":11234,"id_336\"":11235,"id_358\"":11236,"id_378\"":11237,"id_377\"":11238,"id_379\"":11239,"id_368\"":11240,"40px\"/>":11241,"494\"":11242,"id_381\"":11243,"-wrap>":11244,"474\"/>":11245,"453\"":11246,"ngcontent-sc122":11247,"562\"":11248,"remove":11249,"80%\"":11250,"<client-star":11251,"</client-main>":11252,"</client-star":11253,"id_467\">":11254,"55px\"":11255,"id_476\">":11256,"id_475\">":11257,"id_473\">":11258,"id_472\">":11259,"546\"":11260,"id_500\">":11261,"id_507\">":11262,"id_490\">":11263,"id_491\">":11264,"id_484\">":11265,"id_482\">":11266,"lazy-load-parent":11267,"navbarNav":11268,"dynamic-media>":11269,"header-search":11270,"mtxxs":11271,"mobilemenu-/":11272,"Navigation\"":11273,"-popup>":11274,"-popular-":11275,"endpoint":11276,"nghost-sc52":11277,"submenuOpen":11278,"].submenuOpen":11279,"&lt;strong&gt;@font-face":11280,"gameid":11281,"ffan":11282,"ga-impression-event-category":11283,"ga-impression-event-action":11284,"analyticsaction":11285,".com/":11286,"<search-":11287,"elm-dynamic-media>":11288,"doubleclick\">":11289,"Embedding":11290,"Icon\"":11291,"leader":11292,"cms-name":11293,"-scrollable-":11294,"<vaadin-tab":11295,"ÃÃÂ¼ck\"":11296,"my-date":11297,"zpgameid":11298,"gov-banner\"":11299,"string\">":11300,"cdkmonitor":11301,"-bindable":11302,"-post-preview":11303,"menu.items[0].subItems[":11304,"menu.items[1].subItems[":11305,"business":11306,"directory\">":11307,"<nice-date":11308,"CSS.\">":11309,"Sheet\"":11310,"ZurÃÃÂ¼ck\"":11311,"</nice-date>":11312,"href-loggedin-":11313,"controlid":11314,"ng-non-bindable":11315,"subtreefocus":11316,"tracker-eventcode":11317,"list-sm-scrollable-":11318,"-image-resizer":11319,"<client-stars":11320,"</client-stars>":11321,"Embedding&lt;/strong&gt":11322,"cdkmonitorsubtreefocus":11323,"list-sm-scrollable-item":11324,"-size":11325,"-time":11326,"-mode":11327,"-fallback":11328,"1170\"/>":11329,"316\"/>":11330,"3Rl":11331,"421\"":11332,"419\">":11333,"632":11334,"636\"":11335,"82":11336,"9b":11337,"960\">":11338,"<z":11339,"<dialog":11340,"<component":11341,"<yg-":11342,"<data>":11343,"<bol":11344,"<custom-style>":11345,"Al":11346,"Ho":11347,"L2":11348,"OW":11349,"PD":11350,"Sta":11351,"Slider":11352,"Sugge":11353,"YLE":11354,"d8":11355,"f\"":11356,"iframe":11357,"ie-":11358,"s:":11359,"save":11360,"tbG":11361,"za":11362,"</z":11363,"</yg-":11364,"</component>":11365,"</custom-style>":11366,"pagi":11367,"led":11368,"ties":11369,"rimage":11370,"title-loans\"":11371,"contentunits":11372,"contents\"":11373,"se-":11374,"boot":11375,"force":11376,"id_340\"":11377,"id_350\"":11378,"id_360\"":11379,"id_370\"":11380,"ned":11381,"id_515\">":11382,"class_623\">":11383,"class_63\"/>":11384,"class_661\">":11385,"105":11386,"108px\"":11387,"class_610\"":11388,"class_762\">":11389,"321\"":11390,"class_686\">":11391,"class_683\">":11392,"class_787":11393,"class_752\">":11394,"class_871\"":11395,"class_873\"":11396,"class_848":11397,"class_59\"></span><span":11398,"class_891\"":11399,"class_779":11400,"class_76\"><span":11401,"class_86\"><span":11402,"class_881":11403,"class_824":11404,"class_862":11405,"class_1358":11406,"ng-key":11407,"class_1360":11408,"class_1362":11409,"class_1364":11410,"class_1366":11411,"class_128\"><li><a":11412,"subsection":11413,"lot>":11414,"mart":11415,"control_id":11416,"book-title\">":11417,"class_1825":11418,"acquisition":11419,"139f":11420,"13c57":11421,"cell\">":11422,"1900\"/>":11423,"tota":11424,"241\"/>":11425,"class_247\"/>":11426,"spacer":11427,"application/rdf":11428,"-links\"":11429,"226\"/>":11430,"keyword":11431,"url\"/>":11432,"speech":11433,"304\"/>":11434,"spec.org/":11435,"module-wrap>":11436,"ng-reflect-dossier":11437,"curtin-":11438,"1.98\"":11439,"newsex":11440,"id_337\"":11441,"id_351\"":11442,"tilesrcset":11443,"tileabs":11444,"id_366\"":11445,"397\">":11446,"409\"":11447,"467\"":11448,"id_383\"":11449,"id_389\"":11450,"473\"/>":11451,"adtype":11452,"admethod":11453,"447\">":11454,"patterntransform":11455,"js-role":11456,"<client-page":11457,"</client-page>":11458,"asset":11459,"ngcontent-sc31908":11460,"903c":11461,"-progress":11462,"582\"":11463,"582\"/>":11464,"ne-nex":11465,"3.8":11466,"page-path":11467,"id_504\">":11468,"id_499\">":11469,"id_494\">":11470,"id_495\">":11471,"id_498\">":11472,"id_483\">":11473,"id_481\">":11474,"id_487\">":11475,"themeoptions":11476,"8.9":11477,"-4E":11478,"539\"/>":11479,"submenu-5\"":11480,"lightbox":11481,"oper-slide>":11482,"main-menu\"":11483,"main-nav\"":11484,"&gt;":11485,"e-text/javascript\">":11486,"toggler":11487,"</rs-module>":11488,"</rs-module-wrap>":11489,"country-selector-":11490,"view-box":11491,"-popover":11492,"66666666":11493,"helper":11494,"<nmo-dossier":11495,"</nmo-dossier":11496,"<rs-slides>":11497,"</rs-slides>":11498,"settings>":11499,"switch\"":11500,"yg-server-host-sc62":11501,"1.500":11502,"drawer\"":11503,"ad-location":11504,"nxtray-":11505,"requesturl":11506,"</yg-card>":11507,"STYLE":11508,"5215":11509,"<rs-module-wrap":11510,"when":11511,"wt-cli-tab":11512,"returnvalue":11513,"http://opds-":11514,"accessible-megamenu-":11515,"_year\">":11516,"vendor":11517,"<portal":11518,"664713c57":11519,"safeframe":11520,"91e139f":11521,"spreadmethod":11522,"3Rlc3":11523,"632664713c57":11524,"ie-style":11525,"application/rdf+xml\"/>":11526,"newsexpo":11527,"tileabsurl":11528,"903c91e139f":11529,"ne-nexad":11530,"<nmo-dossier-icon":11531,"</nmo-dossier-icon>":11532,"http://opds-spec.org/":11533,"632664713c57e-text/javascript\">":11534,"903c91e139f632664713c57e-text/javascript\">":11535,"-results\"":11536,".2\"":11537,"113\"/>":11538,"2%\"":11539,"399\"/>":11540,"412\"":11541,"419\"":11542,"41px\"":11543,"5C":11544,"52px\"":11545,"618\"/>":11546,"776\"/>":11547,"9px\"/>":11548,"988\"/>":11549,"<column>":11550,"<mgm":11551,"<rg-adfox":11552,"<tabs-container":11553,"AM":11554,"Di":11555,"E-":11556,"Et":11557,"Publi":11558,"c0":11559,"d7":11560,"ds":11561,"es-":11562,"ger>":11563,"js>":11564,"mw":11565,"sa-":11566,"tg":11567,"tname":11568,"uci":11569,"vlink":11570,"wkey":11571,"words":11572,"wj-":11573,"</mgm":11574,"</rg-adfox":11575,"</dialog>":11576,"redit":11577,"recent":11578,"hrefurl":11579,"pane-":11580,"dataname":11581,"</span></code></pre>":11582,"demic":11583,"<switch>":11584,"rel='\"":11585,"aria-co":11586,"erni":11587,"view_":11588,"images":11589,"chat":11590,"id_532\">":11591,"id_514\">":11592,"id_521\">":11593,"id_527\">":11594,"false'\"":11595,"class_696\"":11596,"class_64\"/>":11597,"ble-content>":11598,"class_652\">":11599,"class_580\"":11600,"class_38\"></span><span":11601,"date-type":11602,"class_660\">":11603,"101\"/>":11604,"108px\"/>":11605,"class_761":11606,"class_763":11607,"class_735":11608,"class_685\">":11609,"class_802\">":11610,"class_784\">":11611,"class_754":11612,"noreff":11613,"class_771":11614,"class_771\">":11615,"async-url":11616,"class_885":11617,"class_864\">":11618,"class_1195":11619,"franch":11620,"class_1375":11621,"class_1377":11622,"125\">":11623,"123\"/>":11624,"120px\"":11625,"1247\"":11626,"gate":11627,"1540\"/>":11628,"mainNav":11629,"marker>":11630,"200":11631,"1818":11632,"161\"/>":11633,"177\"":11634,"179\"/>":11635,"canonical\"":11636,"tagert":11637,"2500\"/>":11638,"2400\"/>":11639,"lazzy":11640,"364\"":11641,"220\">":11642,"down.":11643,"panel_":11644,"309\"/>":11645,"300px\"/>":11646,"287\"":11647,"show-close":11648,"pro-overlay":11649,"ngcontent-sc26":11650,"ga-component-name":11651,"regis":11652,"33px\"":11653,"onfocusin":11654,"383\"":11655,"386\"/>":11656,"results-":11657,"480\">":11658,"collapseOne":11659,"id_338\"":11660,"id_352\"":11661,"id_354\"":11662,"id_356\"":11663,"text/x-custom-":11664,"id_384\"":11665,"this_year\">":11666,"mobile-menu-item-link-":11667,"-industry":11668,"js-find-a-":11669,"-swipe":11670,"ngcontent-sc162":11671,"hared-":11672,"hawkey":11673,"90%\">":11674,"584\"":11675,"3.009\">":11676,"id_503\">":11677,"id_493\">":11678,"id_489\">":11679,"7.1\"":11680,"8.33":11681,"686\"/>":11682,"mat-button":11683,"yg-server-content-sc150":11684,".06\"":11685,"id_553\">":11686,"id_552\">":11687,"hover-class":11688,"dl-lang":11689,"menu__link":11690,"menu__link--level-0":11691,"211\"/>":11692,"105\"/><span></span>":11693,"bcn":11694,"1175\"/>":11695,"</div></div></textarea>":11696,"vote":11697,"slideshow\"":11698,"mqn-autotrack-label":11699,"</ws-text>":11700,"sidebar_list":11701,"96px\"":11702,"-renderer":11703,"hero-banner":11704,"discerni":11705,"></a></li></ul><h4><a":11706,"views_slideshow_cycle_div_homepage_":11707,"gva_block":11708,"nav_sidebar_list":11709,"action-xhr":11710,"funca":11711,"terms\"/>":11712,"json-ld":11713,"json-ld>":11714,"preserve-params":11715,"gva_layout_columns":11716,"prev\">":11717,"skip-":11718,"facebook\"":11719,"twitter\"":11720,"ng-switch-when":11721,"Main":11722,"movie-poster":11723,"schema.dcterms\"/>":11724,"plore":11725,"write":11726,"jellybean\"":11727,"</portal>":11728,"section_key":11729,"collection":11730,"/buy\">":11731,"international":11732,"ffany-":11733,"acquisition/buy\">":11734,"6666666666":11735,"http://opds-spec.org/acquisition/buy\">":11736,"wj-hawkey":11737,"</rg-adfox>":11738,"datanamefield":11739,"aria-colindex":11740,"franchise":11741,"text/x-custom-template\">":11742,"js-find-a-pro-overlay":11743,"discernible-content>":11744,"wj-hawkeye":11745,"-view":11746,"-nav>":11747,"-un":11748,"3e":11749,"348\"":11750,"419":11751,"417\"":11752,"5e":11753,"515\"":11754,"514\"":11755,"530\"/>":11756,"585\"":11757,"53.":11758,"820\"/>":11759,"948\"/>":11760,"970\">":11761,"<tab":11762,"<mq":11763,"A0":11764,"A7":11765,"A8":11766,"CH":11767,"D8":11768,"Popup":11769,"Pan":11770,"Rh":11771,"Wid":11772,"YX":11773,"auth":11774,"don":11775,"fg":11776,"f-4":11777,"gws-":11778,"hat":11779,"nvariant":11780,"</ig":11781,"</mq":11782,"did":11783,"dict":11784,"</div></a></li><li><a":11785,"ten":11786,"sc:":11787,"<iti-authored":11788,"<igws-":11789,"style\"":11790,"de-":11791,"er\">":11792,"text/calendar":11793,"</iti-authored":11794,"id_422\"":11795,"menu-id":11796,"pre_hidden_text":11797,"id_518\">":11798,"id_522\">":11799,"id_528\">":11800,"id_525\">":11801,"id_517\">":11802,"id_533\">":11803,"id_531\">":11804,"id_537\">":11805,"app-":11806,"-run":11807,"class_633\"":11808,"class_585\"":11809,"class_670\">":11810,"class_668\"":11811,"webp-fallback":11812,"class_613\"":11813,"class_765":11814,"class_739":11815,"class_681\">":11816,"class_687\">":11817,"class_78\"/>":11818,"class_773":11819,"class_744":11820,"class_111\"/>":11821,"art":11822,"submenu\">":11823,"124\">":11824,"157":11825,"152.":11826,"183\"/>":11827,"173\"/>":11828,"1760\"/>":11829,"s-menu-":11830,"1983\"/>":11831,"selection":11832,"listItem\">":11833,"nghost-":11834,"nghost-sc69":11835,"998\"":11836,"<ea-local":11837,"</ea-local":11838,"accessories":11839,"339\"/>":11840,"section-title":11841,"377\"":11842,"under":11843,"484\"":11844,"000\">":11845,"id_363\"":11846,"399\"":11847,"superi":11848,"document\"":11849,"-submenu\"":11850,"468\"":11851,"id_385\"":11852,"ad\"":11853,"mobile-target":11854,"mobile-ad":11855,"id_401\"":11856,"id_409\"":11857,"441\"":11858,"or-width":11859,"1765\"/>":11860,"<client-cookies-policy":11861,"</client-cookies-policy":11862,"<amp-carousel":11863,"</amp-carousel>":11864,"id_508\">":11865,"zone-id":11866,"id_486\">":11867,"695\"/>":11868,"ms-controller":11869,"message>":11870,"light\">":11871,"gb_superi":11872,"id_565\">":11873,"id_550\">":11874,"tracking-id":11875,"desktop-ad":11876,"-messages":11877,"mqn-lazyimage-src":11878,"nitro-lazy-srcset":11879,"attr-":11880,"image-webp-fallback":11881,"sidebar>":11882,"brand-":11883,"height-or-width":11884,"largest":11885,"ga-impression-event-label":11886,"45454545":11887,"List":11888,"sharing-panel--":11889,"mqn-inview-slide-bottom-up--":11890,"mqn-lazyimage-google-image-auto":11891,"mqn-lazyimage-google-image-webp-fallback":11892,"x-transition:leave":11893,"scity":11894,"justi":11895,"struc":11896,"-plug":11897,"universal-":11898,"mqn-lazyimage-height-or-width":11899,"disclosure":11900,"Image\"/>":11901,"preview-mode":11902,"yqg-events":11903,"tagerturl":11904,"Panel":11905,"</igws-":11906,"text/calendar\"/>":11907,"</client-cookies-policy>":11908,"gb_superinvariant":11909,"mqn-lazyimage-google-image-autowidth":11910,")\"":11911,"-region":11912,"1c":11913,"434\"":11914,"59\"/>":11915,"699":11916,"<x-":11917,"<edi-adverti":11918,"<meso-display":11919,"AB":11920,"Aka":11921,"D9":11922,"DEN":11923,"Photo":11924,"QU":11925,"Select":11926,"SITE":11927,"SQU":11928,"Vz":11929,"ame":11930,"d0":11931,"hou":11932,"l-accordion":11933,"mb":11934,"nb":11935,"pfe":11936,"rk-":11937,"sing>":11938,"uration":11939,"wx-":11940,"clang":11941,"</x-":11942,"</tabs-container":11943,"</edi-adverti":11944,"</meso-display":11945,"</rdf:rdf>":11946,"</foundation-component-rte>":11947,"div\"":11948,"research":11949,"reposition-":11950,"lias":11951,"pabs":11952,"<app":11953,"id\">":11954,"led-by":11955,"oninvalid":11956,"</span></span>":11957,"ptl:":11958,"metype":11959,"<ihk-":11960,"ulse":11961,"class_1820":11962,"class_194\"/>":11963,"rotate":11964,"buttom":11965,"button-":11966,"fifu":11967,"ctx":11968,"ins":11969,"indow":11970,"fillrule":11971,"</ihk-":11972,"nsw":11973,"aria-labelled-by":11974,"man":11975,"matic":11976,"tabs\"":11977,"tablist\"":11978,"ea7":11979,"index_":11980,"sizeset":11981,"id_400\"":11982,"predict":11983,"id_516\">":11984,"id_524\">":11985,"id_554\">":11986,"id_540\">":11987,"id_535\">":11988,"id_539\">":11989,"citi":11990,"class_620\"":11991,"-pink":11992,"mimetype":11993,"date-":11994,"class_595\"":11995,"class_606\"":11996,"class_609\"":11997,"class_714":11998,"class_714\">":11999,"class_89\"/>":12000,"class_897\"":12001,"class_796":12002,"class_794\">":12003,"ncel":12004,"class_741":12005,"class_884":12006,"class_866\">":12007,"class_867\">":12008,"class_1053":12009,"class_1054\">":12010,"</h5><p></p>":12011,"ng-touchstart":12012,"class_129\"><h5>":12013,"class_129\"></span><span":12014,"subsection-":12015,"class_1379":12016,"120px\">":12017,"x-ms-":12018,"class_161\"/>":12019,"cxl-accordion":12020,"1866\"/>":12021,"ural":12022,"146\"/>":12023,"class_1821":12024,"class_1824":12025,"class_1827":12026,"class_1829":12027,"class_1826\">":12028,"135\">":12029,"134\"/>":12030,"category\">":12031,"190":12032,"25em\"":12033,"menu-text":12034,"-bu":12035,"60.":12036,"608\"":12037,"609\"":12038,"class_221\"><a":12039,"nghost-sc30":12040,"300px\"":12041,"297\"":12042,"vf-":12043,"283.":12044,"nav-section-":12045,"pt-sizeset":12046,"ulture":12047,"d-error-message":12048,"d-wx-":12049,"373\"":12050,"378\"":12051,"371\"/>":12052,"__sect":12053,"1.82\">":12054,"id_362\"":12055,"340\">":12056,"343\"":12057,"api-":12058,"571\"":12059,"501\"":12060,"506\"":12061,"community":12062,"ngcontent-c13":12063,"469\"/>":12064,"id_392\"":12065,"id_391\"":12066,"id_393\"":12067,"id_396\"":12068,"id_399\"":12069,"47.":12070,"mobile-network-code":12071,"add-":12072,"445\"":12073,"569\"/>":12074,"65.":12075,"<client-json-ld":12076,"</client-json-ld>":12077,"75%\"":12078,"validation-error-message":12079,"product-dynamic-":12080,"-program":12081,"702\"/>":12082,"min-width":12083,"552\"":12084,"555\"/>":12085,"id_477\">":12086,"id_501\">":12087,"analytics-label":12088,"ngcontent-sc138":12089,"-flash":12090,"6.8":12091,"id_562\">":12092,"id_556\">":12093,"id_559\">":12094,"id_543\">":12095,"id_541\">":12096,"transparent":12097,"<ui":12098,"columnheader\">":12099,"hover-image-":12100,"-classes":12101,"-tablist":12102,"country-flag":12103,"ui-view":12104,"ÃÃÂ¥":12105,"month":12106,"id_769\">":12107,"hero>":12108,"-prefetch\"":12109,"rdf:about":12110,"rdf:resource":12111,"suggest-":12112,"pagespeed_":12113,"sticky-":12114,"-animated-":12115,"columns>":12116,"header-nav-panel":12117,"func":12118,"ej-hover-image-":12119,"tppabs":12120,"desktop-network-code":12121,"////////////////":12122,"sticky-position":12123,"ARE\"":12124,"Mobi":12125,"class_181\"></i><a":12126,"</vaadin-tab>":12127,"contact\">":12128,"react-autowhatever-1\"":12129,"format-detection":12130,"x-webkit-speech":12131,"disclaimer-":12132,"commentcount":12133,"srclang":12134,"shock":12135,"bol-bloc-":12136,"ouchend":12137,"mai-prefetch\"":12138,"show-close-icon":12139,"8.333%\">":12140,"nav_sidebar_list_":12141,"mobile-ad-position":12142,"desktop-ad-position":12143,"<edi-advertising":12144,"<meso-display-ad":12145,"Akamai-prefetch\"":12146,"SQUARE\"":12147,"</edi-advertising>":12148,"</meso-display-ad>":12149,"ptl:if":12150,"fifu-featured":12151,"-pink-arrow":12152,"</h5><p></p><div":12153,"class_129\"><h5></h5><p></p><div":12154,"x-ms-format-detection":12155,"product-dynamic-cover":12156,"-programmatic":12157,"ej-hover-image-change":12158,"-2\"":12159,"-template":12160,"115":12161,"3b":12162,"3-4":12163,"415\"/>":12164,"419\"/>":12165,"512":12166,"517\"/>":12167,"61":12168,"6_":12169,"69\"/>":12170,"625\"/>":12171,"638\"/>":12172,"812\"":12173,"880\"":12174,"<clippath>":12175,"<rdf:rdf>":12176,"<cc:wor":12177,"A5":12178,"ATE":12179,"Bl":12180,"D_":12181,"EF":12182,"HID":12183,"ICA":12184,"Le":12185,"More":12186,"St":12187,"UN":12188,"b6":12189,"dbl":12190,"gl":12191,"ii-":12192,"iLy93d3cuMDFuZXQuY29tL":12193,"mc":12194,"mh":12195,"na-":12196,"vue":12197,"vxmlns":12198,"yc":12199,"</cc:wor":12200,"liqu":12201,"pause":12202,"tact":12203,"le_":12204,"lest":12205,"onmenu":12206,"til-":12207,"class_6\"/>":12208,"mer":12209,"<ie:menuitem":12210,"<home":12211,"</home":12212,"<slider":12213,"target-":12214,"conden":12215,"</slider":12216,"note":12217,"ses":12218,"ngb":12219,"<metadata":12220,"val>":12221,"text/liqu":12222,"</ie:menuitem":12223,"hidea":12224,"max-image":12225,"id_380\"":12226,"id_390\"":12227,"id_417\"":12228,"id_423\"":12229,"id_429\"":12230,"-scale":12231,"<tfoot>":12232,"iconsrc":12233,"ce_":12234,"id_520\">":12235,"id_530\">":12236,"id_513\">":12237,"id_523\">":12238,"id_529\">":12239,"<gf-relative-":12240,"<dc:type":12241,"<dc:format>":12242,"</dc:type":12243,"</dc:format>":12244,"foot":12245,"ble-pro":12246,"class_654\"":12247,"class_655\"":12248,"class_599\"":12249,"class_675\"":12250,"lines":12251,"class_664\">":12252,"core":12253,"class_733":12254,"class_734":12255,"class_680\">":12256,"class_101\"/>":12257,"class_102\"/>":12258,"class_857":12259,"xmlns:ms":12260,"mallest":12261,"preconnect\"":12262,"class_176\"/>":12263,"1600\"":12264,"167.":12265,"172\"/>":12266,"170px\"/>":12267,"173px\"":12268,"menu-link":12269,"248\"/>":12270,"360\">":12271,"cour":12272,"-blog":12273,"maxi":12274,"nghost-sc19":12275,"nghost-sc21":12276,"quote-":12277,"30%\"":12278,"28125":12279,"</tfoot>":12280,"spm":12281,"23.5\"":12282,"profile-":12283,"servi":12284,"274\"":12285,"-car":12286,"268\"/>":12287,"267\"/>":12288,"lazy-strip":12289,"0.0":12290,"0.88":12291,"356\"":12292,"duate":12293,"__panel-":12294,"go-":12295,"https:":12296,"39px\"":12297,"398\"/>":12298,"yg-transition":12299,"is-international":12300,"46.":12301,"id_382\"":12302,"id_394\"":12303,"562\"/>":12304,"801\"":12305,"patterncontentunits":12306,"shared":12307,"64.":12308,"<amp-sidebar":12309,"</amp-sidebar>":12310,"uk-tooltip":12311,"705\"/>":12312,"configuration":12313,"amp-custom":12314,"id_505\">":12315,"cidad\"":12316,"fragment":12317,"air-entry-":12318,"599\"":12319,"792\"":12320,"ngcontent-serverapp-c8":12321,"id_561\">":12322,"</gf-relative-":12323,"id_546\">":12324,"id_544\">":12325,"id_547\">":12326,"id_542\">":12327,"flags>":12328,"-on-media":12329,"17.26\"":12330,"LinkType.SH":12331,"vertical\"":12332,"<transition-group":12333,"</transition-group>":12334,"help-":12335,"-pick":12336,"class_172\"><dt></dt><dd></dd></dl></a></li></ul>":12337,"animate":12338,"application/x-shock":12339,"<cx-amplience":12340,"</cx-amplience":12341,"Follow":12342,"</n-content>":12343,"Info":12344,"<rv-":12345,"</rv-":12346,"STATE":12347,"daptive":12348,"company-":12349,"wave-flash":12350,"S_VI":12351,"definition\">":12352,"collapsed\">":12353,"</video-js>":12354,"block-on-gdpr-vendor":12355,"aside-":12356,"PGEgaHJlZj0iLy93d3cuMDFuZXQuY29tL":12357,"<video-js":12358,"forumid":12359,"openid.":12360,"OWS_VI":12361,"Publicidad\"":12362,"<igws-flags":12363,"nghost-serverapp-c":12364,"</igws-flags>":12365,"DEN\"":12366,"SITED_":12367,"<cc:work":12368,"HIDDEN\"":12369,"dblclick":12370,"</cc:work>":12371,"onmenuclick":12372,"condensed\">":12373,"text/liquid\">":12374,"</ie:menuitem>":12375,"hideable-pro":12376,"max-image-preview":12377,
[...]
